<unk>	0
<s>	0
</s>	0
:“	-0
。”	-1
?”	-2
玄德	-3
!”	-4
孔明	-5
将军	-6
曹操	-7
却说	-8
司马	-9
二人	-10
不可	-11
丞相	-12
关公	-13
引兵	-14
云长	-15
▁却说	-16
荆州	-17
夏侯	-18
不能	-19
吕布	-20
张飞	-21
蜀兵	-22
如此	-23
玄德曰	-24
孔明曰	-25
大喜	-26
诸葛	-27
如何	-28
商议	-29
大怒	-30
魏延	-31
天下	-32
孙权	-33
主公	-34
军马	-35
操曰	-36
一人	-37
军士	-38
大惊	-39
刘备	-40
赵云	-41
夫人	-42
魏兵	-43
左右	-44
姜维	-45
司马懿	-46
笑曰	-47
次日	-48
去了	-49
东吴	-50
问曰	-51
十余	-52
袁绍	-53
视之	-54
不敢	-55
于是	-56
众将	-57
引军	-58
不知	-59
今日	-60
而走	-61
诸将	-62
汉中	-63
人马	-64
而去	-65
周瑜	-66
之事	-67
只见	-68
马超	-69
一军	-70
陛下	-71
后主	-72
都督	-73
黄忠	-74
上马	-75
张郃	-76
天子	-77
有一	-78
大叫	-79
背后	-80
一面	-81
不得	-82
入城	-83
而来	-84
忽报	-85
之言	-86
太守	-87
使人	-88
后人	-89
此人	-90
大军	-91
何不	-92
先主	-93
有诗	-94
邓艾	-95
令人	-96
??	-97
何故	-98
先生	-99
一声	-100
然后	-101
下马	-102
不如	-103
原来	-104
孟获	-105
汝等	-106
二十	-107
出城	-108
叹曰	-109
诸葛亮	-110
赶来	-111
张辽	-112
先锋	-113
城中	-114
之计	-115
正是	-116
二将	-117
军中	-118
忽然	-119
后人有诗	-120
之人	-121
大将	-122
奈何	-123
奏曰	-124
徐州	-125
之后	-126
喊声	-127
领兵	-128
不出	-129
大事	-130
成都	-131
大败	-132
百姓	-133
在此	-134
江东	-135
祁山	-136
之兵	-137
因此	-138
未知	-139
众官	-140
寨中	-141
不见	-142
斩之	-143
▁第	-144
其言	-145
庞德	-146
一齐	-147
下文	-148
人报	-149
接应	-150
来见	-151
从之	-152
以为	-153
徐晃	-154
百余	-155
鲁肃	-156
下寨	-157
刘表	-158
起兵	-159
马岱	-160
分解	-161
心中	-162
杀之	-163
进兵	-164
分付	-165
孙策	-166
必有	-167
城上	-168
曹仁	-169
而出	-170
而行	-171
董卓	-172
皇叔	-173
下文分解	-174
曹兵	-175
纵马	-176
出马	-177
只得	-178
有何	-179
许都	-180
之曰	-181
粮草	-182
追赶	-183
分兵	-184
洛阳	-185
于马	-186
众皆	-187
回报	-188
大怒曰	-189
夏侯惇	-190
三千	-191
十万	-192
五千	-193
随后	-194
且说	-195
关兴	-196
听得	-197
长安	-198
于地	-199
星夜	-200
杀来	-201
答曰	-202
五百	-203
文武	-204
若何	-205
之地	-206
十里	-207
许褚	-208
可以	-209
尽皆	-210
挺枪	-211
西川	-212
兄弟	-213
前面	-214
告曰	-215
若不	-216
问之	-217
刘璋	-218
肃曰	-219
司马昭	-220
一日	-221
军师	-222
王平	-223
不肯	-224
人也	-225
精兵	-226
立于	-227
谏曰	-228
乘势	-229
张翼	-230
袁术	-231
夏侯渊	-232
之意	-233
亲自	-234
吕蒙	-235
我等	-236
且看	-237
子龙	-238
差人	-239
入见	-240
准备	-241
城下	-242
孟达	-243
忽见	-244
甘宁	-245
三军	-246
不及	-247
懿曰	-248
李傕	-249
相见	-250
一彪	-251
两路	-252
伏兵	-253
小路	-254
此事	-255
死战	-256
英雄	-257
襄阳	-258
之中	-259
于禁	-260
孙乾	-261
言曰	-262
引一军	-263
三人	-264
众军	-265
公孙	-266
吴兵	-267
魏主	-268
不住	-269
两军	-270
坚守	-271
帐下	-272
当先	-273
朝廷	-274
蛮兵	-275
首级	-276
四面	-277
遣使	-278
吾今	-279
埋伏	-280
太后	-281
张苞	-282
投降	-283
无不	-284
来日	-285
之心	-286
其人	-287
出战	-288
报知	-289
之时	-290
之间	-291
传令	-292
大震	-293
并无	-294
必然	-295
曹洪	-296
曹真	-297
来迎	-298
樊城	-299
瑜曰	-300
大将军	-301
三路	-302
大王	-303
是夜	-304
杀出	-305
此时	-306
陆逊	-307
且看下文分解	-308
不从	-309
庞统	-310
特来	-311
于马下	-312
何人	-313
如之	-314
安敢	-315
廖化	-316
张鲁	-317
权曰	-318
死于	-319
出迎	-320
回见	-321
布曰	-322
明公	-323
李典	-324
箭射	-325
郭淮	-326
中军	-327
伏于	-328
将士	-329
心腹	-330
怒曰	-331
连夜	-332
遣人	-333
使者	-334
兴兵	-335
冀州	-336
数十	-337
曹军	-338
望见	-339
一阵	-340
中原	-341
前来	-342
吴侯	-343
汉室	-344
胜负	-345
使君	-346
大喝	-347
大骂	-348
屯兵	-349
本部	-350
关平	-351
击之	-352
大哭	-353
子敬	-354
山上	-355
引一	-356
唬骸	-357
太史	-358
奔走	-359
武士	-360
江南	-361
西凉	-362
闻之	-363
领命	-364
大惊曰	-365
一将	-366
交锋	-367
帐中	-368
未可	-369
来到	-370
而退	-371
遂令	-372
一彪军	-373
为先锋	-374
回马	-375
拜谢	-376
曹丕	-377
见了	-378
许昌	-379
设宴	-380
郭汜	-381
饮酒	-382
不可轻	-383
从其言	-384
如之奈何	-385
东南	-386
为首	-387
众人	-388
性命	-389
战不	-390
而死	-391
关公曰	-392
不足	-393
厮杀	-394
吾已	-395
城门	-396
当日	-397
掩杀	-398
杀入	-399
而回	-400
汉中王	-401
两个	-402
五万	-403
张任	-404
慌忙	-405
父子	-406
细作	-407
而入	-408
自有	-409
进发	-410
黄盖	-411
大叫曰	-412
严颜	-413
城外	-414
夹攻	-415
搦战	-416
江夏	-417
火光	-418
礼毕	-419
谋士	-420
问其	-421
再三	-422
有失	-423
杀到	-424
五十	-425
前进	-426
即日	-427
大兵	-428
岂可	-429
此言	-430
火起	-431
而进	-432
蔡瑁	-433
蜀中	-434
貂蝉	-435
部将	-436
钟会	-437
韩当	-438
▁且说	-439
刘玄德	-440
之策	-441
周泰	-442
国家	-443
张昭	-444
往来	-445
报说	-446
攻打	-447
早有	-448
昔日	-449
直取	-450
言讫	-451
闻言	-452
太史慈	-453
之众	-454
何以	-455
何处	-456
何如	-457
各自	-458
向前	-459
听知	-460
数百	-461
此乃	-462
司马师	-463
为前	-464
之子	-465
兵到	-466
已定	-467
群臣	-468
言未	-469
魏王	-470
大寨	-471
拨马	-472
新野	-473
果然	-474
法正	-475
相待	-476
大笑曰	-477
三十	-478
不曾	-479
人之	-480
公瑾	-481
图之	-482
数合	-483
文丑	-484
杀了	-485
消息	-486
皇帝	-487
陈宫	-488
黄祖	-489
二十余	-490
乃是	-491
勒马	-492
吾与	-493
大半	-494
已毕	-495
拍马	-496
放火	-497
杨仪	-498
程普	-499
莫非	-500
袁尚	-501
云长曰	-502
一百	-503
于此	-504
刘封	-505
后军	-506
呈上	-507
国太	-508
报仇	-509
益州	-510
贾诩	-511
大喜曰	-512
不必	-513
之士	-514
入帐	-515
兵来	-516
出曰	-517
后面	-518
吾等	-519
回顾	-520
收军	-521
汝可	-522
至此	-523
计议	-524
诸侯	-525
败走	-526
迎敌	-527
飞报	-528
喊声大震	-529
一个	-530
三万	-531
不许	-532
交战	-533
人皆	-534
便走	-535
可速	-536
回到	-537
孙坚	-538
安能	-539
必为	-540
手下	-541
收拾	-542
迎接	-543
汝二人	-544
”。	-545
一刀	-546
丁奉	-547
之上	-548
之处	-549
二更	-550
其余	-551
刺史	-552
四人	-553
回寨	-554
坐于	-555
小沛	-556
当夜	-557
忠义	-558
数日	-559
班师	-560
百官	-561
糜竺	-562
荀彧	-563
董承	-564
取荆州	-565
夏侯霸	-566
乐进	-567
大呼	-568
拔剑	-569
求救	-570
而不	-571
赶到	-572
车仗	-573
追之	-574
退兵	-575
马腾	-576
▁次日	-577
两边	-578
叱曰	-579
守把	-580
攻之	-581
方可	-582
无数	-583
校尉	-584
正欲	-585
用兵	-586
谁敢	-587
闻知	-588
分付曰	-589
——	-590
之下	-591
关某	-592
其事	-593
到此	-594
城池	-595
大乱	-596
屯于	-597
抵敌	-598
提兵	-599
正遇	-600
比及	-601
河北	-602
皆是	-603
营中	-604
进曰	-605
须臾	-606
后人有诗赞	-607
不听	-608
与我	-609
何足	-610
厉声	-611
又唤	-612
吾欲	-613
四下	-614
大小	-615
张嶷	-616
徐盛	-617
愿往	-618
旌旗	-619
炮响	-620
相助	-621
知之	-622
自引	-623
自此	-624
马忠	-625
两下	-626
今若	-627
前去	-628
围住	-629
在后	-630
武侯	-631
每日	-632
韩遂	-633
飞马	-634
如此如此	-635
丈夫	-636
不过	-637
久矣	-638
今夜	-639
何必	-640
兵至	-641
劫寨	-642
去路	-643
合淝	-644
吴主	-645
审配	-646
径到	-647
此处	-648
直至	-649
看时	-650
观之	-651
邓芝	-652
颜良	-653
二子	-654
于路	-655
公子	-656
公曰	-657
前军	-658
岂不	-659
方欲	-660
来降	-661
生擒	-662
荆襄	-663
败军	-664
重赏	-665
门外	-666
马上	-667
马谡	-668
不已	-669
不想	-670
之势	-671
了一	-672
兖州	-673
入宫	-674
典韦	-675
前后	-676
副将	-677
千余	-678
奋力	-679
安得	-680
有人	-681
杨奉	-682
正行	-683
维曰	-684
而起	-685
谷中	-686
起身	-687
追杀	-688
南郡	-689
只是	-690
吾当	-691
大路	-692
必不	-693
时分	-694
曹公	-695
曹睿	-696
此是	-697
死者	-698
社稷	-699
讨贼	-700
阵前	-701
公孙瓒	-702
孔明笑曰	-703
三日	-704
为大	-705
入后	-706
兵败	-707
其不	-708
具言	-709
刘琦	-710
司徒	-711
大笑	-712
太师	-713
寨栅	-714
尚书	-715
操令	-716
收兵	-717
无人	-718
早晚	-719
正在	-720
此计	-721
自回	-722
自来	-723
街亭	-724
遥望	-725
雒城	-726
骤马	-727
高顺	-728
黄巾	-729
▁孔明	-730
三十余	-731
玄德与	-732
百余人	-733
:‘	-734
下令	-735
为上	-736
为号	-737
之所	-738
先帝	-739
刀斧	-740
南安	-741
卧龙	-742
号令	-743
吾自	-744
大起	-745
官僚	-746
已被	-747
截住	-748
推出	-749
方才	-750
来救	-751
此去	-752
江边	-753
父亲	-754
百万	-755
绍曰	-756
老夫	-757
虚实	-758
遂命	-759
飞曰	-760
骂曰	-761
大呼曰	-762
一处	-763
不动	-764
之法	-765
他人	-766
凌统	-767
匹夫	-768
十二	-769
即时	-770
君侯	-771
吾主	-772
四散	-773
大夫	-774
天明	-775
天水	-776
安民	-777
将来	-778
常侍	-779
张绣	-780
成功	-781
提刀	-782
擒之	-783
是也	-784
程昱	-785
立马	-786
行不	-787
谢曰	-788
豫州	-789
长子	-790
▁玄德	-791
与玄德	-792
众将曰	-793
商议曰	-794
夫人曰	-795
见玄德	-796
诸将曰	-797
▁操	-798
三更	-799
不分	-800
不用	-801
到来	-802
叫曰	-803
吾料	-804
大臣	-805
夺了	-806
孔融	-807
左边	-808
待之	-809
徐庶	-810
得胜	-811
拦住	-812
攻城	-813
旗号	-814
松曰	-815
止有	-816
翼德	-817
营寨	-818
见之	-819
部下	-820
重围	-821
隘口	-822
驱兵	-823
夏侯楙	-824
后人有诗叹曰	-825
三合	-826
二嫂	-827
修书	-828
关上	-829
其子	-830
其计	-831
各处	-832
吾乃	-833
哨马	-834
太傅	-835
平生	-836
弓弩	-837
数万	-838
是日	-839
泠苞	-840
泸水	-841
献帝	-842
糜芳	-843
赶上	-844
迎之	-845
关云长	-846
上表	-847
不在	-848
不绝	-849
不若	-850
且听	-851
中郎	-852
之恩	-853
之物	-854
乘虚	-855
军民	-856
华歆	-857
吾不	-858
吾有	-859
四将	-860
回去	-861
太尉	-862
寿春	-863
恐有	-864
战船	-865
汝南	-866
王允	-867
纪灵	-868
羌兵	-869
老小	-870
良久	-871
虽然	-872
败兵	-873
退军	-874
锐气	-875
阵中	-876
为前部	-877
令军士	-878
刀斧手	-879
如何不	-880
张飞曰	-881
问其故	-882
一枪	-883
之力	-884
从人	-885
使命	-886
便可	-887
便是	-888
冲天	-889
冲突	-890
即令	-891
吾弟	-892
呐喊	-893
土人	-894
开门	-895
径取	-896
手执	-897
昭曰	-898
曹爽	-899
木牛	-900
未及	-901
未尝	-902
来报	-903
水军	-904
流马	-905
看毕	-906
船只	-907
若得	-908
虽有	-909
言语	-910
足下	-911
遂与	-912
钱粮	-913
陶谦	-914
马匹	-915
鼓角	-916
刘皇叔	-917
为人	-918
之内	-919
仲达	-920
休走	-921
何进	-922
兄长	-923
再拜	-924
军器	-925
剑阁	-926
十五	-927
受计	-928
可也	-929
吴班	-930
吾之	-931
周郎	-932
哨探	-933
姓名	-934
守城	-935
山坡	-936
幸得	-937
当下	-938
得脱	-939
必来	-940
折了	-941
断后	-942
杀奔	-943
淮南	-944
皇后	-945
落马	-946
蜀将	-947
表曰	-948
诸军	-949
费祎	-950
退去	-951
那时	-952
那里	-953
长史	-954
阶下	-955
陈留	-956
魏军	-957
三十里	-958
之计也	-959
一声炮响	-960
且听下文分解	-961
一同	-962
不胜	-963
世之	-964
何也	-965
元年	-966
入内	-967
出师	-968
印绶	-969
吴懿	-970
吾军	-971
四方	-972
大进	-973
安肯	-974
寻思	-975
建安	-976
急令	-977
探知	-978
接入	-979
有此	-980
未敢	-981
潘璋	-982
略曰	-983
自领	-984
门旗	-985
陇西	-986
陈泰	-987
馆驿	-988
有一计	-989
言未毕	-990
木牛流马	-991
一万	-992
三百	-993
下邳	-994
不利	-995
不安	-996
乃谓	-997
之罪	-998
但见	-999
允曰	-1000
军前	-1001
十数	-1002
南阳	-1003
危矣	-1004
又令	-1005
取了	-1006
右边	-1007
国之	-1008
士仁	-1009
大功	-1010
太子	-1011
夺路	-1012
将至	-1013
已死	-1014
平关	-1015
平原	-1016
并力	-1017
府中	-1018
我军	-1019
李儒	-1020
知其	-1021
自己	-1022
自相	-1023
船上	-1024
袁谭	-1025
西北	-1026
诈败	-1027
贾充	-1028
跃马	-1029
车上	-1030
造反	-1031
阵势	-1032
陈登	-1033
领军	-1034
魏将	-1035
大喝曰	-1036
而言曰	-1037
请玄德	-1038
诸葛瑾	-1039
▁却说孔明	-1040
后人有诗曰	-1041
一时	-1042
不忍	-1043
中计	-1044
之才	-1045
今可	-1046
以防	-1047
便教	-1048
先行	-1049
入朝	-1050
即命	-1051
只有	-1052
各引	-1053
城内	-1054
士卒	-1055
妻子	-1056
孙礼	-1057
孙綝	-1058
定军	-1059
已到	-1060
帝曰	-1061
归路	-1062
所杀	-1063
此必	-1064
渡江	-1065
白旗	-1066
统曰	-1067
翻身	-1068
而已	-1069
而逃	-1070
西蜀	-1071
诈降	-1072
运粮	-1073
连日	-1074
长沙	-1075
青州	-1076
齐出	-1077
五百军	-1078
众谋士	-1079
▁却说曹操	-1080
一月	-1081
不下	-1082
不战	-1083
与吾	-1084
两家	-1085
乘马	-1086
亭侯	-1087
从事	-1088
伐魏	-1089
休矣	-1090
兵马	-1091
内应	-1092
又有	-1093
又见	-1094
可擒	-1095
哥哥	-1096
四十	-1097
宫曰	-1098
密书	-1099
山后	-1100
应声	-1101
张松	-1102
披挂	-1103
探听	-1104
接着	-1105
操贼	-1106
数里	-1107
斜谷	-1108
无路	-1109
明日	-1110
更兼	-1111
李严	-1112
知是	-1113
等候	-1114
良策	-1115
行至	-1116
贤弟	-1117
郭嘉	-1118
乱箭射	-1119
五千兵	-1120
赵子龙	-1121
▁时	-1122
不服	-1123
为使	-1124
之功	-1125
之命	-1126
之情	-1127
之道	-1128
事不	-1129
二贼	-1130
于吉	-1131
云曰	-1132
今又	-1133
何在	-1134
其心	-1135
其数	-1136
动静	-1137
千里	-1138
却被	-1139
只在	-1140
四海	-1141
天地	-1142
字子	-1143
小儿	-1144
山僻	-1145
所言	-1146
承曰	-1147
拜伏	-1148
拜辞	-1149
方今	-1150
是谁	-1151
本初	-1152
本寨	-1153
条路	-1154
正合	-1155
混战	-1156
甚是	-1157
皆被	-1158
看看	-1159
见操	-1160
谷口	-1161
过去	-1162
阿斗	-1163
雍州	-1164
默然	-1165
出祁山	-1166
性命如何	-1167
玄德大喜	-1168
。’	-1169
一半	-1170
一员	-1171
一枝	-1172
一路	-1173
一骑	-1174
不容	-1175
不然	-1176
不识	-1177
主上	-1178
从者	-1179
仰天	-1180
侍中	-1181
共议	-1182
关隘	-1183
决一	-1184
刘岱	-1185
刘璝	-1186
助战	-1187
匹马	-1188
卓曰	-1189
危急	-1190
反贼	-1191
多时	-1192
多言	-1193
奔回	-1194
子服	-1195
孟德	-1196
安营	-1197
引数	-1198
得了	-1199
惊曰	-1200
放心	-1201
旦夕	-1202
未迟	-1203
正与	-1204
正言	-1205
泣曰	-1206
生死	-1207
田丰	-1208
策曰	-1209
而哭	-1210
西南	-1211
西门	-1212
雷铜	-1213
青龙	-1214
鸣金	-1215
黄皓	-1216
与曹操	-1217
中郎将	-1218
二十里	-1219
下山	-1220
不为	-1221
不幸	-1222
与汝	-1223
东门	-1224
举火	-1225
之主	-1226
五六	-1227
五路	-1228
以此	-1229
会合	-1230
倘有	-1231
入川	-1232
兵法	-1233
军令	-1234
前事	-1235
势大	-1236
华雄	-1237
叔父	-1238
取之	-1239
名曰	-1240
吾兄	-1241
回军	-1242
多有	-1243
大开	-1244
天文	-1245
少顷	-1246
山中	-1247
平曰	-1248
归降	-1249
当之	-1250
待我	-1251
忽闻	-1252
摆开	-1253
斩首	-1254
无礼	-1255
无谋	-1256
来使	-1257
来攻	-1258
极多	-1259
活捉	-1260
满宠	-1261
濡须	-1262
王忠	-1263
现在	-1264
皆有	-1265
红旗	-1266
至今	-1267
衣甲	-1268
辽东	-1269
都尉	-1270
陈仓	-1271
面目	-1272
飞奔	-1273
黄昏	-1274
鼓声	-1275
不得已	-1276
众视之	-1277
只听得	-1278
孔明令	-1279
孙夫人	-1280
见孔明	-1281
为首大将	-1282
一合	-1283
三江	-1284
上将	-1285
上山	-1286
不信	-1287
二千	-1288
今番	-1289
以图	-1290
以致	-1291
但恐	-1292
何为	-1293
作书	-1294
公等	-1295
刘繇	-1296
勿忧	-1297
半路	-1298
去救	-1299
参军	-1300
又曰	-1301
吾亦	-1302
吾意	-1303
在外	-1304
在手	-1305
多少	-1306
多谋	-1307
失了	-1308
官渡	-1309
宫中	-1310
应曰	-1311
张济	-1312
探马	-1313
斩了	-1314
断其	-1315
杀至	-1316
来取	-1317
欲杀	-1318
步行	-1319
汝何	-1320
看了	-1321
素知	-1322
纵横	-1323
老人	-1324
老母	-1325
舞刀	-1326
表奏	-1327
议事	-1328
辽曰	-1329
遂引	-1330
郭图	-1331
二夫人	-1332
入后堂	-1333
十常侍	-1334
定军山	-1335
引一千	-1336
操大喜	-1337
自引兵	-1338
阳平关	-1339
骑将军	-1340
推出斩之	-1341
后人有诗赞曰	-1342
一封	-1343
下船	-1344
中取	-1345
乃令	-1346
交马	-1347
以来	-1348
但有	-1349
便回	-1350
便欲	-1351
八十	-1352
公卿	-1353
其缚	-1354
内外	-1355
刘晔	-1356
可得	-1357
后患	-1358
唤入	-1359
喜曰	-1360
国舅	-1361
坐定	-1362
大汉	-1363
如雨	-1364
安排	-1365
宗族	-1366
害我	-1367
山东	-1368
归寨	-1369
擂鼓	-1370
放起	-1371
整顿	-1372
文书	-1373
早降	-1374
未决	-1375
朱儁	-1376
欲与	-1377
正中	-1378
步军	-1379
相交	-1380
相府	-1381
简雍	-1382
聪明	-1383
荀攸	-1384
荼那	-1385
蒋钦	-1386
衣服	-1387
袁熙	-1388
诸路	-1389
赤兔	-1390
起处	-1391
身长	-1392
辛毗	-1393
过来	-1394
近臣	-1395
远来	-1396
邺郡	-1397
降诏	-1398
饮宴	-1399
马良	-1400
▁曹操	-1401
一枪刺	-1402
一箭射	-1403
入城中	-1404
十余里	-1405
大丈夫	-1406
引三千	-1407
数十骑	-1408
止之曰	-1409
董荼那	-1410
不可轻敌	-1411
▁却说玄德	-1412
一千	-1413
三年	-1414
上书	-1415
不才	-1416
不远	-1417
两马	-1418
久闻	-1419
书信	-1420
二万	-1421
亲往	-1422
今已	-1423
以安	-1424
以待	-1425
以手	-1426
伐吴	-1427
元直	-1428
公之	-1429
其意	-1430
冲杀	-1431
出寨	-1432
刘琮	-1433
动兵	-1434
勒兵	-1435
南征	-1436
去讫	-1437
又来	-1438
只恐	-1439
叱退	-1440
吊桥	-1441
听令	-1442
吾闻	-1443
哭拜	-1444
回身	-1445
在前	-1446
夏口	-1447
大会	-1448
头上	-1449
寨前	-1450
尽起	-1451
山路	-1452
帐前	-1453
彼军	-1454
径奔	-1455
我也	-1456
提防	-1457
是何	-1458
水陆	-1459
汉朝	-1460
江陵	-1461
泽曰	-1462
浮桥	-1463
濮阳	-1464
矢石	-1465
粮食	-1466
而坐	-1467
自然	-1468
蒋琬	-1469
请入	-1470
走脱	-1471
车驾	-1472
辞去	-1473
道荣	-1474
酒食	-1475
阴平	-1476
降者	-1477
高祖	-1478
高见	-1479
不可不	-1480
傅士仁	-1481
叱武士	-1482
夏侯尚	-1483
大骂曰	-1484
班师回	-1485
决一死战	-1486
坚守不出	-1487
大喝一声	-1488
战不数合	-1489
下手	-1490
不受	-1491
不思	-1492
不计	-1493
为何	-1494
为后	-1495
主簿	-1496
之仇	-1497
之谋	-1498
之辈	-1499
二弟	-1500
以兵	-1501
伊籍	-1502
伯约	-1503
兀突	-1504
军心	-1505
南郑	-1506
南门	-1507
去取	-1508
发兵	-1509
只宜	-1510
只留	-1511
召入	-1512
可惜	-1513
可破	-1514
吕范	-1515
吾非	-1516
告急	-1517
周仓	-1518
器械	-1519
回头	-1520
地理	-1521
垓心	-1522
壮士	-1523
大战	-1524
失色	-1525
妇人	-1526
孙桓	-1527
安定	-1528
少年	-1529
张南	-1530
张宝	-1531
彝陵	-1532
必将	-1533
我今	-1534
托孤	-1535
报入	-1536
拔寨	-1537
措手	-1538
操乃	-1539
操军	-1540
无益	-1541
景升	-1542
未定	-1543
某愿	-1544
樊稠	-1545
欣然	-1546
汉水	-1547
犹豫	-1548
狂风	-1549
玉玺	-1550
破敌	-1551
离城	-1552
羌人	-1553
老将	-1554
葭萌	-1555
许攸	-1556
诡计	-1557
说之	-1558
豪杰	-1559
起程	-1560
邓贤	-1561
郝昭	-1562
随即	-1563
顿首	-1564
馆舍	-1565
与孔明	-1566
兀突骨	-1567
后主曰	-1568
左右曰	-1569
引本部	-1570
心腹人	-1571
成阵势	-1572
操笑曰	-1573
见曹操	-1574
诸葛诞	-1575
陈留王	-1576
不计其数	-1577
”,	-1578
上庸	-1579
不久	-1580
不答	-1581
不须	-1582
两阵	-1583
为我	-1584
主人	-1585
乃与	-1586
乃问	-1587
之前	-1588
之声	-1589
于市	-1590
仁义	-1591
以报	-1592
侯成	-1593
保护	-1594
先取	-1595
全家	-1596
兴师	-1597
内有	-1598
出帐	-1599
出阵	-1600
分拨	-1601
利害	-1602
半晌	-1603
只道	-1604
可为	-1605
合兵	-1606
吾儿	-1607
四更	-1608
四路	-1609
基业	-1610
天命	-1611
如有	-1612
守之	-1613
守住	-1614
安忍	-1615
居民	-1616
岸上	-1617
已有	-1618
应允	-1619
异心	-1620
弃了	-1621
径投	-1622
总督	-1623
手起	-1624
拒敌	-1625
放声	-1626
救应	-1627
教我	-1628
无事	-1629
无所	-1630
未得	-1631
朱然	-1632
来战	-1633
楼上	-1634
次子	-1635
武艺	-1636
死不	-1637
死矣	-1638
毕竟	-1639
痛哭	-1640
相拒	-1641
知吾	-1642
破曹	-1643
立功	-1644
绵竹	-1645
罢兵	-1646
胜也	-1647
自与	-1648
自思	-1649
蜀主	-1650
蜀寨	-1651
计策	-1652
许多	-1653
贼兵	-1654
赤壁	-1655
身上	-1656
追袭	-1657
重用	-1658
陈武	-1659
面前	-1660
高翔	-1661
高览	-1662
魏寨	-1663
鼓响	-1664
▁于是	-1665
叱左右	-1666
在垓心	-1667
山谷中	-1668
左将军	-1669
此二人	-1670
西将军	-1671
诸将皆	-1672
一员大将	-1673
不分胜负	-1674
抵敌不住	-1675
措手不及	-1676
▁正	-1677
一一	-1678
一行	-1679
不止	-1680
中有	-1681
为之	-1682
之民	-1683
之臣	-1684
二处	-1685
便令	-1686
便行	-1687
入寨	-1688
其主	-1689
军兵	-1690
军到	-1691
军法	-1692
前者	-1693
前至	-1694
却教	-1695
厚恩	-1696
又无	-1697
多官	-1698
大作	-1699
奉诏	-1700
安歇	-1701
宝剑	-1702
对曰	-1703
将令	-1704
小舟	-1705
平明	-1706
当时	-1707
当此	-1708
径往	-1709
御林	-1710
必须	-1711
所以	-1712
扮作	-1713
拒之	-1714
招安	-1715
拥出	-1716
指曰	-1717
操自	-1718
攻击	-1719
救了	-1720
数人	-1721
文聘	-1722
无计	-1723
旧日	-1724
有功	-1725
柴桑	-1726
欲待	-1727
此地	-1728
此贼	-1729
汝既	-1730
深入	-1731
甚厚	-1732
甚急	-1733
白马	-1734
皆在	-1735
直入	-1736
相救	-1737
相迎	-1738
督邮	-1739
突出	-1740
童子	-1741
粮道	-1742
纷纷	-1743
结连	-1744
臣等	-1745
若非	-1746
袁氏	-1747
谓曰	-1748
贼众	-1749
起行	-1750
近闻	-1751
追兵	-1752
追至	-1753
邓忠	-1754
酒至	-1755
长叹	-1756
长坂	-1757
阚泽	-1758
陈式	-1759
难以	-1760
震地	-1761
面如	-1762
韩暹	-1763
首尾	-1764
黄权	-1765
黎阳	-1766
两路兵	-1767
十余人	-1768
千余人	-1769
只一合	-1770
四面围	-1771
百余骑	-1772
立马于	-1773
葭萌关	-1774
行不到	-1775
诸葛恪	-1776
赤兔马	-1777
▁第一百	-1778
二十余里	-1779
谓玄德曰	-1780
..	-1781
万余	-1782
三郡	-1783
下关	-1784
之名	-1785
之故	-1786
之状	-1787
之险	-1788
也不	-1789
二公	-1790
以鞭	-1791
何往	-1792
先到	-1793
出郭	-1794
县令	-1795
又被	-1796
取胜	-1797
受了	-1798
只待	-1799
可怜	-1800
同谋	-1801
君臣	-1802
吾若	-1803
大书	-1804
天色	-1805
守御	-1806
对圆	-1807
小将	-1808
岂有	-1809
张角	-1810
张让	-1811
当年	-1812
得一	-1813
得此	-1814
忠臣	-1815
惊疑	-1816
抚慰	-1817
按兵	-1818
操兵	-1819
操教	-1820
救之	-1821
无一	-1822
日月	-1823
杀散	-1824
杀死	-1825
杨阜	-1826
某等	-1827
横刀	-1828
此非	-1829
毋丘	-1830
水中	-1831
泄漏	-1832
流星	-1833
流涕	-1834
献计	-1835
王朗	-1836
王经	-1837
现为	-1838
画戟	-1839
留下	-1840
皇甫	-1841
羞惭	-1842
自幼	-1843
英勇	-1844
董袭	-1845
蜀人	-1846
行之	-1847
要去	-1848
诗曰	-1849
诸郡	-1850
辞了	-1851
迤逦	-1852
追来	-1853
逆贼	-1854
逢纪	-1855
遂不	-1856
金帛	-1857
金珠	-1858
长江	-1859
门吏	-1860
问罪	-1861
降将	-1862
高定	-1863
魏国	-1864
黄门	-1865
齐发	-1866
为内应	-1867
书略曰	-1868
于地曰	-1869
人报知	-1870
公孙渊	-1871
出此言	-1872
吾与汝	-1873
吾自有	-1874
数百人	-1875
未可轻	-1876
正言间	-1877
玄德在	-1878
见关公	-1879
两下夹攻	-1880
战不三合	-1881
放声大哭	-1882
一带	-1883
一队	-1884
上下	-1885
不与	-1886
不定	-1887
不相	-1888
不觉	-1889
与之	-1890
专权	-1891
为汉	-1892
之弟	-1893
之礼	-1894
二百	-1895
人民	-1896
今闻	-1897
从后	-1898
伐蜀	-1899
何况	-1900
何时	-1901
何用	-1902
先去	-1903
克日	-1904
兵器	-1905
兵少	-1906
军来	-1907
冯习	-1908
出营	-1909
勃然	-1910
北原	-1911
北海	-1912
十日	-1913
单福	-1914
卿等	-1915
只顾	-1916
右有	-1917
号为	-1918
同心	-1919
吴王	-1920
喊起	-1921
奸计	-1922
宦官	-1923
富贵	-1924
将近	-1925
小卒	-1926
尸首	-1927
山谷	-1928
州郡	-1929
左有	-1930
年幼	-1931
并不	-1932
弃城	-1933
张温	-1934
徐徐	-1935
急救	-1936
悔之	-1937
意欲	-1938
手提	-1939
护送	-1940
披发	-1941
数千	-1942
文官	-1943
新城	-1944
更不	-1945
曹贼	-1946
望之	-1947
机会	-1948
李乐	-1949
来人	-1950
欲自	-1951
此何	-1952
爱之	-1953
用火	-1954
疑惑	-1955
白虎	-1956
目今	-1957
直到	-1958
祎曰	-1959
立斩	-1960
者也	-1961
而降	-1962
蔡和	-1963
观其	-1964
认得	-1965
谁可	-1966
转过	-1967
造饭	-1968
遂唤	-1969
锦囊	-1970
闭门	-1971
随行	-1972
面上	-1973
骨肉	-1974
魏续	-1975
齐鸣	-1976
从小路	-1977
众官曰	-1978
先主曰	-1979
在城中	-1980
引一万	-1981
忽一人	-1982
教军士	-1983
曹丞相	-1984
毋丘俭	-1985
若如此	-1986
之言是也	-1987
早有细作	-1988
一连	-1989
上城	-1990
上邽	-1991
下来	-1992
不明	-1993
丕曰	-1994
世子	-1995
为将	-1996
之徒	-1997
之日	-1998
之际	-1999
乐綝	-2000
书与	-2001
书中	-2002
事已	-2003
人心	-2004
仗剑	-2005
休得	-2006
公安	-2007
公覆	-2008
兵出	-2009
其后	-2010
冲右	-2011
别驾	-2012
劳军	-2013
勿得	-2014
十分	-2015
可乘	-2016
可先	-2017
同去	-2018
吾以	-2019
喝令	-2020
四年	-2021
回营	-2022
国老	-2023
大队	-2024
太平	-2025
奋然	-2026
奸雄	-2027
妄动	-2028
妙计	-2029
宋宪	-2030
屯住	-2031
屯扎	-2032
岂能	-2033
崔谅	-2034
已知	-2035
常有	-2036
张虎	-2037
徐母	-2038
忠曰	-2039
急回	-2040
急难	-2041
慈曰	-2042
护卫	-2043
拈弓	-2044
拜于	-2045
拜曰	-2046
拜见	-2047
操问	-2048
施礼	-2049
权且	-2050
杜预	-2051
桂阳	-2052
此城	-2053
此间	-2054
汝乃	-2055
泰山	-2056
满面	-2057
焚香	-2058
狱中	-2059
王上	-2060
相随	-2061
第二	-2062
等处	-2063
终日	-2064
置酒	-2065
聚众	-2066
聚集	-2067
自去	-2068
自取	-2069
至晚	-2070
若有	-2071
蒋干	-2072
行军	-2073
观看	-2074
览毕	-2075
角上	-2076
言之	-2077
言罢	-2078
许之	-2079
请罪	-2080
调遣	-2081
过了	-2082
这里	-2083
进退	-2084
遍野	-2085
郑文	-2086
高垒	-2087
鼓噪	-2088
二将军	-2089
冲右突	-2090
吴主孙	-2091
回荆州	-2092
孔明在	-2093
屯兵于	-2094
张昭曰	-2095
忽听得	-2096
某愿往	-2097
荀彧曰	-2098
视其人	-2099
请孔明	-2100
两阵对圆	-2101
两马相交	-2102
分兵两路	-2103
大叫一声	-2104
左冲右突	-2105
引兵而去	-2106
拨马便走	-2107
文武官僚	-2108
是夜二更	-2109
火光冲天	-2110
胜负如何	-2111
(1	-2112
一名	-2113
一应	-2114
一班	-2115
一道	-2116
三分	-2117
不义	-2118
不到	-2119
两川	-2120
为主	-2121
久居	-2122
之有	-2123
之祸	-2124
之贼	-2125
于人	-2126
于山	-2127
互相	-2128
余众	-2129
傅佥	-2130
养病	-2131
冲出	-2132
出关	-2133
出兵	-2134
刘氏	-2135
劫掠	-2136
北门	-2137
十七	-2138
十合	-2139
半酣	-2140
又恐	-2141
各人	-2142
各各	-2143
各有	-2144
吉平	-2145
吕旷	-2146
吾奉	-2147
周围	-2148
响处	-2149
喝曰	-2150
多疑	-2151
大胜	-2152
威震	-2153
威风	-2154
子丹	-2155
字公	-2156
孟优	-2157
守关	-2158
宝刀	-2159
家属	-2160
密诏	-2161
寨内	-2162
将校	-2163
将欲	-2164
小童	-2165
小车	-2166
尘头	-2167
尚有	-2168
应之	-2169
彼必	-2170
往见	-2171
必当	-2172
战到	-2173
挥刀	-2174
接战	-2175
操见	-2176
故来	-2177
敌人	-2178
救出	-2179
数巡	-2180
文远	-2181
文钦	-2182
旗幡	-2183
无可	-2184
既有	-2185
时年	-2186
普净	-2187
曹氏	-2188
曹芳	-2189
未有	-2190
本欲	-2191
杀得	-2192
来与	-2193
杨松	-2194
桃园	-2195
武昌	-2196
民心	-2197
水寨	-2198
沿江	-2199
深沟	-2200
火把	-2201
率兵	-2202
用何	-2203
申奏	-2204
留之	-2205
目视	-2206
相持	-2207
相遇	-2208
祢衡	-2209
秦朗	-2210
空虚	-2211
第三	-2212
篡逆	-2213
结为	-2214
羽扇	-2215
者斩	-2216
脱身	-2217
自是	-2218
葬之	-2219
葬于	-2220
蛮王	-2221
讨之	-2222
议曰	-2223
诛之	-2224
说罢	-2225
诸公	-2226
谯周	-2227
赍书	-2228
践踏	-2229
车胄	-2230
近前	-2231
遂将	-2232
道路	-2233
都是	-2234
镇守	-2235
陆口	-2236
险要	-2237
非也	-2238
韩玄	-2239
顾谓	-2240
领诺	-2241
三千兵	-2242
不一日	-2243
与将军	-2244
东南风	-2245
众官皆	-2246
刘豫州	-2247
在马上	-2248
岂不闻	-2249
庞统曰	-2250
弓弩手	-2251
张翼德	-2252
操大怒	-2253
杀一阵	-2254
然其言	-2255
老将军	-2256
计而行	-2257
贾诩曰	-2258
为大都督	-2259
有何面目	-2260
深沟高垒	-2261
设宴相待	-2262
三尺	-2263
三族	-2264
上岸	-2265
上流	-2266
不仁	-2267
不以	-2268
不宜	-2269
不成	-2270
不易	-2271
不语	-2272
不降	-2273
且休	-2274
东川	-2275
为名	-2276
为君	-2277
乃唤	-2278
之义	-2279
之书	-2280
之师	-2281
之德	-2282
之重	-2283
之首	-2284
于外	-2285
五更	-2286
交割	-2287
以绝	-2288
伏后	-2289
伏地	-2290
会曰	-2291
会稽	-2292
何敢	-2293
作一	-2294
使我	-2295
保守	-2296
停当	-2297
免死	-2298
入寇	-2299
全胜	-2300
八月	-2301
公乃	-2302
公言	-2303
兵不	-2304
其妻	-2305
具说	-2306
军人	-2307
切齿	-2308
刘禅	-2309
别有	-2310
前部	-2311
升帐	-2312
半夜	-2313
即当	-2314
却是	-2315
又问	-2316
只可	-2317
可将	-2318
同往	-2319
名为	-2320
吴兰	-2321
吾见	-2322
四子	-2323
回至	-2324
土山	-2325
城边	-2326
堂上	-2327
复回	-2328
大江	-2329
天数	-2330
奔入	-2331
季玉	-2332
守将	-2333
宗亲	-2334
宛城	-2335
尽力	-2336
山下	-2337
川兵	-2338
左慈	-2339
常山	-2340
幸甚	-2341
建兴	-2342
张允	-2343
待其	-2344
忽有	-2345
忿怒	-2346
思之	-2347
我兵	-2348
戴陵	-2349
所擒	-2350
所获	-2351
报国	-2352
放箭	-2353
故意	-2354
故特	-2355
方回	-2356
无忧	-2357
无恙	-2358
无罪	-2359
早早	-2360
曹休	-2361
望风	-2362
杀退	-2363
来投	-2364
杨任	-2365
树木	-2366
正月	-2367
沉吟	-2368
沮授	-2369
洞中	-2370
洞主	-2371
洮阳	-2372
渐渐	-2373
渭水	-2374
王双	-2375
琅琊	-2376
生灵	-2377
用之	-2378
白帝	-2379
直抵	-2380
相会	-2381
真神	-2382
睿曰	-2383
破之	-2384
称谢	-2385
等皆	-2386
箕谷	-2387
纶巾	-2388
者为	-2389
而无	-2390
致书	-2391
蔡中	-2392
血流	-2393
设朝	-2394
诩曰	-2395
贼将	-2396
赶去	-2397
越吉	-2398
辎重	-2399
辕门	-2400
退入	-2401
金鼓	-2402
钟繇	-2403
长驱	-2404
门下	-2405
陈珪	-2406
颍川	-2407
饮食	-2408
马军	-2409
马遵	-2410
魏人	-2411
与云长	-2412
主公可	-2413
二十万	-2414
于天下	-2415
今曹操	-2416
刘使君	-2417
十余合	-2418
回许都	-2419
在城上	-2420
放火烧	-2421
数十人	-2422
正行间	-2423
玄德乃	-2424
玄德自	-2425
玄德问	-2426
程昱曰	-2427
聚文武	-2428
赵云曰	-2429
一声喊起	-2430
一面差人	-2431
大败而走	-2432
披挂上马	-2433
百万之众	-2434
诸路军马	-2435
魏主曹睿	-2436
▁却说姜维	-2437
;“	-2438
一回	-2439
一场	-2440
一拥	-2441
一条	-2442
一簇	-2443
一般	-2444
不上	-2445
不是	-2446
不杀	-2447
不起	-2448
与操	-2449
东北	-2450
中央	-2451
丰曰	-2452
临终	-2453
为两	-2454
为帝	-2455
为王	-2456
之勇	-2457
书曰	-2458
京师	-2459
从此	-2460
伐之	-2461
会于	-2462
似此	-2463
住马	-2464
何意	-2465
佗曰	-2466
侯刘	-2467
便了	-2468
便去	-2469
便将	-2470
便请	-2471
八路	-2472
关中	-2473
关前	-2474
决战	-2475
凤雏	-2476
出来	-2477
切勿	-2478
刘辟	-2479
别无	-2480
十三	-2481
卢植	-2482
受禅	-2483
变色	-2484
只推	-2485
只等	-2486
各带	-2487
向导	-2488
吕翔	-2489
听罢	-2490
吾令	-2491
吾故	-2492
善言	-2493
回书	-2494
回兵	-2495
回家	-2496
士元	-2497
备言	-2498
外人	-2499
奉先	-2500
奉孝	-2501
子瑜	-2502
孙峻	-2503
完备	-2504
实为	-2505
密计	-2506
察之	-2507
小船	-2508
尚未	-2509
尽弃	-2510
尽被	-2511
山川	-2512
已亡	-2513
已决	-2514
带剑	-2515
应诺	-2516
庶曰	-2517
引众	-2518
当以	-2519
当阳	-2520
心甚	-2521
心疑	-2522
怏怏	-2523
急退	-2524
扶起	-2525
持节	-2526
按剑	-2527
推辞	-2528
提备	-2529
教他	-2530
晋主	-2531
望西	-2532
李肃	-2533
来看	-2534
桥上	-2535
檄文	-2536
欲斩	-2537
正要	-2538
正说	-2539
正迎	-2540
此天	-2541
母亲	-2542
汝为	-2543
江北	-2544
渡口	-2545
渡河	-2546
父母	-2547
王必	-2548
瑾曰	-2549
甚喜	-2550
甲兵	-2551
祖宗	-2552
端坐	-2553
第一	-2554
结义	-2555
老幼	-2556
而下	-2557
而后	-2558
而归	-2559
而至	-2560
背反	-2561
胡遵	-2562
船中	-2563
艾曰	-2564
获曰	-2565
襄平	-2566
诛戮	-2567
赏劳	-2568
赵范	-2569
轻骑	-2570
辅佐	-2571
近日	-2572
送与	-2573
逊曰	-2574
那马	-2575
铜雀	-2576
队伍	-2577
阵法	-2578
降兵	-2579
零陵	-2580
韩浩	-2581
韩胤	-2582
领了	-2583
飞身	-2584
马前	-2585
骤起	-2586
???	-2587
▁关公	-2588
三千军	-2589
之子也	-2590
于帐下	-2591
军大败	-2592
切不可	-2593
到之处	-2594
厉声曰	-2595
取西川	-2596
司马望	-2597
在寨中	-2598
孔明自	-2599
将军若	-2600
山背后	-2601
引兵来	-2602
引大军	-2603
引败兵	-2604
往荆州	-2605
扶汉室	-2606
拨回马	-2607
流星马	-2608
统大军	-2609
蔡夫人	-2610
虽不才	-2611
门旗下	-2612
青龙刀	-2613
合兵一处	-2614
引一千军	-2615
急止之曰	-2616
截住去路	-2617
按兵不动	-2618
斩于马下	-2619
正行之间	-2620
死者无数	-2621
车骑将军	-2622
鼓角齐鸣	-2623
一旦	-2624
一辆	-2625
一鼓	-2626
不乐	-2627
不取	-2628
不悦	-2629
与战	-2630
中箭	-2631
中间	-2632
临行	-2633
之兆	-2634
之将	-2635
之志	-2636
事之	-2637
人物	-2638
今晚	-2639
今欲	-2640
以言	-2641
伤感	-2642
低头	-2643
何惧	-2644
何日	-2645
何能	-2646
侍郎	-2647
依言	-2648
便唤	-2649
修曰	-2650
催军	-2651
元帅	-2652
全无	-2653
八九	-2654
八尺	-2655
公路	-2656
其势	-2657
再作	-2658
出入	-2659
出征	-2660
分布	-2661
刘贤	-2662
初更	-2663
前往	-2664
前队	-2665
医治	-2666
华佗	-2667
即召	-2668
即差	-2669
又将	-2670
发书	-2671
取出	-2672
受命	-2673
叫门	-2674
可施	-2675
同宗	-2676
吞并	-2677
听候	-2678
吴人	-2679
吴将	-2680
吾兵	-2681
吾观	-2682
周善	-2683
喧天	-2684
四轮	-2685
四门	-2686
回来	-2687
图也	-2688
在右	-2689
在地	-2690
在左	-2691
声势	-2692
夜观	-2693
大义	-2694
大斧	-2695
大船	-2696
奇兵	-2697
妻小	-2698
嫂嫂	-2699
字元	-2700
安可	-2701
安在	-2702
安有	-2703
宫室	-2704
容某	-2705
射中	-2706
屯田	-2707
屯粮	-2708
岂肯	-2709
巡哨	-2710
差矣	-2711
已失	-2712
布阵	-2713
干曰	-2714
平地	-2715
平日	-2716
并进	-2717
庆贺	-2718
开处	-2719
引路	-2720
张杨	-2721
张纮	-2722
彼若	-2723
径来	-2724
徐质	-2725
必败	-2726
忽又	-2727
怒气	-2728
恋战	-2729
惇曰	-2730
我与	-2731
我当	-2732
手足	-2733
抵当	-2734
拿住	-2735
指挥	-2736
搬运	-2737
搭箭	-2738
操急	-2739
故人	-2740
文鸯	-2741
旗帜	-2742
无义	-2743
无及	-2744
无用	-2745
无粮	-2746
既已	-2747
早被	-2748
昨日	-2749
是吾	-2750
昼夜	-2751
智勇	-2752
暗喜	-2753
更待	-2754
未必	-2755
机密	-2756
杀人	-2757
杨彪	-2758
杨怀	-2759
杨昂	-2760
果见	-2761
某当	-2762
柳城	-2763
栈道	-2764
款待	-2765
正议	-2766
正走	-2767
此来	-2768
殷勤	-2769
殿下	-2770
永安	-2771
汝若	-2772
沓中	-2773
河内	-2774
涪城	-2775
淳于	-2776
潼关	-2777
火速	-2778
点起	-2779
焉敢	-2780
然则	-2781
犬马	-2782
王基	-2783
王瓘	-2784
申耽	-2785
疑兵	-2786
登高	-2787
相投	-2788
礼物	-2789
竭力	-2790
答礼	-2791
粮车	-2792
约会	-2793
缓缓	-2794
而亡	-2795
而立	-2796
耿纪	-2797
自乱	-2798
自刎	-2799
自退	-2800
苦谏	-2801
藤甲	-2802
蛮方	-2803
装载	-2804
诸人	-2805
谁想	-2806
财物	-2807
贤士	-2808
赍诏	-2809
足可	-2810
踌躇	-2811
转出	-2812
退走	-2813
造次	-2814
那人	-2815
郝萌	-2816
郿坞	-2817
酋长	-2818
铁骑	-2819
陈应	-2820
隐隐	-2821
非常	-2822
顾雍	-2823
预备	-2824
饮之	-2825
马乏	-2826
高干	-2827
鹤氅	-2828
麾下	-2829
不可当	-2830
不数合	-2831
为副将	-2832
乔国老	-2833
于帐中	-2834
五十里	-2835
众将皆	-2836
倒于地	-2837
关将军	-2838
右将军	-2839
回成都	-2840
在何处	-2841
如其不	-2842
孔明乃	-2843
孔明教	-2844
安得不	-2845
将军可	-2846
引数骑	-2847
求救于	-2848
皇甫嵩	-2849
自引军	-2850
责之曰	-2851
赴许都	-2852
乱箭射下	-2853
却说曹操	-2854
夺路而走	-2855
拦住去路	-2856
汉室宗亲	-2857
翻身落马	-2858
酒至半酣	-2859
随后赶来	-2860
鸣金收军	-2861
▁却说司马懿	-2862
一口	-2863
一把	-2864
一言	-2865
一计	-2866
七军	-2867
三子	-2868
上殿	-2869
上车	-2870
不便	-2871
不平	-2872
不来	-2873
且待	-2874
两人	-2875
为一	-2876
为国	-2877
为念	-2878
为镇	-2879
主将	-2880
举事	-2881
之为	-2882
之劳	-2883
之妻	-2884
之患	-2885
之手	-2886
之西	-2887
之语	-2888
乌巢	-2889
九郡	-2890
乱军	-2891
二日	-2892
交厚	-2893
亦是	-2894
亦被	-2895
人人	-2896
人困	-2897
今后	-2898
今操	-2899
令兵	-2900
以拒	-2901
催兵	-2902
先令	-2903
先将	-2904
先往	-2905
光武	-2906
入府	-2907
公可	-2908
公既	-2909
六郡	-2910
关下	-2911
兵书	-2912
其母	-2913
其罪	-2914
军皆	-2915
分为	-2916
分头	-2917
到处	-2918
到彼	-2919
勉强	-2920
北方	-2921
十四	-2922
南徐	-2923
南方	-2924
卫瓘	-2925
却令	-2926
吉凶	-2927
名将	-2928
后有	-2929
吕虔	-2930
吴郡	-2931
吾受	-2932
告知	-2933
嘱曰	-2934
回阵	-2935
图本	-2936
复来	-2937
大刀	-2938
大旗	-2939
大贤	-2940
大雨	-2941
天气	-2942
好言	-2943
姜叙	-2944
子翼	-2945
孙皓	-2946
定矣	-2947
家小	-2948
寨外	-2949
对敌	-2950
寻路	-2951
射之	-2952
将书	-2953
小心	-2954
山险	-2955
已得	-2956
巴西	-2957
帐上	-2958
席散	-2959
干戈	-2960
干柴	-2961
年春	-2962
幸勿	-2963
幽州	-2964
府下	-2965
建业	-2966
引着	-2967
张邰	-2968
往投	-2969
徐氏	-2970
必斩	-2971
必无	-2972
必生	-2973
急唤	-2974
惟有	-2975
愕然	-2976
我只	-2977
所得	-2978
所见	-2979
手中	-2980
把盏	-2981
拿下	-2982
挂孝	-2983
掩面	-2984
擒住	-2985
改元	-2986
敢不	-2987
文长	-2988
新败	-2989
方始	-2990
旗上	-2991
无道	-2992
日久	-2993
日夜	-2994
旬日	-2995
时值	-2996
明白	-2997
晋公	-2998
更有	-2999
曹植	-3000
曹豹	-3001
杀将	-3002
李蒙	-3003
极其	-3004
榻前	-3005
欺君	-3006
此子	-3007
武将	-3008
温侯	-3009
渭南	-3010
灵柩	-3011
然之	-3012
牛马	-3013
献与	-3014
王濬	-3015
玺绶	-3016
璋曰	-3017
生得	-3018
申报	-3019
疑虑	-3020
病危	-3021
病重	-3022
监军	-3023
盖曰	-3024
知我	-3025
等闲	-3026
箭疮	-3027
簇拥	-3028
粮尽	-3029
粮米	-3030
结好	-3031
绰枪	-3032
羊祜	-3033
老贼	-3034
者乎	-3035
而别	-3036
自往	-3037
良图	-3038
营内	-3039
衣带	-3040
观望	-3041
计于	-3042
谢恩	-3043
赶至	-3044
身披	-3045
身死	-3046
辂曰	-3047
辱骂	-3048
迎战	-3049
近侍	-3050
这个	-3051
进取	-3052
逃命	-3053
遂同	-3054
郃曰	-3055
重加	-3056
锦袍	-3057
阴云	-3058
附耳	-3059
陆续	-3060
陈震	-3061
除之	-3062
险峻	-3063
韩福	-3064
骤至	-3065
黄旗	-3066
鼠窜	-3067
齐声	-3068
三十万	-3069
不出战	-3070
不能相	-3071
为荆州	-3072
五百人	-3073
今主公	-3074
今将军	-3075
今若不	-3076
作先锋	-3077
偏将军	-3078
其不意	-3079
分两路	-3080
十五万	-3081
去其缚	-3082
可擒矣	-3083
司马炎	-3084
大哭曰	-3085
并不见	-3086
引众将	-3087
御林军	-3088
意若何	-3089
操大惊	-3090
本部兵	-3091
权大喜	-3092
欲斩之	-3093
死之后	-3094
用火攻	-3095
荀攸曰	-3096
袁绍处	-3097
言未已	-3098
长叹曰	-3099
陛下可	-3100
一声鼓响	-3101
一箭射中	-3102
不可轻进	-3103
丞相何故	-3104
为大将军	-3105
何出此言	-3106
出其不意	-3107
四散奔走	-3108
引五千兵	-3109
引数十骑	-3110
自引大军	-3111
自相践踏	-3112
魏兵大败	-3113
鼓声大震	-3114
后人有诗叹	-3115
常山赵子龙	-3116
未知胜负如何	-3117
,”	-3118
?’	-3119
▁忽	-3120
一夜	-3121
一州	-3122
一战	-3123
一手	-3124
一方	-3125
丈八	-3126
三个	-3127
三寨	-3128
上关	-3129
不去	-3130
不堪	-3131
不退	-3132
不通	-3133
与他	-3134
与关	-3135
且走	-3136
且退	-3137
东郡	-3138
两头	-3139
严氏	-3140
丧胆	-3141
为辅	-3142
为重	-3143
乃命	-3144
乃曰	-3145
之外	-3146
之头	-3147
之望	-3148
之水	-3149
之理	-3150
之面	-3151
乘其	-3152
乘间	-3153
九回	-3154
争奈	-3155
二心	-3156
于后	-3157
于我	-3158
于操	-3159
云梯	-3160
五丈	-3161
五里	-3162
亦不	-3163
亦有	-3164
人言	-3165
令其	-3166
以备	-3167
仰面	-3168
伏路	-3169
会喃	-3170
何事	-3171
何期	-3172
侍婢	-3173
依次	-3174
便当	-3175
便问	-3176
先回	-3177
八回	-3178
六回	-3179
共饮	-3180
兵多	-3181
兵退	-3182
其说	-3183
写书	-3184
刀落	-3185
列侯	-3186
刘焉	-3187
刺斜	-3188
前日	-3189
剿除	-3190
功德	-3191
加害	-3192
务要	-3193
努力	-3194
十人	-3195
华容	-3196
南岸	-3197
博望	-3198
卤城	-3199
却将	-3200
却来	-3201
卸甲	-3202
去劫	-3203
去处	-3204
参拜	-3205
参谋	-3206
又是	-3207
又欲	-3208
口中	-3209
只教	-3210
只看	-3211
各守	-3212
各执	-3213
各营	-3214
吊丧	-3215
后事	-3216
吾言	-3217
回时	-3218
因见	-3219
困乏	-3220
困于	-3221
国贼	-3222
在家	-3223
在彼	-3224
垂泪	-3225
城郭	-3226
大业	-3227
大名	-3228
大宴	-3229
失信	-3230
夺其	-3231
夺得	-3232
奉命	-3233
奏闻	-3234
子孙	-3235
孟起	-3236
守寨	-3237
守门	-3238
官军	-3239
定也	-3240
宫门	-3241
寨后	-3242
寨来	-3243
寻觅	-3244
就令	-3245
山阳	-3246
山顶	-3247
川口	-3248
已尽	-3249
带来	-3250
并州	-3251
延曰	-3252
弃之	-3253
弓箭	-3254
归于	-3255
归顺	-3256
当有	-3257
径入	-3258
径出	-3259
得志	-3260
忧闷	-3261
忽听	-3262
怠慢	-3263
急急	-3264
恐失	-3265
愚意	-3266
愿闻	-3267
慨然	-3268
我若	-3269
战心	-3270
战马	-3271
所生	-3272
所谓	-3273
打破	-3274
打话	-3275
托病	-3276
扬鞭	-3277
折兵	-3278
护军	-3279
报曰	-3280
拆开	-3281
拦路	-3282
撞出	-3283
撞着	-3284
收川	-3285
放了	-3286
敌军	-3287
救兵	-3288
料敌	-3289
新亡	-3290
无备	-3291
无言	-3292
无语	-3293
昏绝	-3294
暗暗	-3295
望北	-3296
未曾	-3297
杀我	-3298
杀败	-3299
来杀	-3300
来此	-3301
来者	-3302
来说	-3303
来追	-3304
杨陵	-3305
欲以	-3306
欲投	-3307
正值	-3308
此马	-3309
段珪	-3310
毛玠	-3311
水关	-3312
汝不	-3313
江口	-3314
江山	-3315
火来	-3316
烦恼	-3317
焦触	-3318
猛将	-3319
王室	-3320
甚善	-3321
用计	-3322
申仪	-3323
男女	-3324
登曰	-3325
真曰	-3326
祭祀	-3327
筑起	-3328
管亥	-3329
精神	-3330
细言	-3331
绍军	-3332
臣愿	-3333
臧霸	-3334
自称	-3335
良谋	-3336
芝曰	-3337
若以	-3338
茅庐	-3339
落于	-3340
蒯越	-3341
融曰	-3342
行到	-3343
袁军	-3344
袭了	-3345
要路	-3346
许靖	-3347
论之	-3348
设计	-3349
诸君	-3350
谋反	-3351
赏赐	-3352
跟随	-3353
跣足	-3354
车前	-3355
辞别	-3356
过也	-3357
远远	-3358
遇害	-3359
郤正	-3360
重任	-3361
重地	-3362
量此	-3363
闪出	-3364
闪过	-3365
防之	-3366
隐者	-3367
雅丹	-3368
鞍马	-3369
韦晃	-3370
颇有	-3371
高声	-3372
高沛	-3373
龚都	-3374
一军取	-3375
一刀砍	-3376
不能行	-3377
与关公	-3378
与刘备	-3379
与孙乾	-3380
东将军	-3381
为大将	-3382
为将军	-3383
乃孔明	-3384
于马上	-3385
众诸侯	-3386
传令曰	-3387
刘景升	-3388
勒回马	-3389
十数骑	-3390
又问曰	-3391
叙礼毕	-3392
吾二人	-3393
在帐中	-3394
在荆州	-3395
太守王	-3396
将首级	-3397
岂不知	-3398
差人往	-3399
开城门	-3400
急上马	-3401
我等皆	-3402
操视之	-3403
敌楼上	-3404
数百骑	-3405
斩于市	-3406
玄德见	-3407
王子服	-3408
白帝城	-3409
者为牛	-3410
而出曰	-3411
聚众将	-3412
见孙权	-3413
退左右	-3414
问何人	-3415
阿会喃	-3416
黄公覆	-3417
举火为号	-3418
乘势掩杀	-3419
人困马乏	-3420
困在垓心	-3421
孔明大喜	-3422
建安二十	-3423
引五百军	-3424
所到之处	-3425
拈弓搭箭	-3426
挺枪来迎	-3427
放起火来	-3428
无计可施	-3429
有何高见	-3430
某有一计	-3431
正合吾意	-3432
矢石如雨	-3433
身长八尺	-3434
近臣奏曰	-3435
鼓角喧天	-3436
分付如此如此	-3437
一只	-3438
一字	-3439
丁原	-3440
七十	-3441
七星	-3442
三公	-3443
三处	-3444
三寸	-3445
下了	-3446
下楼	-3447
下狱	-3448
下诏	-3449
不惧	-3450
不期	-3451
不顾	-3452
且宜	-3453
且战	-3454
两将	-3455
中山	-3456
临阵	-3457
为外	-3458
为征	-3459
为所	-3460
乃以	-3461
乃召	-3462
乃密	-3463
乃引	-3464
义兵	-3465
之交	-3466
之以	-3467
之任	-3468
之南	-3469
之机	-3470
之见	-3471
乡侯	-3472
书生	-3473
乱言	-3474
事急	-3475
于内	-3476
五人	-3477
今当	-3478
今有	-3479
今见	-3480
令我	-3481
以救	-3482
以雪	-3483
仰观	-3484
仲谋	-3485
伏完	-3486
传旨	-3487
伯言	-3488
伺候	-3489
何得	-3490
余人	-3491
余皆	-3492
使至	-3493
侍妾	-3494
依山	-3495
依旧	-3496
便有	-3497
便来	-3498
傅彤	-3499
傍岸	-3500
催督	-3501
允诺	-3502
先斩	-3503
入告	-3504
公何	-3505
六年	-3506
兵权	-3507
其家	-3508
其父	-3509
再往	-3510
写表	-3511
军将	-3512
出榜	-3513
分作	-3514
分军	-3515
前行	-3516
加鞭	-3517
勿疑	-3518
十月	-3519
南蛮	-3520
卧病	-3521
即遣	-3522
去见	-3523
又到	-3524
又起	-3525
又遣	-3526
受其	-3527
只听	-3528
只因	-3529
只要	-3530
只说	-3531
可使	-3532
可急	-3533
叹息	-3534
同乡	-3535
同领	-3536
后队	-3537
吕凯	-3538
听之	-3539
听信	-3540
吾先	-3541
吾知	-3542
吾计	-3543
员将	-3544
四月	-3545
四郡	-3546
固守	-3547
在日	-3548
地道	-3549
地面	-3550
坐而	-3551
壕边	-3552
士马	-3553
天时	-3554
太甚	-3555
失惊	-3556
奔到	-3557
奔至	-3558
奔逃	-3559
如飞	-3560
妙算	-3561
孝直	-3562
孺子	-3563
安身	-3564
宗党	-3565
官员	-3566
家人	-3567
射死	-3568
将亡	-3569
少歇	-3570
就此	-3571
屯军	-3572
山前	-3573
山头	-3574
岂得	-3575
岱曰	-3576
左手	-3577
已将	-3578
已至	-3579
巴丘	-3580
布乃	-3581
师纂	-3582
并皆	-3583
床上	-3584
弘农	-3585
张梁	-3586
张英	-3587
当世	-3588
当今	-3589
征伐	-3590
得书	-3591
御驾	-3592
心也	-3593
必胜	-3594
忧虑	-3595
忻然	-3596
忽起	-3597
急切	-3598
急召	-3599
急欲	-3600
恢复	-3601
恨无	-3602
恰才	-3603
惊慌	-3604
惊讶	-3605
懦弱	-3606
我为	-3607
我自	-3608
所佩	-3609
扎住	-3610
扬州	-3611
抖擞	-3612
抚掌	-3613
报捷	-3614
抱头	-3615
拆封	-3616
拜服	-3617
挑战	-3618
挺身	-3619
掎角	-3620
探之	-3621
推车	-3622
操即	-3623
操欲	-3624
攻取	-3625
放回	-3626
敌手	-3627
救援	-3628
文王	-3629
方得	-3630
无敌	-3631
既死	-3632
旧臣	-3633
旱路	-3634
昂然	-3635
昨夜	-3636
是个	-3637
是以	-3638
是我	-3639
暂歇	-3640
更衣	-3641
曹髦	-3642
曾与	-3643
有变	-3644
有命	-3645
有所	-3646
朝政	-3647
朱异	-3648
李丰	-3649
来意	-3650
来赶	-3651
果有	-3652
某乃	-3653
柴草	-3654
欲使	-3655
欲取	-3656
歇息	-3657
歌曰	-3658
正当	-3659
水势	-3660
水战	-3661
水路	-3662
汜曰	-3663
汝勿	-3664
江中	-3665
泣拜	-3666
流血	-3667
海内	-3668
涪关	-3669
溃散	-3670
点军	-3671
点头	-3672
猇亭	-3673
献上	-3674
献于	-3675
玉带	-3676
王甫	-3677
瑁曰	-3678
甲士	-3679
疲困	-3680
登城	-3681
百里	-3682
的人	-3683
直冲	-3684
知也	-3685
砍死	-3686
立之	-3687
粮足	-3688
精壮	-3689
素有	-3690
约有	-3691
细说	-3692
胡班	-3693
自到	-3694
自古	-3695
自走	-3696
艨艟	-3697
良曰	-3698
艰难	-3699
芦苇	-3700
若能	-3701
草堂	-3702
莫敢	-3703
葫芦	-3704
蒋舒	-3705
蒙曰	-3706
蔡氏	-3707
蔡邕	-3708
虞翻	-3709
虽是	-3710
蜀汉	-3711
被擒	-3712
见一	-3713
解之	-3714
计就	-3715
设祭	-3716
诈称	-3717
诉说	-3718
误了	-3719
请问	-3720
谁人	-3721
调用	-3722
谋害	-3723
谡曰	-3724
贤侄	-3725
赐以	-3726
赐教	-3727
赴宴	-3728
迁都	-3729
过人	-3730
过桥	-3731
远征	-3732
连声	-3733
连年	-3734
退守	-3735
送至	-3736
逃窜	-3737
逃难	-3738
避之	-3739
鏖兵	-3740
长枪	-3741
阆中	-3742
阵上	-3743
随军	-3744
雌雄	-3745
震天	-3746
霸业	-3747
预先	-3748
马步	-3749
驰书	-3750
高阜	-3751
魏营	-3752
黄河	-3753
鼎足	-3754
鼠辈	-3755
▁是夜	-3756
三万军	-3757
三路兵	-3758
与众将	-3759
与吕布	-3760
为上策	-3761
为天下	-3762
了一惊	-3763
五十合	-3764
亦不能	-3765
以鞭指	-3766
传令教	-3767
何足道	-3768
倘有疏	-3769
先使人	-3770
入城去	-3771
入成都	-3772
公孙康	-3773
再三劝	-3774
军令状	-3775
出城外	-3776
十余万	-3777
即修书	-3778
即皇帝	-3779
可擒也	-3780
周瑜曰	-3781
商议间	-3782
四轮车	-3783
回报曰	-3784
国太曰	-3785
姜维曰	-3786
孙乾曰	-3787
张二人	-3788
张郃曰	-3789
甘夫人	-3790
甚爱之	-3791
百余里	-3792
糜夫人	-3793
群臣曰	-3794
荆州来	-3795
见魏兵	-3796
赏三军	-3797
赴洛阳	-3798
退蜀兵	-3799
鲁肃曰	-3800
▁诸葛亮	-3801
且战且走	-3802
何不早降	-3803
何以知之	-3804
先帝托孤	-3805
各引一军	-3806
喊声大起	-3807
喊声震地	-3808
大开城门	-3809
孔明叹曰	-3810
尘头大起	-3811
山僻小路	-3812
往来冲突	-3813
手起刀落	-3814
抱头鼠窜	-3815
挺枪出马	-3816
挺枪纵马	-3817
更待何时	-3818
水陆并进	-3819
看看赶上	-3820
荆州之兵	-3821
虽然如此	-3822
诸葛丞相	-3823
骠骑将军	-3824
众谋士商议	-3825
早有人报知	-3826
》,	-3827
一举	-3828
一家	-3829
一戟	-3830
一死	-3831
一见	-3832
一边	-3833
七月	-3834
万人	-3835
万死	-3836
三将	-3837
三队	-3838
三面	-3839
上方	-3840
上来	-3841
上船	-3842
下书	-3843
下战	-3844
下车	-3845
不回	-3846
不复	-3847
不意	-3848
不疑	-3849
不祥	-3850
不赶	-3851
专候	-3852
世所	-3853
两枝	-3854
两番	-3855
中之	-3856
中路	-3857
为誓	-3858
主母	-3859
举刀	-3860
举哀	-3861
乃大	-3862
之分	-3863
之围	-3864
之大	-3865
之气	-3866
之职	-3867
乌戈	-3868
乐嘉	-3869
乘此	-3870
九泉	-3871
二者	-3872
二袁	-3873
于前	-3874
五分	-3875
亲征	-3876
人等	-3877
人臣	-3878
今幸	-3879
今虽	-3880
他日	-3881
以正	-3882
以示	-3883
众心	-3884
伯奢	-3885
住了	-3886
何策	-3887
何计	-3888
侍立	-3889
侍臣	-3890
便与	-3891
便命	-3892
保驾	-3893
倍道	-3894
儒曰	-3895
入吴	-3896
全功	-3897
八阵	-3898
公明	-3899
关索	-3900
兵去	-3901
兵已	-3902
其中	-3903
再言	-3904
凛凛	-3905
出班	-3906
击鼓	-3907
刀手	-3908
到了	-3909
到寨	-3910
前到	-3911
前言	-3912
劝曰	-3913
助之	-3914
势孤	-3915
北军	-3916
即便	-3917
去矣	-3918
又差	-3919
又闻	-3920
双手	-3921
反间	-3922
受之	-3923
古人	-3924
只望	-3925
可令	-3926
可用	-3927
同至	-3928
同行	-3929
向者	-3930
听毕	-3931
吴军	-3932
吴押	-3933
吾却	-3934
吾将	-3935
命将	-3936
咬牙	-3937
咽喉	-3938
唇齿	-3939
嗟叹	-3940
园中	-3941
土城	-3942
圣人	-3943
坚曰	-3944
大疑	-3945
大至	-3946
天晚	-3947
天象	-3948
天顺	-3949
太常	-3950
头戴	-3951
女婿	-3952
好意	-3953
子布	-3954
字仲	-3955
字文	-3956
宗庙	-3957
官吏	-3958
家中	-3959
家眷	-3960
密室	-3961
密报	-3962
寨门	-3963
封为	-3964
将星	-3965
尚在	-3966
尽忠	-3967
居中	-3968
居于	-3969
川中	-3970
帝与	-3971
帝后	-3972
年矣	-3973
年老	-3974
幸也	-3975
座上	-3976
开路	-3977
弃马	-3978
弑君	-3979
弓弦	-3980
张卫	-3981
当住	-3982
当头	-3983
彭羕	-3984
征进	-3985
必出	-3986
必得	-3987
必死	-3988
必被	-3989
恍惚	-3990
情愿	-3991
惊惧	-3992
惊觉	-3993
愈加	-3994
感其	-3995
愿从	-3996
我有	-3997
才也	-3998
把住	-3999
报来	-4000
拂袖	-4001
拆书	-4002
招军	-4003
拱手	-4004
持书	-4005
捉住	-4006
据守	-4007
掌握	-4008
探得	-4009
接连	-4010
提起	-4011
操寨	-4012
操必	-4013
收聚	-4014
放入	-4015
斩将	-4016
方知	-4017
无主	-4018
无心	-4019
无能	-4020
早到	-4021
时有	-4022
明诏	-4023
暗思	-4024
有书	-4025
有言	-4026
有谋	-4027
未审	-4028
未见	-4029
本阵	-4030
朵思	-4031
机谋	-4032
李歆	-4033
李胜	-4034
杨柏	-4035
林木	-4036
欲害	-4037
正慌	-4038
此书	-4039
此女	-4040
此等	-4041
此阵	-4042
武城	-4043
气力	-4044
汉寿	-4045
汉帝	-4046
汝敢	-4047
汝父	-4048
洮水	-4049
灵帝	-4050
牛辅	-4051
狄道	-4052
狱卒	-4053
狱吏	-4054
王方	-4055
环眼	-4056
现今	-4057
理会	-4058
甘露	-4059
界口	-4060
登坛	-4061
百人	-4062
皆出	-4063
皆言	-4064
皇子	-4065
皖城	-4066
相国	-4067
相逼	-4068
省悟	-4069
破蜀	-4070
碧眼	-4071
祝融	-4072
积草	-4073
答话	-4074
策马	-4075
约定	-4076
统领	-4077
自出	-4078
自恃	-4079
自知	-4080
至死	-4081
范曰	-4082
虎将	-4083
虎踞	-4084
西城	-4085
西山	-4086
览表	-4087
誓同	-4088
设席	-4089
诏命	-4090
说客	-4091
谁知	-4092
调兵	-4093
谋杀	-4094
贵人	-4095
赐之	-4096
走了	-4097
赴会	-4098
超曰	-4099
身穿	-4100
轮刀	-4101
迁延	-4102
连忙	-4103
连环	-4104
速行	-4105
遂封	-4106
遗命	-4107
郭常	-4108
金城	-4109
铁笼	-4110
铁车	-4111
问安	-4112
问时	-4113
闻报	-4114
阻当	-4115
陈群	-4116
降曹	-4117
降魏	-4118
驸马	-4119
骤雨	-4120
魏公	-4121
麦城	-4122
黄奎	-4123
▁一日	-4124
▁第九	-4125
▁第六	-4126
上方谷	-4127
下江南	-4128
不三合	-4129
不可失	-4130
不可胜	-4131
不得不	-4132
不能用	-4133
不见了	-4134
不足为	-4135
两路军	-4136
为两段	-4137
为军师	-4138
之人也	-4139
乌戈国	-4140
二十只	-4141
二十四	-4142
于丞相	-4143
五丈原	-4144
五十余	-4145
今刘备	-4146
从其计	-4147
从背后	-4148
何太后	-4149
列柳城	-4150
刘季玉	-4151
勒住马	-4152
各引兵	-4153
后必为	-4154
向导官	-4155
吴押狱	-4156
周公瑾	-4157
唬骸叭	-4158
唬骸拔	-4159
在山上	-4160
在旦夕	-4161
在祁山	-4162
坐下马	-4163
孔明亦	-4164
引兵出	-4165
愿陛下	-4166
此人乃	-4167
死不辞	-4168
汝安敢	-4169
法正曰	-4170
玄德为	-4171
用好言	-4172
知此事	-4173
破曹操	-4174
童子曰	-4175
端坐于	-4176
等一班	-4177
箭射之	-4178
群臣皆	-4179
而问曰	-4180
能用兵	-4181
袁公路	-4182
见张飞	-4183
见蜀兵	-4184
计议曰	-4185
诸葛绪	-4186
谓之曰	-4187
遂上马	-4188
郭嘉曰	-4189
铜雀台	-4190
陈宫曰	-4191
马步军	-4192
鲁子敬	-4193
▁第三十	-4194
▁第五十	-4195
一人一骑	-4196
乱军之中	-4197
令人哨探	-4198
以致如此	-4199
何足道哉	-4200
依计而行	-4201
兄弟二人	-4202
兖州刺史	-4203
关云长也	-4204
出郭迎接	-4205
分兵三路	-4206
勃然大怒	-4207
十里下寨	-4208
即皇帝位	-4209
却说孔明	-4210
司马懿曰	-4211
吃了一惊	-4212
吴主孙亮	-4213
呈上书信	-4214
四面围定	-4215
大小官僚	-4216
弃城而走	-4217
拆封视之	-4218
拍马舞刀	-4219
挺枪跃马	-4220
掎角之势	-4221
整顿军马	-4222
旗上大书	-4223
犬马之劳	-4224
犹豫未决	-4225
狂风大作	-4226
玄德大惊	-4227
谓诸将曰	-4228
长驱大进	-4229
随后掩杀	-4230
飞报曹操	-4231
▁却说孙权	-4232
。)	-4233
一年	-4234
一招	-4235
一片	-4236
一箭	-4237
一者	-4238
万古	-4239
万夫	-4240
上人	-4241
上天	-4242
不同	-4243
不和	-4244
不应	-4245
不弃	-4246
不忘	-4247
不时	-4248
不欲	-4249
不测	-4250
不睦	-4251
不行	-4252
不言	-4253
与贼	-4254
且勿	-4255
世间	-4256
丛杂	-4257
东西	-4258
两行	-4259
中书	-4260
临危	-4261
临淄	-4262
主张	-4263
主意	-4264
举动	-4265
乃留	-4266
久计	-4267
之侄	-4268
之军	-4269
之危	-4270
之马	-4271
乌林	-4272
乘时	-4273
书毕	-4274
书院	-4275
乾曰	-4276
争锋	-4277
二城	-4278
二寸	-4279
二年	-4280
二月	-4281
于东	-4282
五年	-4283
五日	-4284
交兵	-4285
人来	-4286
仁德	-4287
仇人	-4288
今不	-4289
今奉	-4290
今既	-4291
仔细	-4292
以保	-4293
以死	-4294
以逸	-4295
伏在	-4296
伏道	-4297
传国	-4298
伯符	-4299
侵犯	-4300
便退	-4301
保全	-4302
俱各	-4303
倒竖	-4304
倾心	-4305
假节	-4306
偏将	-4307
催促	-4308
充曰	-4309
先使	-4310
先发	-4311
八岁	-4312
共图	-4313
兴曰	-4314
兵屯	-4315
兵符	-4316
其地	-4317
其才	-4318
其死	-4319
具表	-4320
冀城	-4321
再来	-4322
军已	-4323
军粮	-4324
切宜	-4325
别来	-4326
前有	-4327
功名	-4328
助我	-4329
劳苦	-4330
势穷	-4331
十倍	-4332
千秋	-4333
华夏	-4334
单搦	-4335
即唤	-4336
却又	-4337
去也	-4338
去时	-4339
又与	-4340
又于	-4341
又何	-4342
取川	-4343
取路	-4344
受诏	-4345
受降	-4346
口称	-4347
只今	-4348
可获	-4349
史涣	-4350
右军	-4351
同盟	-4352
名不	-4353
名士	-4354
吕公	-4355
君之	-4356
君命	-4357
听了	-4358
吾为	-4359
吾心	-4360
吾所	-4361
告之	-4362
咨曰	-4363
哭声	-4364
哭曰	-4365
唤出	-4366
四起	-4367
回城	-4368
回答	-4369
因问	-4370
图矣	-4371
圣旨	-4372
士民	-4373
声如	-4374
外合	-4375
大悟	-4376
大权	-4377
大赦	-4378
大醉	-4379
天意	-4380
头功	-4381
奋勇	-4382
奏知	-4383
如山	-4384
妖人	-4385
妻曰	-4386
子明	-4387
孔秀	-4388
字德	-4389
宁曰	-4390
宇宙	-4391
守护	-4392
安抚	-4393
安葬	-4394
宜速	-4395
实欲	-4396
宠曰	-4397
宣召	-4398
害民	-4399
宴罢	-4400
家兄	-4401
宽心	-4402
宾主	-4403
密谓	-4404
寻见	-4405
将及	-4406
尚容	-4407
尽行	-4408
屈身	-4409
屏山	-4410
山峪	-4411
岂敢	-4412
崎岖	-4413
左军	-4414
已回	-4415
师曰	-4416
帝王	-4417
平定	-4418
并马	-4419
广陵	-4420
弃甲	-4421
张悌	-4422
张曰	-4423
张邈	-4424
张顗	-4425
彼兵	-4426
彼此	-4427
待劳	-4428
待吾	-4429
御史	-4430
心下	-4431
心如	-4432
心怀	-4433
必是	-4434
必矣	-4435
必能	-4436
快船	-4437
怒目	-4438
急待	-4439
急来	-4440
性急	-4441
恰待	-4442
想起	-4443
愿借	-4444
懊悔	-4445
成矣	-4446
我乃	-4447
截断	-4448
打听	-4449
执下	-4450
执迷	-4451
扯住	-4452
抄在	-4453
把关	-4454
报与	-4455
报效	-4456
拒住	-4457
拖刀	-4458
招降	-4459
拜受	-4460
择日	-4461
拽起	-4462
持刀	-4463
挺矛	-4464
掣剑	-4465
掷杯	-4466
提剑	-4467
操以	-4468
操怒	-4469
收了	-4470
攻其	-4471
放下	-4472
放出	-4473
放汝	-4474
故主	-4475
故令	-4476
救军	-4477
救火	-4478
教你	-4479
敬服	-4480
料吾	-4481
方苏	-4482
方退	-4483
无名	-4484
无端	-4485
既定	-4486
既至	-4487
显圣	-4488
晋王	-4489
暂退	-4490
曲阿	-4491
曹营	-4492
月余	-4493
有余	-4494
有神	-4495
朕意	-4496
朝中	-4497
未信	-4498
未到	-4499
未能	-4500
本无	-4501
朱灵	-4502
杀害	-4503
杀气	-4504
杀汝	-4505
杂在	-4506
李异	-4507
杜琼	-4508
束手	-4509
来劫	-4510
来相	-4511
来至	-4512
杨修	-4513
杨锋	-4514
树林	-4515
桓阶	-4516
桥边	-4517
檀溪	-4518
欢喜	-4519
欲往	-4520
欲行	-4521
欲见	-4522
欺我	-4523
歆曰	-4524
正南	-4525
正好	-4526
正盛	-4527
此信	-4528
武都	-4529
死无	-4530
毫无	-4531
永结	-4532
汉升	-4533
汉家	-4534
汝主	-4535
汝弟	-4536
汝当	-4537
汝言	-4538
江油	-4539
沉重	-4540
河东	-4541
泪下	-4542
流言	-4543
淮曰	-4544
渡水	-4545
渡过	-4546
渭滨	-4547
灭其	-4548
灯火	-4549
焚烧	-4550
然也	-4551
燕王	-4552
父兄	-4553
牛渚	-4554
率众	-4555
琦曰	-4556
由是	-4557
留于	-4558
疑忌	-4559
疾病	-4560
痛恨	-4561
百日	-4562
百骑	-4563
皆封	-4564
皆退	-4565
盛德	-4566
盟好	-4567
直言	-4568
相争	-4569
相似	-4570
相别	-4571
相劝	-4572
相觑	-4573
知道	-4574
破了	-4575
祭之	-4576
祭毕	-4577
祭酒	-4578
秣陵	-4579
突围	-4580
突火	-4581
筑坛	-4582
筵前	-4583
管辂	-4584
紧守	-4585
紧要	-4586
纳降	-4587
纵然	-4588
终是	-4589
结营	-4590
统兵	-4591
而上	-4592
而复	-4593
而有	-4594
肝脑	-4595
背义	-4596
胜之	-4597
能言	-4598
臣闻	-4599
自守	-4600
至夜	-4601
至矣	-4602
苏飞	-4603
若使	-4604
若知	-4605
若肯	-4606
董厥	-4607
蔡阳	-4608
虚张	-4609
衡曰	-4610
襄江	-4611
见帝	-4612
话间	-4613
诱敌	-4614
说出	-4615
请降	-4616
读书	-4617
败于	-4618
败回	-4619
败残	-4620
贫道	-4621
贺曰	-4622
赐爵	-4623
走入	-4624
赵昂	-4625
赵累	-4626
足备	-4627
足矣	-4628
车中	-4629
轻进	-4630
达曰	-4631
远涉	-4632
远近	-4633
连人	-4634
迟疑	-4635
退之	-4636
退后	-4637
退敌	-4638
适来	-4639
逃生	-4640
遂拜	-4641
道上	-4642
道口	-4643
遗书	-4644
都到	-4645
重伤	-4646
重兵	-4647
金旋	-4648
金疮	-4649
金盔	-4650
金祎	-4651
金银	-4652
铁桶	-4653
银铠	-4654
陆抗	-4655
陇上	-4656
陇右	-4657
陈说	-4658
隆中	-4659
难保	-4660
雄兵	-4661
震动	-4662
霍峻	-4663
霸曰	-4664
面面	-4665
韩德	-4666
韩馥	-4667
韬略	-4668
顺水	-4669
须用	-4670
马到	-4671
马延	-4672
骑马	-4673
高明	-4674
鲍信	-4675
鹿角	-4676
麴义	-4677
黄金	-4678
▁二人	-4679
一声响	-4680
下马来	-4681
不可久	-4682
中取事	-4683
为丞相	-4684
为国家	-4685
之道也	-4686
乱军中	-4687
了一遍	-4688
于城外	-4689
于马前	-4690
五千军	-4691
今丞相	-4692
令左右	-4693
以手指	-4694
以言挑	-4695
何足为	-4696
你如何	-4697
使者曰	-4698
先令人	-4699
入汉中	-4700
决雌雄	-4701
分三路	-4702
刘晔曰	-4703
刺斜里	-4704
南将军	-4705
变色曰	-4706
只有一	-4707
叱之曰	-4708
吾今日	-4709
喝左右	-4710
四十余	-4711
回报说	-4712
回本寨	-4713
回江东	-4714
大事可	-4715
天水郡	-4716
如何肯	-4717
孔明见	-4718
孔明遂	-4719
孙将军	-4720
孟获曰	-4721
守荆州	-4722
将下来	-4723
将军马	-4724
小主人	-4725
应天顺	-4726
庞士元	-4727
张让等	-4728
当此任	-4729
心腹将	-4730
必不敢	-4731
必不肯	-4732
忽哨马	-4733
懿奏曰	-4734
我二人	-4735
按军法	-4736
操问曰	-4737
数十万	-4738
曹操也	-4739
有一人	-4740
望丞相	-4741
欲杀之	-4742
正议间	-4743
永安宫	-4744
泣告曰	-4745
淳于琼	-4746
火之物	-4747
火光中	-4748
献计曰	-4749
皆死于	-4750
直赶到	-4751
知中计	-4752
祁山寨	-4753
者立斩	-4754
肝脑涂	-4755
自思曰	-4756
自领兵	-4757
董太后	-4758
衣带诏	-4759
袁本初	-4760
袁绍曰	-4761
西凉兵	-4762
诸葛瞻	-4763
还荆州	-4764
遂不听	-4765
邓二人	-4766
问孔明	-4767
馆驿中	-4768
高叫曰	-4769
高阜处	-4770
▁第二十	-4771
一万五千	-4772
一人出曰	-4773
一人应声	-4774
三十余里	-4775
三更时分	-4776
不可轻动	-4777
不能相顾	-4778
为大司马	-4779
乘势追杀	-4780
仰观天文	-4781
何故如此	-4782
使者回报	-4783
倘有疏虞	-4784
公子刘琦	-4785
唤入问之	-4786
城下叫门	-4787
大杀一阵	-4788
大赦天下	-4789
孔明视之	-4790
引兵出城	-4791
引兵杀出	-4792
心中大喜	-4793
必为后患	-4794
忽见一人	-4795
报知曹操	-4796
昏绝于地	-4797
更不打话	-4798
桃园结义	-4799
玄德从之	-4800
玄德闻言	-4801
结为兄弟	-4802
背后一人	-4803
誓同生死	-4804
设宴款待	-4805
诈败而走	-4806
闭门不出	-4807
面面相觑	-4808
▁却说周瑜	-4809
▁却说张飞	-4810
▁却说邓艾	-4811
为前部先锋	-4812
交马只一合	-4813
孔明大笑曰	-4814
城上乱箭射下	-4815
忽然喊声大震	-4816
?!	-4817
▁是	-4818
》。	-4819
一向	-4820
一女	-4821
一寸	-4822
一座	-4823
一朝	-4824
一物	-4825
一跃	-4826
一身	-4827
一遍	-4828
一马	-4829
七路	-4830
万一	-4831
万岁	-4832
万民	-4833
万里	-4834
三事	-4835
三回	-4836
三条	-4837
三顾	-4838
下坛	-4839
下殿	-4840
下泪	-4841
下落	-4842
不决	-4843
不发	-4844
不就	-4845
不尽	-4846
不愿	-4847
不死	-4848
不浅	-4849
不由	-4850
不留	-4851
不省	-4852
不称	-4853
不等	-4854
不至	-4855
不要	-4856
不避	-4857
不问	-4858
与众	-4859
与你	-4860
与公	-4861
与敌	-4862
与某	-4863
中国	-4864
丹阳	-4865
为友	-4866
为合	-4867
乃一	-4868
乃将	-4869
乃聚	-4870
之剑	-4871
之女	-4872
之孙	-4873
之急	-4874
之恨	-4875
乌桓	-4876
九月	-4877
九锡	-4878
争先	-4879
二吕	-4880
于中	-4881
于吴	-4882
五月	-4883
些小	-4884
亦当	-4885
亦无	-4886
亦能	-4887
人多	-4888
仁慈	-4889
今且	-4890
今何	-4891
今彼	-4892
今果	-4893
今被	-4894
从何	-4895
仗义	-4896
代之	-4897
令弟	-4898
以上	-4899
以后	-4900
以实	-4901
以表	-4902
件事	-4903
伊尹	-4904
伏罪	-4905
休教	-4906
伞盖	-4907
传说	-4908
传谕	-4909
伯父	-4910
低言	-4911
何晏	-4912
何来	-4913
何谓	-4914
余党	-4915
你可	-4916
佩剑	-4917
使往	-4918
供给	-4919
依令	-4920
便出	-4921
俱在	-4922
借兵	-4923
健将	-4924
先于	-4925
先引	-4926
先退	-4927
光禄	-4928
入无	-4929
八万	-4930
公且	-4931
公文	-4932
关内	-4933
关口	-4934
关外	-4935
关羽	-4936
兴霸	-4937
兵临	-4938
兵于	-4939
兵精	-4940
其众	-4941
其便	-4942
其尸	-4943
其弟	-4944
其文	-4945
其谋	-4946
其锋	-4947
其面	-4948
再战	-4949
再欲	-4950
冒烟	-4951
写了	-4952
军机	-4953
几时	-4954
凭高	-4955
出一	-4956
出问	-4957
出降	-4958
分墨	-4959
列于	-4960
利刃	-4961
别作	-4962
到家	-4963
到时	-4964
刺死	-4965
前赴	-4966
动手	-4967
动问	-4968
势危	-4969
势甚	-4970
勇力	-4971
勿以	-4972
化曰	-4973
北岸	-4974
千古	-4975
午时	-4976
半月	-4977
半途	-4978
卞喜	-4979
卞氏	-4980
即今	-4981
即以	-4982
即将	-4983
却才	-4984
压惊	-4985
去后	-4986
又命	-4987
又遇	-4988
反欲	-4989
反覆	-4990
发喊	-4991
取回	-4992
受困	-4993
受死	-4994
只剩	-4995
只带	-4996
只须	-4997
右臂	-4998
号哭	-4999
司空	-5000
各寨	-5001
后必	-5002
后曰	-5003
后来	-5004
吐血	-5005
向日	-5006
君子	-5007
吴太	-5008
吾命	-5009
吾誓	-5010
告免	-5011
喏喏	-5012
嘉曰	-5013
嘱付	-5014
四时	-5015
四队	-5016
回走	-5017
图曰	-5018
在侧	-5019
在西	-5020
坐下	-5021
坚执	-5022
坛上	-5023
坛下	-5024
城南	-5025
堂中	-5026
境界	-5027
复有	-5028
夜梦	-5029
夤夜	-5030
大任	-5031
大妙	-5032
大恩	-5033
大雾	-5034
大驱	-5035
天使	-5036
天荡	-5037
天降	-5038
太白	-5039
头山	-5040
头盔	-5041
奇功	-5042
奸臣	-5043
好人	-5044
威名	-5045
孤意	-5046
安众	-5047
宋忠	-5048
宋谦	-5049
密奏	-5050
对答	-5051
封赏	-5052
将到	-5053
将头	-5054
小校	-5055
小觑	-5056
少时	-5057
尚自	-5058
尸横	-5059
尽诛	-5060
尽降	-5061
山脚	-5062
州事	-5063
已去	-5064
已成	-5065
布告	-5066
帝位	-5067
年方	-5068
并起	-5069
庆童	-5070
庐江	-5071
应付	-5072
应弦	-5073
府君	-5074
废立	-5075
开船	-5076
开言	-5077
弃枪	-5078
弓手	-5079
弓马	-5080
引入	-5081
弟兄	-5082
张约	-5083
归家	-5084
当复	-5085
形容	-5086
征之	-5087
径至	-5088
待人	-5089
待他	-5090
徐图	-5091
徐荣	-5092
得之	-5093
得令	-5094
御之	-5095
心事	-5096
心惊	-5097
必先	-5098
怎敢	-5099
恨之	-5100
恰好	-5101
惊得	-5102
惧色	-5103
惶恐	-5104
慰劳	-5105
成败	-5106
我于	-5107
我却	-5108
我去	-5109
战有	-5110
所为	-5111
所害	-5112
投魏	-5113
折将	-5114
抢夺	-5115
拈着	-5116
招飐	-5117
择吉	-5118
挥泪	-5119
捉下	-5120
探视	-5121
提戟	-5122
撞见	-5123
撤兵	-5124
操在	-5125
操引	-5126
擒了	-5127
放过	-5128
故也	-5129
敌之	-5130
救起	-5131
教取	-5132
数杯	-5133
斩汝	-5134
方到	-5135
方天	-5136
无有	-5137
日行	-5138
旧将	-5139
明主	-5140
春秋	-5141
昱曰	-5142
晋兵	-5143
智谋	-5144
月明	-5145
有误	-5146
望东	-5147
望乞	-5148
望前	-5149
望后	-5150
望曰	-5151
木鹿	-5152
杀吾	-5153
杀条	-5154
杀贼	-5155
李恢	-5156
来刺	-5157
杨欣	-5158
枪刀	-5159
某闻	-5160
染病	-5161
桃花	-5162
桥头	-5163
欠身	-5164
欲去	-5165
欲立	-5166
止之	-5167
正曰	-5168
正色	-5169
正见	-5170
正逢	-5171
此心	-5172
此皆	-5173
此行	-5174
气数	-5175
求之	-5176
汉相	-5177
汝之	-5178
汝今	-5179
汝却	-5180
汝来	-5181
汝欲	-5182
江湖	-5183
河上	-5184
法度	-5185
洪曰	-5186
洪福	-5187
济矣	-5188
涿郡	-5189
深信	-5190
深得	-5191
漫山	-5192
漳河	-5193
火烧	-5194
火焰	-5195
炮石	-5196
点兵	-5197
烧着	-5198
牙将	-5199
牙旗	-5200
牵出	-5201
犯境	-5202
献了	-5203
瓒曰	-5204
瓦口	-5205
瓦解	-5206
甄氏	-5207
甚多	-5208
用刀	-5209
用武	-5210
界首	-5211
的卢	-5212
皆无	-5213
皆来	-5214
皇天	-5215
盘蛇	-5216
盟主	-5217
直出	-5218
相告	-5219
相离	-5220
相送	-5221
看我	-5222
真心	-5223
睡着	-5224
禁曰	-5225
穆顺	-5226
空回	-5227
等物	-5228
算定	-5229
粮少	-5230
紧急	-5231
累次	-5232
红日	-5233
纳之	-5234
纳士	-5235
纸笔	-5236
绳索	-5237
羽翼	-5238
老弱	-5239
而卧	-5240
而取	-5241
而投	-5242
而望	-5243
而过	-5244
而还	-5245
耻笑	-5246
胜败	-5247
腾曰	-5248
自缚	-5249
自若	-5250
至于	-5251
致祭	-5252
舍命	-5253
舞剑	-5254
船筏	-5255
苟安	-5256
茶罢	-5257
荥阳	-5258
董允	-5259
薛兰	-5260
虎牢	-5261
虎豹	-5262
血路	-5263
行了	-5264
行事	-5265
行坐	-5266
被围	-5267
被害	-5268
袭之	-5269
裨将	-5270
见其	-5271
见是	-5272
解赴	-5273
言毕	-5274
讨逆	-5275
训练	-5276
设一	-5277
诈也	-5278
诏曰	-5279
说与	-5280
调拨	-5281
谋臣	-5282
谏议	-5283
谨守	-5284
谨慎	-5285
责骂	-5286
贵妃	-5287
费观	-5288
费诗	-5289
贺喜	-5290
贿赂	-5291
走石	-5292
足智	-5293
跌足	-5294
路逢	-5295
轻动	-5296
轻敌	-5297
辅之	-5298
辛评	-5299
辞曰	-5300
过江	-5301
远去	-5302
违令	-5303
迷当	-5304
追到	-5305
退时	-5306
送出	-5307
送行	-5308
送还	-5309
遂入	-5310
遂留	-5311
遂遣	-5312
遍观	-5313
遥见	-5314
邓飏	-5315
那将	-5316
邹靖	-5317
鄂焕	-5318
配曰	-5319
酒色	-5320
里应	-5321
重待	-5322
金甲	-5323
銮驾	-5324
铜人	-5325
门首	-5326
除害	-5327
隐居	-5328
霎时	-5329
非为	-5330
面君	-5331
面长	-5332
韩猛	-5333
项城	-5334
顿足	-5335
领计	-5336
饱食	-5337
骁将	-5338
骇然	-5339
高山	-5340
鬼神	-5341
麴山	-5342
麾军	-5343
龙凤	-5344
龙骧	-5345
▁云长	-5346
▁当日	-5347
▁忽报	-5348
▁此时	-5349
一骑马	-5350
万夫不	-5351
三十合	-5352
三百军	-5353
下战书	-5354
不能言	-5355
与姜维	-5356
与诸将	-5357
中常侍	-5358
为太子	-5359
为左右	-5360
为汉臣	-5361
为都督	-5362
主公若	-5363
之兆也	-5364
之罪也	-5365
于地下	-5366
五千人	-5367
以利害	-5368
以目视	-5369
何不早	-5370
使命至	-5371
侍立于	-5372
入洛阳	-5373
兵法云	-5374
分宾主	-5375
到长安	-5376
北将军	-5377
卧龙冈	-5378
司马氏	-5379
吾正欲	-5380
吾素知	-5381
周都督	-5382
四十万	-5383
土人曰	-5384
在徐州	-5385
夏侯德	-5386
天下者	-5387
天色已	-5388
如之何	-5389
姜伯约	-5390
威将军	-5391
子服曰	-5392
孔明唤	-5393
孙权曰	-5394
孟获等	-5395
将关公	-5396
将计就	-5397
小将军	-5398
尚书令	-5399
就马上	-5400
岂可复	-5401
引一枝	-5402
引二千	-5403
引五百	-5404
引兵至	-5405
引数千	-5406
引败军	-5407
当之勇	-5408
当用何	-5409
怀二心	-5410
急回马	-5411
我哥哥	-5412
投曹操	-5413
拆视之	-5414
操闻之	-5415
无一人	-5416
无忧矣	-5417
早望见	-5418
是何人	-5419
是曹操	-5420
曹操所	-5421
曹操曰	-5422
权从之	-5423
来接应	-5424
正迎着	-5425
武乡侯	-5426
毫无犯	-5427
渡泸水	-5428
牛头山	-5429
百余合	-5430
直杀到	-5431
立于船	-5432
糜竺曰	-5433
维笑曰	-5434
而哭曰	-5435
见主公	-5436
见云长	-5437
认得是	-5438
请主公	-5439
诸葛均	-5440
进言曰	-5441
遂下令	-5442
遂引兵	-5443
遂引军	-5444
遂遣使	-5445
那里去	-5446
部将曰	-5447
闻将军	-5448
闻曹操	-5449
闻玄德	-5450
随后便	-5451
领一军	-5452
领徐州	-5453
驾小舟	-5454
魏延曰	-5455
魏阵中	-5456
....	-5457
▁第八十	-5458
▁第四十	-5459
一彪人马	-5460
万死不辞	-5461
三十余人	-5462
三十余合	-5463
三路军马	-5464
不知何处	-5465
不能前进	-5466
不见一人	-5467
与夏侯霸	-5468
东吴孙权	-5469
两军混战	-5470
为之奈何	-5471
为首一将	-5472
二人受计	-5473
二十余人	-5474
五十余里	-5475
今日之事	-5476
以逸待劳	-5477
仰天叹曰	-5478
伏刀斧手	-5479
修书一封	-5480
兄弟三人	-5481
八十一州	-5482
冒烟突火	-5483
出榜安民	-5484
出班奏曰	-5485
分拨已定	-5486
列成阵势	-5487
别来无恙	-5488
前面一军	-5489
卧龙先生	-5490
只见一人	-5491
喊声起处	-5492
回头视之	-5493
天下英雄	-5494
安敢如此	-5495
布成阵势	-5496
带来洞主	-5497
应天顺人	-5498
引兵五万	-5499
引十数骑	-5500
征西将军	-5501
得胜之兵	-5502
心中疑惑	-5503
忠义之士	-5504
慌忙下马	-5505
拔剑在手	-5506
拜伏于地	-5507
操大怒曰	-5508
有万夫不	-5509
木鹿大王	-5510
本部人马	-5511
杀了一阵	-5512
来见孔明	-5513
来见曹操	-5514
来见玄德	-5515
正商议间	-5516
正走之间	-5517
此人是谁	-5518
此计大妙	-5519
汉寿亭侯	-5520
灭其三族	-5521
甘夫人曰	-5522
祝融夫人	-5523
秋毫无犯	-5524
纶巾羽扇	-5525
细作探知	-5526
细言其事	-5527
老将黄忠	-5528
肝脑涂地	-5529
自引一军	-5530
蛮王孟获	-5531
蜀兵大败	-5532
行不数里	-5533
诸葛孔明	-5534
足智多谋	-5535
退兵之策	-5536
里应外合	-5537
问其姓名	-5538
领三千兵	-5539
魏主曹芳	-5540
黄昏时分	-5541
▁却说关公	-5542
一彪军杀到	-5543
三十里下寨	-5544
拜伏于地曰	-5545
常山赵子龙也	-5546
死于乱军之中	-5547
有万夫不当之勇	-5548
8)	-5549
’,	-5550
▁曹	-5551
一事	-5552
一切	-5553
一匹	-5554
一大	-5555
一篇	-5556
一首	-5557
七回	-5558
七年	-5559
丈余	-5560
三世	-5561
三国	-5562
三次	-5563
三者	-5564
三通	-5565
上有	-5566
下拜	-5567
下流	-5568
不入	-5569
不好	-5570
不宁	-5571
不当	-5572
不忠	-5573
不息	-5574
不放	-5575
不整	-5576
不说	-5577
不负	-5578
不还	-5579
不进	-5580
不闻	-5581
不难	-5582
不食	-5583
与弟	-5584
且回	-5585
两处	-5586
两日	-5587
中了	-5588
中伤	-5589
为文	-5590
为质	-5591
为食	-5592
乃先	-5593
乃出	-5594
乃遣	-5595
义释	-5596
之业	-5597
之侧	-5598
之妹	-5599
之常	-5600
之疾	-5601
之舌	-5602
之说	-5603
乌程	-5604
乏粮	-5605
乘夜	-5606
九尺	-5607
乡人	-5608
书名	-5609
书至	-5610
乱窜	-5611
乾象	-5612
事势	-5613
事故	-5614
事耳	-5615
二主	-5616
二位	-5617
二军	-5618
二郡	-5619
于其	-5620
于朝	-5621
五队	-5622
亦在	-5623
京兆	-5624
亮曰	-5625
亲到	-5626
亲随	-5627
人到	-5628
人头	-5629
今年	-5630
今得	-5631
今观	-5632
他意	-5633
付与	-5634
令先	-5635
以一	-5636
以助	-5637
以成	-5638
以礼	-5639
以臣	-5640
任他	-5641
伏波	-5642
伏龙	-5643
会意	-5644
会集	-5645
传报	-5646
但看	-5647
何仪	-5648
何地	-5649
何太	-5650
何愁	-5651
作贺	-5652
依允	-5653
依法	-5654
侵我	-5655
便就	-5656
便差	-5657
便要	-5658
保着	-5659
信义	-5660
倒戈	-5661
傍边	-5662
催船	-5663
元龙	-5664
先出	-5665
先进	-5666
入去	-5667
入蜀	-5668
八面	-5669
公以	-5670
公有	-5671
六月	-5672
兵家	-5673
兵强	-5674
兵微	-5675
其书	-5676
其志	-5677
其祸	-5678
其身	-5679
内侍	-5680
再回	-5681
军务	-5682
军官	-5683
冲阵	-5684
冷笑	-5685
准信	-5686
凡事	-5687
凤凰	-5688
出内	-5689
出军	-5690
出府	-5691
出此	-5692
刀箭	-5693
创业	-5694
到日	-5695
力战	-5696
功劳	-5697
势如	-5698
北征	-5699
升赏	-5700
卑衍	-5701
卓命	-5702
卓问	-5703
单骑	-5704
占了	-5705
卧于	-5706
即位	-5707
即引	-5708
即死	-5709
却不	-5710
厅上	-5711
去守	-5712
去袭	-5713
县中	-5714
又出	-5715
又至	-5716
反情	-5717
发丧	-5718
发付	-5719
发落	-5720
叔叔	-5721
取得	-5722
取齐	-5723
受刑	-5724
变矣	-5725
古城	-5726
叩头	-5727
召回	-5728
可乎	-5729
可去	-5730
可就	-5731
可往	-5732
可胜	-5733
可解	-5734
右手	-5735
号火	-5736
号炮	-5737
司隶	-5738
各为	-5739
各官	-5740
各门	-5741
吉兆	-5742
吊君	-5743
后嗣	-5744
后悔	-5745
后槽	-5746
吴使	-5747
吹折	-5748
吾何	-5749
吾宁	-5750
吾寨	-5751
吾岂	-5752
吾得	-5753
吾恨	-5754
吾愿	-5755
吾者	-5756
吾虽	-5757
告说	-5758
呜呼	-5759
周公	-5760
哀痛	-5761
唾手	-5762
喝退	-5763
四个	-5764
四州	-5765
四百	-5766
回吴	-5767
回避	-5768
围绕	-5769
国富	-5770
国谯	-5771
圆处	-5772
圆睁	-5773
土地	-5774
土木	-5775
在内	-5776
在蜀	-5777
坠地	-5778
堂下	-5779
堂堂	-5780
堆积	-5781
备说	-5782
备马	-5783
夜间	-5784
大举	-5785
大位	-5786
大喊	-5787
大志	-5788
大悦	-5789
大获	-5790
天之	-5791
天威	-5792
天道	-5793
太仆	-5794
太过	-5795
失事	-5796
失措	-5797
失散	-5798
夺之	-5799
奋死	-5800
奏准	-5801
奸党	-5802
奸细	-5803
奸贼	-5804
奸邪	-5805
好生	-5806
如雷	-5807
妄杀	-5808
妫览	-5809
姓刘	-5810
姓张	-5811
娘娘	-5812
字旗	-5813
存亡	-5814
安知	-5815
定计	-5816
宫人	-5817
宫殿	-5818
家僮	-5819
容易	-5820
密布	-5821
对手	-5822
对面	-5823
射住	-5824
将兵	-5825
将息	-5826
将次	-5827
小人	-5828
小辈	-5829
少帝	-5830
尘土	-5831
尹奉	-5832
尺寸	-5833
尽出	-5834
尽退	-5835
屏后	-5836
屏风	-5837
屡败	-5838
山口	-5839
山林	-5840
岂知	-5841
岘山	-5842
左侧	-5843
已破	-5844
巴郡	-5845
布军	-5846
带伤	-5847
带甲	-5848
带马	-5849
席间	-5850
平蛮	-5851
并吞	-5852
府前	-5853
庸才	-5854
建功	-5855
建宁	-5856
开了	-5857
弃寨	-5858
弄权	-5859
张勋	-5860
张布	-5861
张燕	-5862
张缉	-5863
张著	-5864
归命	-5865
当与	-5866
当道	-5867
彧曰	-5868
往复	-5869
往救	-5870
征西	-5871
征讨	-5872
得出	-5873
得我	-5874
必中	-5875
必遭	-5876
怎生	-5877
急取	-5878
急命	-5879
急走	-5880
总领	-5881
恐其	-5882
恕之	-5883
恩德	-5884
惊倒	-5885
惊动	-5886
惊骇	-5887
慌乱	-5888
戏耳	-5889
成事	-5890
成济	-5891
我亦	-5892
我已	-5893
战死	-5894
战者	-5895
所领	-5896
手曰	-5897
打发	-5898
打着	-5899
扫清	-5900
承彦	-5901
把守	-5902
报丧	-5903
招贤	-5904
拦截	-5905
持枪	-5906
据住	-5907
搜出	-5908
摆列	-5909
操之	-5910
操命	-5911
擒矣	-5912
擒获	-5913
攸曰	-5914
改容	-5915
故以	-5916
故尔	-5917
敌也	-5918
救主	-5919
救驾	-5920
教之	-5921
教休	-5922
敢来	-5923
敬之	-5924
数次	-5925
斩关	-5926
无学	-5927
无异	-5928
无故	-5929
无虞	-5930
既得	-5931
早图	-5932
早已	-5933
昭烈	-5934
是其	-5935
晃曰	-5936
曹家	-5937
曹嵩	-5938
曹性	-5939
曹掾	-5940
曹瞒	-5941
曹遵	-5942
有事	-5943
有异	-5944
有胆	-5945
望南	-5946
本州	-5947
本洞	-5948
杀回	-5949
杀开	-5950
来献	-5951
林中	-5952
果是	-5953
枭雄	-5954
某亦	-5955
桓帝	-5956
槛车	-5957
樊建	-5958
欲谋	-5959
歃血	-5960
歇马	-5961
正待	-5962
此二	-5963
此意	-5964
步骘	-5965
武陵	-5966
死后	-5967
殿上	-5968
水深	-5969
水面	-5970
永昌	-5971
汉上	-5972
汗流	-5973
汝家	-5974
江上	-5975
江岸	-5976
江左	-5977
江水	-5978
江汉	-5979
沐浴	-5980
浑身	-5981
深感	-5982
深明	-5983
深知	-5984
深通	-5985
添兵	-5986
滕胤	-5987
滚下	-5988
滚鞍	-5989
火炮	-5990
灵曰	-5991
烧毁	-5992
烽火	-5993
燕人	-5994
父老	-5995
猛然	-5996
王位	-5997
王刘	-5998
王含	-5999
王植	-6000
王楷	-6001
班部	-6002
理事	-6003
甘泉	-6004
田氏	-6005
画成	-6006
留兵	-6007
留在	-6008
疑之	-6009
疑是	-6010
登舟	-6011
白袍	-6012
皂衣	-6013
皆为	-6014
皆感	-6015
皆至	-6016
盛贮	-6017
目前	-6018
直奔	-6019
相从	-6020
相害	-6021
相欺	-6022
相聚	-6023
相连	-6024
看他	-6025
瞒过	-6026
知己	-6027
矫诏	-6028
短刀	-6029
石头	-6030
破贼	-6031
神人	-6032
神仙	-6033
禅位	-6034
福曰	-6035
离了	-6036
离此	-6037
离间	-6038
秋雨	-6039
秦琪	-6040
称臣	-6041
移于	-6042
突入	-6043
章武	-6044
竺曰	-6045
等辈	-6046
策乃	-6047
管待	-6048
箭头	-6049
籍曰	-6050
精锐	-6051
约行	-6052
约退	-6053
纵使	-6054
绑缚	-6055
结亲	-6056
绝其	-6057
绣旗	-6058
罪恶	-6059
美女	-6060
美髯	-6061
老叟	-6062
而倒	-6063
而往	-6064
而笑	-6065
而见	-6066
而迎	-6067
耒阳	-6068
背主	-6069
自外	-6070
自家	-6071
自当	-6072
自提	-6073
至孝	-6074
舌辩	-6075
船到	-6076
芳曰	-6077
苍天	-6078
若杀	-6079
若见	-6080
苦告	-6081
茂盛	-6082
落地	-6083
董亭	-6084
董贼	-6085
蒋斌	-6086
蛇矛	-6087
蜀营	-6088
蜀郡	-6089
表文	-6090
被杀	-6091
裴秀	-6092
要行	-6093
见布	-6094
解和	-6095
计也	-6096
议论	-6097
讲和	-6098
许汜	-6099
话下	-6100
误中	-6101
诱之	-6102
请曰	-6103
诸处	-6104
调度	-6105
调练	-6106
谈笑	-6107
谢罪	-6108
负朕	-6109
责之	-6110
贼势	-6111
贾华	-6112
赤帻	-6113
越曰	-6114
趱程	-6115
路上	-6116
路昭	-6117
踪迹	-6118
蹇硕	-6119
车马	-6120
轻出	-6121
辞出	-6122
辞回	-6123
辞归	-6124
辰时	-6125
还都	-6126
这厮	-6127
远出	-6128
连天	-6129
迸裂	-6130
退回	-6131
送了	-6132
送到	-6133
适间	-6134
逃回	-6135
遂立	-6136
道理	-6137
遣之	-6138
遥指	-6139
邹氏	-6140
郡守	-6141
部卒	-6142
部曲	-6143
部领	-6144
都被	-6145
酒行	-6146
金宝	-6147
金环	-6148
铁甲	-6149
铠甲	-6150
银坑	-6151
长城	-6152
问了	-6153
阎圃	-6154
阳安	-6155
陈琳	-6156
险阻	-6157
难容	-6158
雄才	-6159
雷薄	-6160
青囊	-6161
青釭	-6162
面门	-6163
韦康	-6164
韩忠	-6165
音信	-6166
顷刻	-6167
顺流	-6168
驰檄	-6169
骁勇	-6170
高士	-6171
魂不	-6172
麦熟	-6173
黄钺	-6174
龙体	-6175
▁姜维	-6176
▁孙权	-6177
。——	-6178
一字儿	-6179
一少年	-6180
一枝兵	-6181
万无一	-6182
丈夫也	-6183
三十年	-6184
不从者	-6185
不可以	-6186
不敢正	-6187
不远矣	-6188
丞相若	-6189
中山靖	-6190
为上宾	-6191
为前队	-6192
为合后	-6193
为后应	-6194
举一人	-6195
乃关兴	-6196
之事乎	-6197
之人乎	-6198
之力也	-6199
之法也	-6200
之计矣	-6201
了一阵	-6202
二人各	-6203
二将曰	-6204
于地上	-6205
于堂上	-6206
五十万	-6207
人之境	-6208
今孔明	-6209
今曹兵	-6210
今蜀兵	-6211
令魏延	-6212
伏皇后	-6213
伐中原	-6214
众军皆	-6215
何惧哉	-6216
使人去	-6217
使人往	-6218
入中军	-6219
入见曰	-6220
其略曰	-6221
再拜曰	-6222
冒矢石	-6223
决死战	-6224
出城来	-6225
前下马	-6226
前将军	-6227
十二回	-6228
十五回	-6229
华容道	-6230
厚葬之	-6231
原来是	-6232
去东吴	-6233
又令人	-6234
又有诗	-6235
可令人	-6236
可破也	-6237
吊桥边	-6238
吕布曰	-6239
吴国太	-6240
吾兄弟	-6241
呈上书	-6242
四下里	-6243
回洛阳	-6244
圣人云	-6245
在江夏	-6246
声大震	-6247
夏侯玄	-6248
大都督	-6249
天下人	-6250
天荡山	-6251
太后曰	-6252
太常卿	-6253
奏天子	-6254
如何得	-6255
如何瞒	-6256
如入无	-6257
如此之	-6258
姜维在	-6259
孔分墨	-6260
张辽曰	-6261
归馆舍	-6262
往投之	-6263
往江夏	-6264
徐元直	-6265
心久矣	-6266
恐不能	-6267
惊问曰	-6268
愿先生	-6269
愿将军	-6270
操从之	-6271
操怒曰	-6272
操自领	-6273
擒孟获	-6274
故有此	-6275
数十里	-6276
斗阵法	-6277
暗使人	-6278
曹仁曰	-6279
曹操在	-6280
有人报	-6281
望将军	-6282
望汉中	-6283
来劫寨	-6284
欲兴兵	-6285
正奔走	-6286
正说间	-6287
此机会	-6288
死而已	-6289
汜水关	-6290
汝等皆	-6291
江而死	-6292
然其说	-6293
玄德亦	-6294
玄德引	-6295
玄德闻	-6296
生不能	-6297
用之物	-6298
皆不能	-6299
益州牧	-6300
知其意	-6301
秋七月	-6302
立功名	-6303
维大惊	-6304
耒阳县	-6305
自以为	-6306
至城下	-6307
至帐下	-6308
至江边	-6309
致书于	-6310
苞二人	-6311
英雄也	-6312
董承等	-6313
藤甲军	-6314
被云长	-6315
见周瑜	-6316
见魏延	-6317
许褚曰	-6318
误大事	-6319
请二嫂	-6320
请将军	-6321
读兵书	-6322
貂蝉曰	-6323
起大兵	-6324
还洛阳	-6325
遣人往	-6326
遣人送	-6327
遣大将	-6328
那条路	-6329
释其缚	-6330
非等闲	-6331
骑都尉	-6332
▁关云长	-6333
一彪军出	-6334
一枪刺死	-6335
万无一失	-6336
不在话下	-6337
不得已而	-6338
不敢追赶	-6339
东南角上	-6340
东南风起	-6341
为偏将军	-6342
为首蜀将	-6343
乃孔明也	-6344
之言甚善	-6345
乘势击之	-6346
二十余合	-6347
于是孔明	-6348
侍立于侧	-6349
内外夹攻	-6350
再作良图	-6351
出城迎接	-6352
势不可当	-6353
却说玄德	-6354
又唤关兴	-6355
召入问之	-6356
叱退左右	-6357
司隶校尉	-6358
司马懿也	-6359
各引一万	-6360
吴主孙休	-6361
吴太夫人	-6362
吾意已决	-6363
吾料孔明	-6364
哨马报说	-6365
善能用兵	-6366
喊声又起	-6367
回到寨中	-6368
围在垓心	-6369
国家大事	-6370
土人问之	-6371
大赏三军	-6372
奏后主曰	-6373
将军何不	-6374
尸横遍野	-6375
引三千兵	-6376
引兵十万	-6377
引兵去了	-6378
引兵杀到	-6379
引兵追赶	-6380
引军赶来	-6381
引数百骑	-6382
引火之物	-6383
张飞大怒	-6384
当夜二更	-6385
当阳长坂	-6386
御驾亲征	-6387
心中暗喜	-6388
忽流星马	-6389
忽然背后	-6390
恐有埋伏	-6391
恢复中原	-6392
战不十合	-6393
折兵大半	-6394
披发仗剑	-6395
挺身出曰	-6396
搬运粮草	-6397
操大喜曰	-6398
文官武将	-6399
料敌不过	-6400
断其归路	-6401
无心恋战	-6402
有何不可	-6403
未知其计	-6404
朵思大王	-6405
杀入重围	-6406
杀出重围	-6407
权从其言	-6408
某虽不才	-6409
桃花渡口	-6410
死战得脱	-6411
永结盟好	-6412
滚鞍下马	-6413
然后进兵	-6414
玄德与关	-6415
王子服等	-6416
皆是魏兵	-6417
真神人也	-6418
祁山大寨	-6419
立于阵前	-6420
精兵五千	-6421
纵马向前	-6422
绰枪上马	-6423
置酒相待	-6424
聚众商议	-6425
自领大军	-6426
若司马懿	-6427
观其动静	-6428
谓众官曰	-6429
谓众将曰	-6430
赤壁鏖兵	-6431
连人带马	-6432
酒行数巡	-6433
铁桶相似	-6434
陈珪父子	-6435
领命而去	-6436
飞身上马	-6437
驱兵大进	-6438
驱兵掩杀	-6439
黄门侍郎	-6440
默然无语	-6441
▁却说袁绍	-6442
为车骑将军	-6443
为首大将乃	-6444
乃关云长也	-6445
仰天长叹曰	-6446
却说司马懿	-6447
玄德与孔明	-6448
玄德大惊曰	-6449
用好言抚慰	-6450
立马于桥上	-6451
一刀斩于马下	-6452
为首一员大将	-6453
似此如之奈何	-6454
如入无人之境	-6455
左右推出斩之	-6456
忽然一声炮响	-6457
!“	-6458
:”	-6459
?“	-6460
▁卓	-6461
▁肃	-6462
▁话	-6463
一叶	-6464
一子	-6465
一干	-6466
一是	-6467
一望	-6468
一统	-6469
一臂	-6470
丁仪	-6471
七万	-6472
七人	-6473
万安	-6474
三五	-6475
上帐	-6476
下水	-6477
下营	-6478
不亦	-6479
不作	-6480
不允	-6481
不加	-6482
不劳	-6483
不多	-6484
不待	-6485
不敌	-6486
不敷	-6487
不料	-6488
不烂	-6489
不自	-6490
不薄	-6491
不遇	-6492
不遵	-6493
不顺	-6494
与人	-6495
与兄	-6496
且玻	-6497
东兴	-6498
东方	-6499
东莱	-6500
东都	-6501
两员	-6502
两次	-6503
两队	-6504
严整	-6505
为妻	-6506
为平	-6507
为期	-6508
为正	-6509
为此	-6510
为祸	-6511
为贼	-6512
主何	-6513
举杯	-6514
乃义	-6515
乃汉	-6516
乃自	-6517
乃魏	-6518
久住	-6519
久必	-6520
之亲	-6521
之好	-6522
之威	-6523
之家	-6524
之忧	-6525
之次	-6526
之火	-6527
之甚	-6528
之病	-6529
之胄	-6530
之至	-6531
之路	-6532
乐毅	-6533
乘之	-6534
乘机	-6535
乘舟	-6536
乘风	-6537
九江	-6538
乡中	-6539
乡里	-6540
书呈	-6541
乱国	-6542
二乔	-6543
于上	-6544
于军	-6545
于壁	-6546
于太	-6547
于西	-6548
于诠	-6549
五色	-6550
亲笔	-6551
亲至	-6552
人情	-6553
人若	-6554
仁曰	-6555
今上	-6556
今与	-6557
今为	-6558
今吾	-6559
今宜	-6560
今将	-6561
今知	-6562
仍令	-6563
从其	-6564
从头	-6565
从骑	-6566
他事	-6567
他却	-6568
他去	-6569
他处	-6570
令兄	-6571
令军	-6572
令某	-6573
令汝	-6574
以候	-6575
以吾	-6576
以目	-6577
以谢	-6578
以避	-6579
以酒	-6580
仪亭	-6581
仪表	-6582
伏几	-6583
传下	-6584
传檄	-6585
但闻	-6586
住扎	-6587
何平	-6588
何异	-6589
何忧	-6590
何由	-6591
何职	-6592
何言	-6593
作乱	-6594
作速	-6595
佯作	-6596
使曰	-6597
侍奉	-6598
便砍	-6599
倒退	-6600
倘若	-6601
借我	-6602
借粮	-6603
倾国	-6604
偷过	-6605
傕曰	-6606
元绍	-6607
先差	-6608
先教	-6609
先断	-6610
先来	-6611
入席	-6612
入骨	-6613
全端	-6614
全装	-6615
八百	-6616
八门	-6617
公事	-6618
公今	-6619
六岁	-6620
关西	-6621
兵将	-6622
兵革	-6623
其兄	-6624
其勇	-6625
其大	-6626
其宜	-6627
其实	-6628
其所	-6629
再有	-6630
再议	-6631
军在	-6632
军情	-6633
冯礼	-6634
冲开	-6635
决策	-6636
决计	-6637
况今	-6638
冷箭	-6639
凉州	-6640
凌操	-6641
几乎	-6642
几番	-6643
出殿	-6644
出首	-6645
刀割	-6646
分明	-6647
则是	-6648
初到	-6649
利于	-6650
利在	-6651
别了	-6652
别人	-6653
到庄	-6654
制造	-6655
刺中	-6656
刺之	-6657
刺杀	-6658
剿灭	-6659
勇将	-6660
匆匆	-6661
北地	-6662
北有	-6663
十矢	-6664
千金	-6665
南人	-6666
即同	-6667
即欲	-6668
即请	-6669
去其	-6670
参见	-6671
又复	-6672
又引	-6673
又得	-6674
又败	-6675
及至	-6676
反掌	-6677
发掘	-6678
取柑	-6679
取箭	-6680
受敌	-6681
受此	-6682
变化	-6683
口内	-6684
古今	-6685
句安	-6686
只令	-6687
只管	-6688
只闻	-6689
可保	-6690
可再	-6691
可取	-6692
可尽	-6693
可敌	-6694
可暂	-6695
可比	-6696
可知	-6697
可走	-6698
各依	-6699
各军	-6700
各分	-6701
各回	-6702
各宜	-6703
各洞	-6704
同守	-6705
后因	-6706
后路	-6707
后随	-6708
吕常	-6709
君言	-6710
听吾	-6711
吾在	-6712
吾必	-6713
吾父	-6714
吾素	-6715
周听	-6716
哂笑	-6717
哭告	-6718
唐咨	-6719
善保	-6720
四万	-6721
四世	-6722
四冢	-6723
四回	-6724
四寸	-6725
回朝	-6726
回覆	-6727
回言	-6728
围了	-6729
国人	-6730
国恩	-6731
国有	-6732
在小	-6733
在朝	-6734
地势	-6735
地曰	-6736
均曰	-6737
坚壁	-6738
坚辞	-6739
坞中	-6740
坟墓	-6741
坠马	-6742
堕泪	-6743
复出	-6744
复夺	-6745
复生	-6746
多病	-6747
大人	-6748
大敌	-6749
大目	-6750
大破	-6751
大礼	-6752
大祸	-6753
大设	-6754
大风	-6755
天书	-6756
奇之	-6757
奏请	-6758
好歹	-6759
好酒	-6760
如无	-6761
如神	-6762
妾身	-6763
姓吕	-6764
姓李	-6765
子云	-6766
字季	-6767
存恤	-6768
孙氏	-6769
孙观	-6770
孙静	-6771
孝廉	-6772
孤亦	-6773
孤身	-6774
安乐	-6775
安出	-6776
安居	-6777
安置	-6778
定陶	-6779
宜早	-6780
宝贝	-6781
宣谕	-6782
家奴	-6783
宽仁	-6784
宾客	-6785
密告	-6786
密唤	-6787
寝食	-6788
寨边	-6789
对众	-6790
对山	-6791
封曰	-6792
封谞	-6793
将吏	-6794
小军	-6795
小弟	-6796
尚与	-6797
尽烧	-6798
尽驱	-6799
山城	-6800
山边	-6801
山野	-6802
岸口	-6803
崔禹	-6804
巡警	-6805
工部	-6806
左臂	-6807
巨雷	-6808
巩志	-6809
已出	-6810
已在	-6811
巾帼	-6812
布合	-6813
帝前	-6814
帝号	-6815
帝室	-6816
带箭	-6817
席上	-6818
幕宾	-6819
幕府	-6820
年之	-6821
年纪	-6822
并将	-6823
幼子	-6824
庙堂	-6825
府库	-6826
废主	-6827
废长	-6828
度之	-6829
庶人	-6830
庶民	-6831
廷尉	-6832
开读	-6833
异日	-6834
弃于	-6835
弃官	-6836
弃此	-6837
引见	-6838
张弓	-6839
张武	-6840
张达	-6841
弩箭	-6842
归到	-6843
归去	-6844
当初	-6845
当面	-6846
形貌	-6847
得见	-6848
得过	-6849
御营	-6850
微明	-6851
德者	-6852
徽曰	-6853
心实	-6854
心神	-6855
必从	-6856
必以	-6857
必取	-6858
怀恨	-6859
怀疑	-6860
怕死	-6861
怜之	-6862
思曰	-6863
急忙	-6864
急战	-6865
怨言	-6866
总摄	-6867
恐非	-6868
恢曰	-6869
息怒	-6870
惧哉	-6871
惧怕	-6872
惧怯	-6873
惶惶	-6874
感叹	-6875
愿也	-6876
愿以	-6877
慷慨	-6878
懈怠	-6879
成了	-6880
成疾	-6881
我不	-6882
我主	-6883
我看	-6884
我耶	-6885
战栗	-6886
战袍	-6887
截其	-6888
所作	-6889
所归	-6890
所骑	-6891
手书	-6892
手摇	-6893
打探	-6894
打死	-6895
托疾	-6896
扯碎	-6897
扶病	-6898
折其	-6899
报道	-6900
押过	-6901
担土	-6902
拆断	-6903
招募	-6904
招谕	-6905
持戟	-6906
指望	-6907
挟住	-6908
挡住	-6909
挫动	-6910
挺戟	-6911
捐生	-6912
损兵	-6913
授与	-6914
接见	-6915
掳掠	-6916
揪住	-6917
搭起	-6918
摇旗	-6919
摩柯	-6920
操又	-6921
操指	-6922
操有	-6923
擒来	-6924
收住	-6925
收艾	-6926
改为	-6927
放去	-6928
放归	-6929
故事	-6930
效力	-6931
效死	-6932
敌住	-6933
救我	-6934
救醒	-6935
教且	-6936
敢有	-6937
敬礼	-6938
整兵	-6939
整衣	-6940
文章	-6941
断吾	-6942
新君	-6943
方丈	-6944
方信	-6945
方定	-6946
族弟	-6947
无仇	-6948
无君	-6949
无患	-6950
无才	-6951
无疑	-6952
日后	-6953
早出	-6954
易州	-6955
春香	-6956
暗伏	-6957
暗弱	-6958
更换	-6959
曹奂	-6960
曹彰	-6961
曾见	-6962
曾闻	-6963
最善	-6964
月色	-6965
有兵	-6966
有勇	-6967
有旧	-6968
有甚	-6969
服其	-6970
朕欲	-6971
朕自	-6972
木匣	-6973
木门	-6974
未息	-6975
未痊	-6976
未肯	-6977
未醒	-6978
本处	-6979
朱光	-6980
朱桓	-6981
朱褒	-6982
朱赞	-6983
杀尽	-6984
杀此	-6985
杀牛	-6986
权问	-6987
李意	-6988
李福	-6989
李辅	-6990
村夫	-6991
杜袭	-6992
来也	-6993
来了	-6994
来助	-6995
来袭	-6996
某与	-6997
桓范	-6998
桥蕤	-6999
梦中	-7000
棺椁	-7001
模样	-7002
横截	-7003
横矛	-7004
欣喜	-7005
欲为	-7006
欲回	-7007
欲报	-7008
欲求	-7009
歇定	-7010
正东	-7011
此水	-7012
武扬	-7013
武王	-7014
残害	-7015
残暴	-7016
殿中	-7017
母子	-7018
比试	-7019
毛后	-7020
民间	-7021
求和	-7022
汉将	-7023
汉川	-7024
汉津	-7025
汉祚	-7026
汝兄	-7027
汲水	-7028
沛城	-7029
河边	-7030
油柜	-7031
治中	-7032
治国	-7033
泰曰	-7034
活命	-7035
济北	-7036
涂炭	-7037
深恨	-7038
渤海	-7039
溪边	-7040
满地	-7041
潸然	-7042
灭族	-7043
灭魏	-7044
灵前	-7045
照耀	-7046
爵禄	-7047
父仇	-7048
片甲	-7049
片言	-7050
特遣	-7051
犹然	-7052
猎于	-7053
王威	-7054
王累	-7055
王霸	-7056
现居	-7057
理合	-7058
琮曰	-7059
甘当	-7060
甚妙	-7061
甚密	-7062
生疑	-7063
用为	-7064
用心	-7065
田楷	-7066
甲子	-7067
疼痛	-7068
登岸	-7069
白旄	-7070
皆不	-7071
皆到	-7072
皆同	-7073
皆呼	-7074
皆散	-7075
皆随	-7076
皓曰	-7077
目下	-7078
相并	-7079
相父	-7080
相让	-7081
相请	-7082
看吾	-7083
瞑目	-7084
石阵	-7085
破我	-7086
硬弩	-7087
碌碌	-7088
祈祷	-7089
祖茂	-7090
神兵	-7091
神威	-7092
神机	-7093
神武	-7094
祭文	-7095
禁兵	-7096
离寨	-7097
禽兽	-7098
秘书	-7099
称奇	-7100
空中	-7101
空城	-7102
空寨	-7103
立业	-7104
立了	-7105
立幼	-7106
立杀	-7107
竖子	-7108
竖起	-7109
端的	-7110
答之	-7111
筵席	-7112
算也	-7113
篡位	-7114
素与	-7115
红光	-7116
织席	-7117
经过	-7118
绕城	-7119
继母	-7120
罔上	-7121
美人	-7122
者皆	-7123
而事	-7124
而作	-7125
而反	-7126
而奔	-7127
而拜	-7128
而散	-7129
聚于	-7130
肉计	-7131
肯降	-7132
肺腑	-7133
胆裂	-7134
背之	-7135
胡烈	-7136
胸中	-7137
脑袋	-7138
臣已	-7139
臣料	-7140
自立	-7141
至近	-7142
致使	-7143
致意	-7144
舟中	-7145
船已	-7146
芒砀	-7147
苗泽	-7148
苞曰	-7149
若彼	-7150
若是	-7151
若此	-7152
若要	-7153
苦劝	-7154
范疆	-7155
荀顗	-7156
草芥	-7157
荒淫	-7158
荡荡	-7159
莫测	-7160
莫若	-7161
营前	-7162
落水	-7163
董后	-7164
蒙头	-7165
蒯良	-7166
蔡琰	-7167
蔽日	-7168
藏于	-7169
虎视	-7170
虎须	-7171
虽众	-7172
虽死	-7173
蛟龙	-7174
蛮人	-7175
蜀有	-7176
蜀道	-7177
袁隗	-7178
袍袖	-7179
被云	-7180
被吾	-7181
被我	-7182
裁处	-7183
见他	-7184
见山	-7185
见疑	-7186
见罪	-7187
观书	-7188
解去	-7189
言也	-7190
誓不	-7191
计将	-7192
计较	-7193
议郎	-7194
许以	-7195
识吾	-7196
诚心	-7197
详之	-7198
误事	-7199
请自	-7200
诸官	-7201
诸营	-7202
调治	-7203
谋之	-7204
谐矣	-7205
谢之	-7206
谢旌	-7207
谥父	-7208
豺狼	-7209
败绩	-7210
贼臣	-7211
赍捧	-7212
赐酒	-7213
赦之	-7214
赴席	-7215
赴敌	-7216
起曰	-7217
起来	-7218
越岭	-7219
足以	-7220
跪于	-7221
车骑	-7222
迎入	-7223
还有	-7224
还营	-7225
这条	-7226
这等	-7227
进攻	-7228
远志	-7229
远接	-7230
连珠	-7231
连绵	-7232
迟则	-7233
迟延	-7234
退了	-7235
送之	-7236
送去	-7237
逃走	-7238
遁甲	-7239
遂召	-7240
遂弃	-7241
遂得	-7242
遂斩	-7243
遂问	-7244
道号	-7245
道袍	-7246
遮拦	-7247
郃又	-7248
郗虑	-7249
郿城	-7250
鄄城	-7251
酒酣	-7252
重权	-7253
重枣	-7254
量一	-7255
金冠	-7256
金雁	-7257
长者	-7258
长蛇	-7259
门前	-7260
问于	-7261
闻操	-7262
阳平	-7263
阴风	-7264
阿瞒	-7265
附体	-7266
陈兰	-7267
陈骞	-7268
降之	-7269
降吴	-7270
降旨	-7271
降蜀	-7272
除非	-7273
隆冬	-7274
随身	-7275
隐讳	-7276
雪恨	-7277
青史	-7278
青旗	-7279
非我	-7280
项羽	-7281
顺风	-7282
须发	-7283
须要	-7284
领众	-7285
领此	-7286
颜色	-7287
风雪	-7288
风雷	-7289
飞出	-7290
饮至	-7291
饶你	-7292
饶汝	-7293
马嘶	-7294
马蹄	-7295
驱驰	-7296
驻扎	-7297
骏马	-7298
骑坐	-7299
高冈	-7300
高叫	-7301
高坐	-7302
鹰扬	-7303
麦田	-7304
麾盖	-7305
黑气	-7306
齐备	-7307
齐明	-7308
▁原来	-7309
▁周瑜	-7310
▁当下	-7311
▁曹丕	-7312
▁赵云	-7313
一霎时	-7314
一面令	-7315
三十骑	-7316
三千人	-7317
上流头	-7318
下关来	-7319
下山来	-7320
不敢出	-7321
不绝口	-7322
不能下	-7323
不能救	-7324
不足虑	-7325
与丞相	-7326
与庞德	-7327
与邓艾	-7328
与陈宫	-7329
世所罕	-7330
丞相钧	-7331
严白虎	-7332
为司徒	-7333
为外应	-7334
为平原	-7335
主公且	-7336
乃下马	-7337
乃曹操	-7338
之主也	-7339
之谋也	-7340
二人至	-7341
二子曰	-7342
二百里	-7343
于城上	-7344
于水中	-7345
于渭水	-7346
于酒色	-7347
五十人	-7348
人报曰	-7349
今云长	-7350
今天下	-7351
今天子	-7352
从大路	-7353
从者曰	-7354
令诸侯	-7355
以死报	-7356
作说客	-7357
你二人	-7358
使刘备	-7359
依山傍	-7360
倒在地	-7361
借荆州	-7362
假节钺	-7363
入后园	-7364
入后宫	-7365
入宫中	-7366
全装惯	-7367
公将军	-7368
关内侯	-7369
其人曰	-7370
其锐气	-7371
军大乱	-7372
冬十月	-7373
决胜负	-7374
凤仪亭	-7375
凭三寸	-7376
出奇兵	-7377
出茅庐	-7378
则荆州	-7379
到荆州	-7380
前至一	-7381
前面是	-7382
加九锡	-7383
十一月	-7384
十数人	-7385
南屏山	-7386
即传令	-7387
即遣人	-7388
去劫寨	-7389
又一军	-7390
又不见	-7391
取汉中	-7392
受禅坛	-7393
可速去	-7394
司马孚	-7395
后人有	-7396
吕布乃	-7397
吕布于	-7398
吾已知	-7399
吾有一	-7400
商议欲	-7401
四十九	-7402
回许昌	-7403
国之贼	-7404
在一处	-7405
在后园	-7406
在狱中	-7407
在长安	-7408
夏侯威	-7409
夏侯惠	-7410
夏四月	-7411
天地间	-7412
天子诏	-7413
太尉王	-7414
夹山峪	-7415
奉天子	-7416
子邓忠	-7417
孔明先	-7418
孔明将	-7419
孔明问	-7420
孙仲谋	-7421
孙权在	-7422
实不知	-7423
将军之	-7424
屏风后	-7425
差人赍	-7426
弓箭手	-7427
引兵入	-7428
引兵到	-7429
引兵望	-7430
引军来	-7431
张任曰	-7432
张昭等	-7433
弩齐发	-7434
往汝南	-7435
得一人	-7436
得玄德	-7437
忠臣也	-7438
忽又报	-7439
急令人	-7440
急切难	-7441
急拨马	-7442
急退时	-7443
惟将军	-7444
懿笑曰	-7445
成大功	-7446
我自有	-7447
所知也	-7448
报曹操	-7449
拒曹操	-7450
拜伏于	-7451
挡不住	-7452
挺丈八	-7453
收兵回	-7454
方天戟	-7455
施礼曰	-7456
无人敢	-7457
无言可	-7458
既如此	-7459
早晚必	-7460
星夜往	-7461
星夜至	-7462
是东吴	-7463
普净曰	-7464
曹操已	-7465
有何难	-7466
有机密	-7467
杀此贼	-7468
杀牛宰	-7469
柴桑郡	-7470
正撞着	-7471
正踌躇	-7472
此四人	-7473
此必是	-7474
武城山	-7475
汉丞相	-7476
汉高祖	-7477
汝何敢	-7478
沙摩柯	-7479
沛国谯	-7480
泣拜曰	-7481
活捉了	-7482
烽火台	-7483
然后可	-7484
熟思之	-7485
犒三军	-7486
狄道城	-7487
玄德急	-7488
玄德等	-7489
王之后	-7490
班部中	-7491
瑜大喜	-7492
瓦口关	-7493
生一计	-7494
略唬骸	-7495
皆归于	-7496
皇太后	-7497
皇子协	-7498
盘蛇谷	-7499
睿大惊	-7500
知是计	-7501
破黄巾	-7502
礼相待	-7503
秋八月	-7504
笑而不	-7505
绍大怒	-7506
结东吴	-7507
而杀之	-7508
而答曰	-7509
而骂曰	-7510
船头上	-7511
若魏兵	-7512
苦肉计	-7513
董太师	-7514
血流成	-7515
被赵云	-7516
西平关	-7517
要出战	-7518
见其人	-7519
请关公	-7520
请陛下	-7521
诸葛靓	-7522
贾充曰	-7523
赍金珠	-7524
赵云也	-7525
辞而去	-7526
还东吴	-7527
这条路	-7528
连环计	-7529
遂传令	-7530
遂拔剑	-7531
遣使赍	-7532
郭图曰	-7533
金雁桥	-7534
长坂桥	-7535
长安来	-7536
闻丞相	-7537
阳安关	-7538
陈元龙	-7539
韩遂曰	-7540
饮酒间	-7541
马超曰	-7542
魏延也	-7543
黄忠曰	-7544
(18)	-7545
▁司马懿	-7546
一彪军到	-7547
一簇人马	-7548
一面使人	-7549
一面遣人	-7550
三百余人	-7551
不知其意	-7552
不知其数	-7553
不能得脱	-7554
不能抵当	-7555
与司马懿	-7556
与小主人	-7557
且说曹操	-7558
东吴陆逊	-7559
东大将军	-7560
主何吉凶	-7561
主公勿忧	-7562
乃关兴也	-7563
九泉之下	-7564
于中取事	-7565
于吉立于	-7566
五百余人	-7567
以为久计	-7568
以为何如	-7569
以绝后患	-7570
先生之言	-7571
八路诸侯	-7572
关公大怒	-7573
关公父子	-7574
兵精粮足	-7575
军师何故	-7576
分兵一半	-7577
前后夹攻	-7578
前部先锋	-7579
半晌方苏	-7580
又唤魏延	-7581
只宜坚守	-7582
只见前面	-7583
只见孔明	-7584
只见魏兵	-7585
后主从之	-7586
吾死之后	-7587
哭拜于地	-7588
商议已定	-7589
喏喏连声	-7590
四下无路	-7591
回头看时	-7592
回见吴侯	-7593
回见孔明	-7594
回见曹操	-7595
夏侯霸曰	-7596
大事济矣	-7597
大小将士	-7598
太尉杨彪	-7599
夺路走脱	-7600
如此无礼	-7601
威震天下	-7602
威风凛凛	-7603
孔明之言	-7604
孙夫人曰	-7605
屏退左右	-7606
并无一人	-7607
应声而出	-7608
废长立幼	-7609
弃寨而走	-7610
引三千军	-7611
引兵接应	-7612
引军前进	-7613
引本部兵	-7614
引本部军	-7615
当先出马	-7616
当复如何	-7617
当如之何	-7618
待之甚厚	-7619
徐徐而退	-7620
心中忧闷	-7621
所佩之剑	-7622
托病不出	-7623
抖擞精神	-7624
护送车仗	-7625
拆开视之	-7626
拜谢而去	-7627
排成阵势	-7628
探听虚实	-7629
操从其言	-7630
操然其言	-7631
放汝回去	-7632
放火为号	-7633
暗暗称奇	-7634
未可轻敌	-7635
未知孔明	-7636
本部军马	-7637
树木丛杂	-7638
正说之间	-7639
比及天明	-7640
汉中王曰	-7641
满面羞惭	-7642
狂风骤起	-7643
皆封列侯	-7644
等候多时	-7645
纵横天下	-7646
细作报知	-7647
缓缓而行	-7648
背后魏兵	-7649
舌辩之士	-7650
荆州之事	-7651
虚张声势	-7652
计将安出	-7653
说知此事	-7654
诸葛武侯	-7655
输了一阵	-7656
这个消息	-7657
重加赏赐	-7658
金城太守	-7659
长江之险	-7660
长沙太守	-7661
门旗开处	-7662
附耳低言	-7663
雍州刺史	-7664
面如重枣	-7665
馆驿安歇	-7666
骂不绝口	-7667
魏延引兵	-7668
▁且说曹操	-7669
▁却说钟会	-7670
一辆四轮车	-7671
不得已而降	-7672
两路兵杀来	-7673
为掎角之势	-7674
为骠骑将军	-7675
以利害说之	-7676
以言挑之曰	-7677
回顾众将曰	-7678
回顾左右曰	-7679
得铁桶相似	-7680
忽近臣奏曰	-7681
先帝托孤之重	-7682
忽然狂风大作	-7683
抱头鼠窜而去	-7684
早有细作报知	-7685
是夜二更时分	-7686
!’	-7687
?1	-7688
▁懿	-7689
▁至	-7690
。《	-7691
一也	-7692
一体	-7693
一剑	-7694
一发	-7695
一城	-7696
一尺	-7697
一往	-7698
一指	-7699
一旅	-7700
一梦	-7701
一番	-7702
一通	-7703
一门	-7704
丁廙	-7705
万全	-7706
万幸	-7707
万政	-7708
三月	-7709
三结	-7710
上一	-7711
上岭	-7712
上疏	-7713
上箭	-7714
上雨	-7715
下单	-7716
下城	-7717
下堂	-7718
下曰	-7719
下阶	-7720
不习	-7721
不似	-7722
不共	-7723
不喜	-7724
不小	-7725
不干	-7726
不往	-7727
不愧	-7728
不早	-7729
不理	-7730
不甚	-7731
不着	-7732
不继	-7733
不臣	-7734
不轻	-7735
与孤	-7736
与彼	-7737
专望	-7738
且住	-7739
且曰	-7740
且权	-7741
世居	-7742
丘建	-7743
丛中	-7744
东征	-7745
东海	-7746
东风	-7747
两翼	-7748
严寒	-7749
丧事	-7750
中兴	-7751
中途	-7752
中道	-7753
临敌	-7754
临江	-7755
为义	-7756
为公	-7757
为备	-7758
为媒	-7759
为害	-7760
为家	-7761
为本	-7762
为第	-7763
为肉	-7764
举止	-7765
乃复	-7766
乃天	-7767
乃暗	-7768
乃至	-7769
久守	-7770
义士	-7771
义气	-7772
义状	-7773
之东	-7774
之也	-7775
之乱	-7776
之位	-7777
之使	-7778
之叔	-7779
之多	-7780
之寨	-7781
之母	-7782
之灵	-7783
之福	-7784
之耳	-7785
之表	-7786
之败	-7787
之难	-7788
乔瑁	-7789
九岁	-7790
九州	-7791
九族	-7792
买马	-7793
乱石	-7794
乱箭	-7795
争衡	-7796
事可	-7797
事在	-7798
事定	-7799
事必	-7800
事成	-7801
事泄	-7802
事者	-7803
二也	-7804
二回	-7805
二国	-7806
二字	-7807
于天	-7808
于理	-7809
于魏	-7810
云雾	-7811
五关	-7812
五回	-7813
五子	-7814
井中	-7815
些少	-7816
亦为	-7817
亦皆	-7818
享祭	-7819
亮自	-7820
亲信	-7821
人事	-7822
人尽	-7823
人曰	-7824
人望	-7825
人生	-7826
今却	-7827
今弃	-7828
今愿	-7829
今早	-7830
今王	-7831
今遇	-7832
介意	-7833
从容	-7834
仓亭	-7835
代汉	-7836
令将	-7837
令明	-7838
以书	-7839
以公	-7840
以养	-7841
以当	-7842
以慰	-7843
以献	-7844
以继	-7845
以资	-7846
以达	-7847
以通	-7848
伏惟	-7849
休动	-7850
休去	-7851
休听	-7852
众议	-7853
伤其	-7854
伯道	-7855
但今	-7856
但以	-7857
何其	-7858
何劳	-7859
何及	-7860
何反	-7861
何后	-7862
何所	-7863
何曾	-7864
何烧	-7865
何罪	-7866
何虑	-7867
何迟	-7868
余军	-7869
作乐	-7870
作色	-7871
你我	-7872
佯输	-7873
侯河	-7874
便倒	-7875
俊杰	-7876
俊焙	-7877
保之	-7878
保奏	-7879
倍加	-7880
偃城	-7881
偃旗	-7882
偃月	-7883
傲慢	-7884
儿愿	-7885
元宵	-7886
先入	-7887
先至	-7888
光芒	-7889
克复	-7890
兜鍪	-7891
入山	-7892
入怀	-7893
入拜	-7894
入来	-7895
入营	-7896
入阵	-7897
全然	-7898
八字	-7899
八方	-7900
公与	-7901
公台	-7902
公见	-7903
六甲	-7904
共攻	-7905
共诛	-7906
关东	-7907
兵无	-7908
兵贵	-7909
其上	-7910
其军	-7911
其前	-7912
其名	-7913
其女	-7914
其害	-7915
其忠	-7916
其能	-7917
具道	-7918
典曰	-7919
养老	-7920
内变	-7921
再休	-7922
再出	-7923
再整	-7924
冒渎	-7925
写着	-7926
军无	-7927
军至	-7928
军退	-7929
几日	-7930
出了	-7931
出哨	-7932
出外	-7933
出身	-7934
出门	-7935
刀枪	-7936
分开	-7937
分散	-7938
刘巴	-7939
刘度	-7940
则吾	-7941
利刀	-7942
别事	-7943
别图	-7944
制之	-7945
割地	-7946
割麦	-7947
力乏	-7948
力劝	-7949
力尽	-7950
力穷	-7951
功盖	-7952
功绩	-7953
功臣	-7954
加之	-7955
动摇	-7956
动止	-7957
劫去	-7958
勿使	-7959
北斗	-7960
区区	-7961
区处	-7962
十六	-7963
午谷	-7964
协力	-7965
卓膺	-7966
卖主	-7967
南北	-7968
南山	-7969
南皮	-7970
南面	-7971
南顿	-7972
占据	-7973
卧内	-7974
即与	-7975
即赐	-7976
却之	-7977
却只	-7978
却在	-7979
却待	-7980
却见	-7981
却都	-7982
卿可	-7983
历数	-7984
厚待	-7985
厚赏	-7986
原是	-7987
去向	-7988
去寻	-7989
去投	-7990
县尉	-7991
又去	-7992
又报	-7993
又表	-7994
又走	-7995
又鸣	-7996
叉手	-7997
及也	-7998
双全	-7999
反叛	-8000
取乐	-8001
取汝	-8002
取蜀	-8003
取酒	-8004
受惊	-8005
受缚	-8006
受苦	-8007
只好	-8008
只怕	-8009
只船	-8010
召之	-8011
可与	-8012
可即	-8013
可命	-8014
可复	-8015
可差	-8016
可成	-8017
可灭	-8018
可谓	-8019
可问	-8020
号泣	-8021
司农	-8022
合当	-8023
同入	-8024
同力	-8025
同回	-8026
同年	-8027
名爵	-8028
后土	-8029
后堂	-8030
后心	-8031
启奏	-8032
吴国	-8033
吴硕	-8034
吾于	-8035
吾前	-8036
吾师	-8037
吾想	-8038
吾方	-8039
吾既	-8040
吾爱	-8041
告以	-8042
告我	-8043
告退	-8044
周旨	-8045
和你	-8046
哀告	-8047
哭泣	-8048
唯唯	-8049
啼哭	-8050
嗟怨	-8051
四千	-8052
四字	-8053
回告	-8054
回府	-8055
回救	-8056
回音	-8057
因指	-8058
因而	-8059
因谓	-8060
围困	-8061
国书	-8062
国寺	-8063
国王	-8064
国难	-8065
土坑	-8066
土崩	-8067
土色	-8068
圣朝	-8069
圣驾	-8070
在位	-8071
在吾	-8072
在意	-8073
地上	-8074
地利	-8075
地名	-8076
地方	-8077
坐守	-8078
坐视	-8079
坑之	-8080
坡前	-8081
城北	-8082
城垣	-8083
填塞	-8084
处世	-8085
备当	-8086
备述	-8087
复仇	-8088
复何	-8089
外应	-8090
外甥	-8091
多半	-8092
多带	-8093
夜则	-8094
夜行	-8095
大势	-8096
大国	-8097
大恸	-8098
大振	-8099
大溃	-8100
大耳	-8101
大难	-8102
天有	-8103
天赐	-8104
太祖	-8105
夫耳	-8106
奇才	-8107
女儿	-8108
好学	-8109
好结	-8110
好马	-8111
如今	-8112
如是	-8113
妻女	-8114
委用	-8115
威权	-8116
威镇	-8117
嫉妒	-8118
子也	-8119
子伯	-8120
子侄	-8121
子兰	-8122
子牙	-8123
字样	-8124
字正	-8125
孙休	-8126
孙郎	-8127
孟坦	-8128
孟节	-8129
孤城	-8130
孤穷	-8131
孩儿	-8132
安国	-8133
安心	-8134
宓曰	-8135
宗预	-8136
定要	-8137
客商	-8138
容我	-8139
宽恕	-8140
宿于	-8141
宿卫	-8142
寨子	-8143
寸功	-8144
对坐	-8145
对证	-8146
寻问	-8147
封爵	-8148
射猎	-8149
射箭	-8150
尊父	-8151
小侄	-8152
小子	-8153
小径	-8154
小臣	-8155
就坐	-8156
就彼	-8157
就里	-8158
尽发	-8159
尽杀	-8160
居丧	-8161
居住	-8162
居右	-8163
居左	-8164
屈膝	-8165
山河	-8166
岂非	-8167
岑昏	-8168
州平	-8169
巢穴	-8170
已属	-8171
已平	-8172
已退	-8173
巴蜀	-8174
布于	-8175
布列	-8176
布袋	-8177
师婆	-8178
帐后	-8179
帝乃	-8180
带着	-8181
带领	-8182
常曰	-8183
常言	-8184
平坦	-8185
平复	-8186
并辔	-8187
幼常	-8188
广宗	-8189
庆功	-8190
异人	-8191
异常	-8192
异度	-8193
弃却	-8194
弈棋	-8195
引二	-8196
引进	-8197
张仪	-8198
张冀	-8199
张良	-8200
强盛	-8201
强要	-8202
归府	-8203
当往	-8204
当晚	-8205
彼将	-8206
往前	-8207
征南	-8208
待来	-8209
得免	-8210
御敌	-8211
心怯	-8212
必获	-8213
忘之	-8214
忘却	-8215
忘恩	-8216
忠孝	-8217
忠言	-8218
忧也	-8219
忧矣	-8220
急出	-8221
急矣	-8222
性刚	-8223
性起	-8224
怨望	-8225
怪异	-8226
恐是	-8227
恨者	-8228
恩义	-8229
恩于	-8230
恩命	-8231
息鼓	-8232
患病	-8233
惊惶	-8234
惊问	-8235
惜哉	-8236
惧也	-8237
惭愧	-8238
愁云	-8239
愿乞	-8240
愿将	-8241
愿得	-8242
愿随	-8243
慌令	-8244
慎之	-8245
戈定	-8246
成何	-8247
我心	-8248
我是	-8249
或用	-8250
战败	-8251
截出	-8252
房屋	-8253
所乘	-8254
所守	-8255
所能	-8256
所赐	-8257
扎营	-8258
打城	-8259
托名	-8260
扶柩	-8261
抗曰	-8262
折伤	-8263
抚民	-8264
抛戈	-8265
护车	-8266
报到	-8267
报称	-8268
披甲	-8269
抵赖	-8270
拍手	-8271
拍案	-8272
拒守	-8273
拔出	-8274
拔刀	-8275
拘执	-8276
招呼	-8277
拜迎	-8278
拥入	-8279
挂印	-8280
按辔	-8281
捉了	-8282
捉得	-8283
捶胸	-8284
授以	-8285
掌中	-8286
排开	-8287
探看	-8288
接住	-8289
接得	-8290
接济	-8291
推下	-8292
推倒	-8293
推病	-8294
掩心	-8295
提头	-8296
援兵	-8297
摇动	-8298
擂木	-8299
操先	-8300
操因	-8301
操封	-8302
操方	-8303
操知	-8304
操练	-8305
操谓	-8306
擒下	-8307
支吾	-8308
收得	-8309
故先	-8310
敌楼	-8311
救得	-8312
救灭	-8313
教人	-8314
教场	-8315
教诲	-8316
散关	-8317
散骑	-8318
数年	-8319
数枪	-8320
数骑	-8321
整点	-8322
整齐	-8323
文凭	-8324
文台	-8325
文帝	-8326
斟酌	-8327
断绝	-8328
新书	-8329
方悟	-8330
方敢	-8331
方止	-8332
方醒	-8333
无信	-8334
无功	-8335
无德	-8336
无措	-8337
无水	-8338
无限	-8339
既以	-8340
既杀	-8341
日中	-8342
日已	-8343
日磾	-8344
旧交	-8345
时为	-8346
时人	-8347
时务	-8348
时当	-8349
时辰	-8350
时魏	-8351
旺气	-8352
明也	-8353
明帝	-8354
是时	-8355
晔曰	-8356
景帝	-8357
景耀	-8358
暗号	-8359
曹昂	-8360
最为	-8361
有三	-8362
有仇	-8363
有名	-8364
有法	-8365
有罪	-8366
有诏	-8367
有违	-8368
朋友	-8369
服之	-8370
朕躬	-8371
朕闻	-8372
朝夕	-8373
朝贺	-8374
木石	-8375
木筏	-8376
未为	-8377
未了	-8378
本是	-8379
本营	-8380
杀戮	-8381
杀过	-8382
来探	-8383
来时	-8384
来求	-8385
来的	-8386
来路	-8387
杨秋	-8388
杨龄	-8389
极善	-8390
极广	-8391
枭首	-8392
某已	-8393
栋梁	-8394
梁绪	-8395
梁虔	-8396
梆子	-8397
梓潼	-8398
楙曰	-8399
樊口	-8400
次曰	-8401
欲出	-8402
欲反	-8403
欲寻	-8404
欲归	-8405
欺吾	-8406
止留	-8407
正北	-8408
正坐	-8409
正应	-8410
正西	-8411
此一	-8412
此为	-8413
此亦	-8414
此日	-8415
此法	-8416
此祸	-8417
此谋	-8418
此道	-8419
此难	-8420
步卒	-8421
死罪	-8422
殄灭	-8423
残兵	-8424
段谷	-8425
殿宇	-8426
每夜	-8427
民兵	-8428
水口	-8429
汉军	-8430
汉城	-8431
汉末	-8432
汉祀	-8433
汉禄	-8434
汉贼	-8435
汉阳	-8436
汝将	-8437
汝必	-8438
汝能	-8439
池中	-8440
沂都	-8441
沔阳	-8442
沙口	-8443
沙土	-8444
沙漠	-8445
河南	-8446
河西	-8447
治之	-8448
治罪	-8449
沿途	-8450
波涛	-8451
泪流	-8452
洒泪	-8453
洞兵	-8454
流芳	-8455
浩大	-8456
浩浩	-8457
涕泣	-8458
涪水	-8459
深为	-8460
渐近	-8461
温曰	-8462
渭北	-8463
湖口	-8464
滚滚	-8465
漏泄	-8466
潜地	-8467
灌之	-8468
火急	-8469
火船	-8470
灯烛	-8471
烈火	-8472
烟火	-8473
烟起	-8474
焉能	-8475
熟娴	-8476
牵弘	-8477
特请	-8478
犒军	-8479
犹自	-8480
独战	-8481
独有	-8482
独生	-8483
独自	-8484
猛省	-8485
猛虎	-8486
献功	-8487
献门	-8488
玄武	-8489
玉龙	-8490
王业	-8491
王化	-8492
王命	-8493
环绕	-8494
珪曰	-8495
瑜令	-8496
甚于	-8497
甚当	-8498
甚紧	-8499
生门	-8500
用手	-8501
田续	-8502
男子	-8503
畅饮	-8504
畏惧	-8505
留此	-8506
略无	-8507
疑有	-8508
病体	-8509
病势	-8510
痊可	-8511
痛饮	-8512
白发	-8513
白河	-8514
皂旗	-8515
皂绦	-8516
皆因	-8517
皆平	-8518
皆得	-8519
皆曰	-8520
皆降	-8521
皮肉	-8522
监下	-8523
监督	-8524
监禁	-8525
盖因	-8526
盗贼	-8527
相传	-8528
相同	-8529
相对	-8530
相应	-8531
相探	-8532
相攻	-8533
相问	-8534
睁目	-8535
督军	-8536
瞒我	-8537
知操	-8538
知觉	-8539
石壁	-8540
砍倒	-8541
砍去	-8542
破城	-8543
破绽	-8544
示众	-8545
礼贤	-8546
祖父	-8547
祜曰	-8548
祝曰	-8549
神亭	-8550
神思	-8551
神速	-8552
祸福	-8553
禀曰	-8554
秀曰	-8555
秉烛	-8556
种辑	-8557
秦良	-8558
称为	-8559
移兵	-8560
移时	-8561
移营	-8562
穿了	-8563
立一	-8564
竖儒	-8565
童谣	-8566
笑之	-8567
笮融	-8568
等他	-8569
等守	-8570
等曰	-8571
策怒	-8572
筵会	-8573
筵宴	-8574
粮广	-8575
紫虚	-8576
紫髯	-8577
累及	-8578
约期	-8579
纵火	-8580
细奏	-8581
终非	-8582
绍汉	-8583
结束	-8584
给与	-8585
维令	-8586
绿袍	-8587
缘故	-8588
罾口	-8589
美玉	-8590
群贼	-8591
翟元	-8592
老臣	-8593
者曰	-8594
而废	-8595
而得	-8596
而操	-8597
而自	-8598
耳目	-8599
耿武	-8600
聚会	-8601
肝胆	-8602
股肱	-8603
脱去	-8604
臣之	-8605
臣死	-8606
自为	-8607
自在	-8608
自料	-8609
自缢	-8610
自行	-8611
自解	-8612
自送	-8613
至第	-8614
船出	-8615
良贱	-8616
良辰	-8617
苏秦	-8618
苗裔	-8619
若无	-8620
若来	-8621
若用	-8622
英杰	-8623
茅草	-8624
荆棘	-8625
草堆	-8626
草木	-8627
莫大	-8628
萧怀	-8629
落后	-8630
落荒	-8631
蒋奇	-8632
虎威	-8633
虎贲	-8634
虚传	-8635
蛮洞	-8636
蝉曰	-8637
行兵	-8638
行刺	-8639
行动	-8640
街市	-8641
衣中	-8642
衣襟	-8643
衣食	-8644
表章	-8645
袍带	-8646
袍铠	-8647
被他	-8648
被伤	-8649
被困	-8650
袭我	-8651
要斩	-8652
要见	-8653
见卓	-8654
见有	-8655
言于	-8656
计会	-8657
计点	-8658
议欲	-8659
许贡	-8660
识破	-8661
诈谋	-8662
诏书	-8663
诚实	-8664
说了	-8665
说词	-8666
说话	-8667
请公	-8668
请帝	-8669
调理	-8670
谢别	-8671
谦曰	-8672
豫章	-8673
费力	-8674
贼党	-8675
贾范	-8676
赐与	-8677
赤儿	-8678
走回	-8679
走时	-8680
走至	-8681
赵咨	-8682
赵忠	-8683
赶出	-8684
赶杀	-8685
起一	-8686
起军	-8687
路口	-8688
路途	-8689
踊跃	-8690
蹋顿	-8691
身先	-8692
身带	-8693
身无	-8694
身虽	-8695
身被	-8696
身边	-8697
车辆	-8698
转运	-8699
辄入	-8700
辈僭	-8701
过此	-8702
运筹	-8703
还我	-8704
进酒	-8705
连和	-8706
连弩	-8707
连络	-8708
追寻	-8709
退矣	-8710
逆不	-8711
逆天	-8712
逍遥	-8713
逐出	-8714
途中	-8715
通报	-8716
速战	-8717
逼近	-8718
遂加	-8719
遂点	-8720
遂罢	-8721
遂请	-8722
遂起	-8723
遍竖	-8724
遍行	-8725
遍视	-8726
道傍	-8727
道士	-8728
遗表	-8729
遗言	-8730
遗诏	-8731
遣一	-8732
遮道	-8733
避席	-8734
避祸	-8735
邢贞	-8736
邵悌	-8737
郡人	-8738
部兵	-8739
鄢陵	-8740
鄱阳	-8741
重事	-8742
重叠	-8743
量汝	-8744
金玉	-8745
金锁	-8746
钢刀	-8747
锦衣	-8748
长久	-8749
长二	-8750
长揖	-8751
问他	-8752
问候	-8753
闻公	-8754
阁下	-8755
阴阳	-8756
阵亡	-8757
阵否	-8758
阵脚	-8759
阵角	-8760
阻住	-8761
陈兵	-8762
陈纪	-8763
降了	-8764
陵迟	-8765
陷坑	-8766
随将	-8767
隐匿	-8768
雄壮	-8769
雍曰	-8770
零落	-8771
震曰	-8772
霸王	-8773
霹雳	-8774
非公	-8775
非可	-8776
非比	-8777
靳祥	-8778
韩信	-8779
韩瑶	-8780
音耗	-8781
项事	-8782
颇知	-8783
风雨	-8784
飘然	-8785
飞来	-8786
飞棹	-8787
饮了	-8788
马头	-8789
马邈	-8790
驰骋	-8791
驾幸	-8792
骆谷	-8793
骠骑	-8794
高下	-8795
高平	-8796
鲈鱼	-8797
鲍隆	-8798
鲜血	-8799
鸣鼓	-8800
麒麟	-8801
黄劭	-8802
黄龙	-8803
鼓罢	-8804
齑粉	-8805
龙舟	-8806
龙驹	-8807
▁张飞	-8808
▁时值	-8809
▁是年	-8810
▁是日	-8811
▁第七	-8812
▁第十	-8813
▁鲁肃	-8814
▁黄忠	-8815
一刀斩	-8816
一干人	-8817
一把火	-8818
一时之	-8819
一条路	-8820
一百人	-8821
七百里	-8822
万余人	-8823
三江口	-8824
三江城	-8825
三百人	-8826
上山来	-8827
下令曰	-8828
下营寨	-8829
不义也	-8830
不及也	-8831
不可复	-8832
不可行	-8833
不如也	-8834
不如意	-8835
不数日	-8836
不能保	-8837
不能报	-8838
不能答	-8839
不足与	-8840
不足以	-8841
与主公	-8842
与众官	-8843
与刘璋	-8844
与张郃	-8845
与张飞	-8846
与曹军	-8847
与法正	-8848
与蜀兵	-8849
与赵云	-8850
与都督	-8851
丕大喜	-8852
丞相大	-8853
丞相有	-8854
丞相欲	-8855
严颜曰	-8856
中取出	-8857
中大夫	-8858
临淄侯	-8859
为上将	-8860
为从事	-8861
为侍中	-8862
为前驱	-8863
为参谋	-8864
为天子	-8865
为太尉	-8866
为魏王	-8867
举孝廉	-8868
之兵也	-8869
之名将	-8870
之基业	-8871
之患也	-8872
乐嘉城	-8873
乘小车	-8874
乞陛下	-8875
书院中	-8876
事不决	-8877
事不密	-8878
事不成	-8879
二人曰	-8880
二十日	-8881
二百余	-8882
于军中	-8883
于山僻	-8884
于曹操	-8885
于此处	-8886
于襄阳	-8887
于车上	-8888
于邺郡	-8889
于阵前	-8890
些人马	-8891
亦骂曰	-8892
享富贵	-8893
今何故	-8894
今大王	-8895
今都督	-8896
今陛下	-8897
他人所	-8898
令云长	-8899
令人送	-8900
令赵云	-8901
令黄忠	-8902
以上宾	-8903
以丞相	-8904
以安民	-8905
以酒食	-8906
传号令	-8907
传国玺	-8908
何以知	-8909
何烧戈	-8910
作一书	-8911
你两个	-8912
你两家	-8913
使人请	-8914
使人送	-8915
倘魏兵	-8916
兄弟也	-8917
先遣人	-8918
免其死	-8919
入城见	-8920
入府中	-8921
公大怒	-8922
兴汉室	-8923
兵大乱	-8924
兵来取	-8925
其不从	-8926
其不备	-8927
其中有	-8928
其必出	-8929
其文曰	-8930
其首级	-8931
军马于	-8932
出怨言	-8933
出西门	-8934
出迎之	-8935
出马于	-8936
刀在手	-8937
分一半	-8938
刘备也	-8939
刘表曰	-8940
到大寨	-8941
到帐下	-8942
到汉中	-8943
勿多言	-8944
十七回	-8945
十三回	-8946
十二月	-8947
十余次	-8948
十四回	-8949
又不知	-8950
又有一	-8951
取徐州	-8952
只道是	-8953
可使人	-8954
可分兵	-8955
可得也	-8956
可胜也	-8957
司马公	-8958
吴主皓	-8959
吴懿曰	-8960
吾亦欲	-8961
吾夜梦	-8962
吾当先	-8963
吾来日	-8964
吾若不	-8965
吾随后	-8966
员大将	-8967
唤左右	-8968
唤诸将	-8969
四路兵	-8970
回徐州	-8971
在军中	-8972
在城外	-8973
在船上	-8974
在船中	-8975
在营中	-8976
在西方	-8977
在许昌	-8978
在许都	-8979
坚守勿	-8980
夏侯和	-8981
大军至	-8982
大司马	-8983
天下之	-8984
天降大	-8985
太子孙	-8986
夫人去	-8987
头一个	-8988
奋然曰	-8989
如不胜	-8990
如草芥	-8991
子午谷	-8992
孔明以	-8993
孔明回	-8994
孔明真	-8995
孙权令	-8996
寻不见	-8997
将军与	-8998
将军也	-8999
将在外	-9000
屯小沛	-9001
山小路	-9002
岂不可	-9003
左右将	-9004
平生所	-9005
廖化曰	-9006
引一队	-9007
引二万	-9008
引军至	-9009
引精兵	-9010
引轻骑	-9011
张翼也	-9012
张翼曰	-9013
张辽也	-9014
张郃守	-9015
当世之	-9016
往徐州	-9017
往江东	-9018
忽一日	-9019
忽探马	-9020
忽见一	-9021
急勒马	-9022
慰平生	-9023
战吕布	-9024
手执长	-9025
扶社稷	-9026
投袁绍	-9027
拜伏曰	-9028
挟天子	-9029
掌大权	-9030
掘地道	-9031
探听得	-9032
提大兵	-9033
操使人	-9034
操叹曰	-9035
操然之	-9036
操闻言	-9037
擒刘备	-9038
救兵到	-9039
散流言	-9040
斩来使	-9041
斩颜良	-9042
无可为	-9043
无路可	-9044
时建安	-9045
星夜投	-9046
曹将军	-9047
曹操亦	-9048
有一泉	-9049
有多少	-9050
望陛下	-9051
本部军	-9052
李儒曰	-9053
杜工部	-9054
来使曰	-9055
来助战	-9056
来此何	-9057
杨仪曰	-9058
杨大将	-9059
校刀手	-9060
欲令我	-9061
欲报仇	-9062
欲自刎	-9063
止有一	-9064
正慌急	-9065
正话间	-9066
此吾之	-9067
武将军	-9068
武扬威	-9069
母至孝	-9070
汝何人	-9071
汝有何	-9072
江面上	-9073
沮授曰	-9074
濡须口	-9075
玄德公	-9076
玄德教	-9077
玄德正	-9078
琅琊王	-9079
甘露寺	-9080
生异心	-9081
百余日	-9082
直杀入	-9083
相见毕	-9084
看书毕	-9085
睿大喜	-9086
破蜀兵	-9087
礼待之	-9088
离洛阳	-9089
程普曰	-9090
程远志	-9091
索荆州	-9092
练水军	-9093
统大兵	-9094
者无数	-9095
而击之	-9096
而无谋	-9097
而谢曰	-9098
聚众官	-9099
自号为	-9100
自己却	-9101
自退矣	-9102
至面前	-9103
若云长	-9104
蒙丞相	-9105
蒯良曰	-9106
虎牢关	-9107
蜀兵又	-9108
蜀兵尽	-9109
袭荆州	-9110
西凉州	-9111
西南上	-9112
见吕布	-9113
见马超	-9114
解其缚	-9115
言未绝	-9116
诈降书	-9117
诗一首	-9118
请丞相	-9119
请天子	-9120
请夫人	-9121
谁敢去	-9122
谓操曰	-9123
豫州牧	-9124
贤弟可	-9125
费祎曰	-9126
赵云等	-9127
辕门射	-9128
这条计	-9129
远将军	-9130
连夜投	-9131
透重围	-9132
通姓名	-9133
遂不复	-9134
遣使至	-9135
那少年	-9136
那里肯	-9137
郭夫人	-9138
钟会曰	-9139
镇国寺	-9140
陆伯言	-9141
陛下也	-9142
隐隐有	-9143
青囊书	-9144
非汝等	-9145
顿足曰	-9146
领大军	-9147
马孟起	-9148
马岱曰	-9149
马步兵	-9150
魏都督	-9151
黄汉升	-9152
▁第七十	-9153
▁第九十	-9154
▁第六十	-9155
一刀斩之	-9156
一旅之师	-9157
一队军马	-9158
一面令人	-9159
三十余万	-9160
三十余年	-9161
三路夹攻	-9162
上雨下单	-9163
下马受降	-9164
不可不防	-9165
不可不除	-9166
不可失也	-9167
不可造次	-9168
不如坚守	-9169
不就此时	-9170
不得已也	-9171
不必多言	-9172
不敢恋战	-9173
不敢正视	-9174
不烂之舌	-9175
不省人事	-9176
不肯发兵	-9177
不能取胜	-9178
与众商议	-9179
世所罕有	-9180
丞相临终	-9181
中诸葛亮	-9182
举止失措	-9183
乃为上策	-9184
乃是魏延	-9185
义释严颜	-9186
之意若何	-9187
乘势追赶	-9188
乱箭射死	-9189
事定之后	-9190
二十余万	-9191
二十四人	-9192
于军不利	-9193
亲冒矢石	-9194
亲统大军	-9195
今司马懿	-9196
今在何处	-9197
以报陛下	-9198
以谢天下	-9199
以鞭指曰	-9200
伏兵四起	-9201
伏兵齐出	-9202
众官告免	-9203
众皆大惊	-9204
众皆失色	-9205
众视其人	-9206
众谋士曰	-9207
优礼相待	-9208
传下号令	-9209
伤感不已	-9210
低头不语	-9211
何足为奇	-9212
俄何烧戈	-9213
偃旗息鼓	-9214
先引一军	-9215
光禄大夫	-9216
入帐告曰	-9217
入见后主	-9218
全装惯带	-9219
六出祁山	-9220
兵临城下	-9221
兵分三路	-9222
兵败将亡	-9223
兵贵神速	-9224
具言其事	-9225
具言前事	-9226
再三推辞	-9227
军器粮草	-9228
出帐上马	-9229
分兵五路	-9230
分拨已毕	-9231
初更时分	-9232
别无他意	-9233
努力向前	-9234
匡扶汉室	-9235
升帐而坐	-9236
反贼休走	-9237
受计而去	-9238
只待蜀兵	-9239
只得下马	-9240
只见张飞	-9241
司马师曰	-9242
司马懿见	-9243
各为其主	-9244
各处隘口	-9245
各自收兵	-9246
君命有所	-9247
吴主孙权	-9248
吴兵大败	-9249
吾有一计	-9250
咬牙切齿	-9251
哭声不绝	-9252
唾手可得	-9253
喊声大举	-9254
四五十合	-9255
四更时分	-9256
四面围合	-9257
回到本寨	-9258
回见周瑜	-9259
回见玄德	-9260
坚辞不受	-9261
夜观天象	-9262
大会文武	-9263
大会诸将	-9264
大惊失色	-9265
大汉皇叔	-9266
大江之中	-9267
大败而回	-9268
大驱士马	-9269
天下之事	-9270
天色已晚	-9271
太守张杨	-9272
如其不然	-9273
姜维引兵	-9274
孔明从之	-9275
孔明问曰	-9276
将军之言	-9277
屯兵城外	-9278
屯粮之所	-9279
山路而走	-9280
布告天下	-9281
布大怒曰	-9282
平地水深	-9283
应弦落马	-9284
开了城门	-9285
弓弦响处	-9286
弓弩齐发	-9287
弓马熟娴	-9288
引兵五千	-9289
引兵前进	-9290
引兵来迎	-9291
引数十人	-9292
引百余骑	-9293
张鲁大喜	-9294
当用何策	-9295
御史大夫	-9296
心神恍惚	-9297
必有准备	-9298
必有埋伏	-9299
忽报曹操	-9300
忽然一阵	-9301
总督军马	-9302
悔之不及	-9303
悔之无及	-9304
惊问其故	-9305
折了许多	-9306
折其大半	-9307
报入洛阳	-9308
报知孔明	-9309
报知玄德	-9310
拍马挺枪	-9311
拍马来迎	-9312
招贤纳士	-9313
拽起吊桥	-9314
挥刀纵马	-9315
挺枪直取	-9316
损兵折将	-9317
提青龙刀	-9318
擂木炮石	-9319
擂鼓呐喊	-9320
攻打不下	-9321
方今天下	-9322
无不下泪	-9323
无不惊骇	-9324
无不骇然	-9325
早有探马	-9326
昭烈皇帝	-9327
曹兵大败	-9328
曹操大喜	-9329
有人报知	-9330
有机密事	-9331
有诗叹曰	-9332
未知玄德	-9333
杀条血路	-9334
杀至天明	-9335
来此何干	-9336
来者何人	-9337
来见孙权	-9338
欺君罔上	-9339
正在帐中	-9340
正奔走间	-9341
正踌躇间	-9342
此何人也	-9343
死于此地	-9344
水军都督	-9345
江东孙权	-9346
深入重地	-9347
漫山遍野	-9348
潸然泪下	-9349
火把齐明	-9350
父亲何故	-9351
献于麾下	-9352
玄德再三	-9353
玄德叱曰	-9354
玄德叹曰	-9355
玄德拜谢	-9356
玄德方才	-9357
玄德称谢	-9358
玄德背后	-9359
玄德闻之	-9360
甘当军令	-9361
生擒过去	-9362
申奏朝廷	-9363
疑惑不定	-9364
登高望之	-9365
益州刘璋	-9366
监军卫瓘	-9367
破曹之后	-9368
祁山寨中	-9369
细作回报	-9370
臣有一计	-9371
自刎而死	-9372
荆州已被	-9373
荆州有失	-9374
荆襄九郡	-9375
蛮兵大败	-9376
蜀兵势大	-9377
行坐不安	-9378
西凉太守	-9379
计会已定	-9380
设宴庆贺	-9381
谏议大夫	-9382
谓云长曰	-9383
赐酒压惊	-9384
起兵十万	-9385
越吉元帅	-9386
身披鹤氅	-9387
身长九尺	-9388
转过山坡	-9389
迁延日久	-9390
过了数日	-9391
进退不得	-9392
进退无路	-9393
追之不及	-9394
遣使赍诏	-9395
金环三结	-9396
镇西将军	-9397
长叹一声	-9398
门旗之下	-9399
问其来意	-9400
闻之大怒	-9401
阶下一人	-9402
陆续进发	-9403
面如土色	-9404
领兵五万	-9405
饶汝性命	-9406
首尾不能	-9407
魂不附体	-9408
魏主曹髦	-9409
魏王曹丕	-9410
鼎足之势	-9411
▁却说先主	-9412
▁却说张郃	-9413
▁却说曹真	-9414
▁却说鲁肃	-9415
▁却说黄忠	-9416
▁第一百十	-9417
一彪军拦住	-9418
一彪军杀来	-9419
为荆州之主	-9420
分宾主而坐	-9421
厉声大叫曰	-9422
各引五千兵	-9423
孔明端坐于	-9424
并不见一人	-9425
施犬马之劳	-9426
时建安二十	-9427
虽肝脑涂地	-9428
行不到十里	-9429
行不到数里	-9430
驱木牛流马	-9431
一刀砍于马下	-9432
与众谋士商议	-9433
受计引兵而去	-9434
君命有所不受	-9435
听得这个消息	-9436
未知其计如何	-9437
死者不计其数	-9438
玄德问孔明曰	-9439
王子服等四人	-9440
追杀二十余里	-9441
凭三寸不烂之舌	-9442
后人有诗叹之曰	-9443
后人有诗赞之曰	-9444
喝令左右推出斩之	-9445
,“	-9446
.?	-9447
1.	-9448
4)	-9449
ii	-9450
”;	-9451
▁吕	-9452
▁干	-9453
▁权	-9454
▁瑜	-9455
▁瑾	-9456
▁绍	-9457
▁维	-9458
▁谭	-9459
。“	-9460
一书	-9461
一勇	-9462
一宵	-9463
一小	-9464
一样	-9465
一派	-9466
一生	-9467
一矛	-9468
一程	-9469
一纸	-9470
一营	-9471
丁谧	-9472
七尺	-9473
七岁	-9474
七日	-9475
七面	-9476
万户	-9477
三也	-9478
三声	-9479
三箭	-9480
三罪	-9481
三门	-9482
三马	-9483
上写	-9484
上国	-9485
上寿	-9486
上报	-9487
上至	-9488
上言	-9489
上首	-9490
下士	-9491
下将	-9492
下毒	-9493
下的	-9494
下首	-9495
不争	-9496
不使	-9497
不克	-9498
不助	-9499
不即	-9500
不大	-9501
不差	-9502
不开	-9503
不怯	-9504
不改	-9505
不救	-9506
不日	-9507
不济	-9508
不满	-9509
不看	-9510
不离	-9511
不致	-9512
不解	-9513
不迟	-9514
不饮	-9515
与君	-9516
与吴	-9517
与父	-9518
与策	-9519
与蜀	-9520
且当	-9521
世食	-9522
丙寅	-9523
东华	-9524
东市	-9525
东行	-9526
东阿	-9527
两京	-9528
两口	-9529
两山	-9530
两廊	-9531
两弟	-9532
两手	-9533
两难	-9534
严舆	-9535
中堂	-9536
中年	-9537
中毒	-9538
中藏	-9539
中贵	-9540
丰足	-9541
临于	-9542
临沮	-9543
为东	-9544
为也	-9545
为先	-9546
为副	-9547
为右	-9548
为官	-9549
为左	-9550
为应	-9551
为援	-9552
为盟	-9553
举兵	-9554
举目	-9555
乃于	-9556
乃作	-9557
乃分	-9558
乃反	-9559
乃同	-9560
久乎	-9561
久在	-9562
久慕	-9563
久持	-9564
久远	-9565
之乐	-9566
之兄	-9567
之则	-9568
之卒	-9569
之去	-9570
之妙	-9571
之害	-9572
之形	-9573
之数	-9574
之期	-9575
之术	-9576
之爵	-9577
之父	-9578
之盟	-9579
之相	-9580
之私	-9581
之色	-9582
之苦	-9583
之行	-9584
之议	-9585
之论	-9586
乐城	-9587
乘乱	-9588
乘车	-9589
乘醉	-9590
九寨	-9591
乡公	-9592
书一	-9593
书于	-9594
书云	-9595
乱棒	-9596
乾坤	-9597
了也	-9598
了字	-9599
了马	-9600
争功	-9601
争斗	-9602
事务	-9603
二叔	-9604
二寨	-9605
二次	-9606
二虎	-9607
于事	-9608
于国	-9609
于曲	-9610
于王	-9611
云游	-9612
五方	-9613
五虎	-9614
亡年	-9615
亦与	-9616
亦到	-9617
亦可	-9618
亦曰	-9619
亦知	-9620
亦至	-9621
亭长	-9622
亲临	-9623
亲送	-9624
人以	-9625
人伦	-9626
人伴	-9627
人杰	-9628
人氏	-9629
人矣	-9630
人至	-9631
今从	-9632
今以	-9633
今只	-9634
今忽	-9635
今朝	-9636
今特	-9637
今遣	-9638
从天	-9639
从山	-9640
从征	-9641
从贼	-9642
仓山	-9643
仓廪	-9644
他来	-9645
令众	-9646
令去	-9647
以全	-9648
以头	-9649
以女	-9650
以收	-9651
以明	-9652
以求	-9653
以药	-9654
以辅	-9655
仰望	-9656
任从	-9657
任其	-9658
伏军	-9659
伏诛	-9660
休咎	-9661
休要	-9662
休道	-9663
休问	-9664
众兵	-9665
会众	-9666
传示	-9667
传至	-9668
伯宁	-9669
但须	-9670
何乃	-9671
何又	-9672
何安	-9673
何尚	-9674
何物	-9675
何苗	-9676
何须	-9677
作别	-9678
作诗	-9679
你便	-9680
你却	-9681
你来	-9682
你等	-9683
你道	-9684
使其	-9685
使彼	-9686
侯爵	-9687
便于	-9688
便刺	-9689
便叫	-9690
便喝	-9691
便得	-9692
便杀	-9693
便能	-9694
便见	-9695
便还	-9696
保重	-9697
保障	-9698
俱被	-9699
倒于	-9700
倒撞	-9701
倘彼	-9702
偏殿	-9703
偏裨	-9704
做了	-9705
傅婴	-9706
催粮	-9707
儁曰	-9708
元恶	-9709
兄在	-9710
先兄	-9711
先拨	-9712
先曾	-9713
先此	-9714
先王	-9715
先知	-9716
先说	-9717
先遣	-9718
先饮	-9719
光景	-9720
免生	-9721
免致	-9722
党均	-9723
入关	-9724
入其	-9725
入境	-9726
入报	-9727
入曰	-9728
全身	-9729
八年	-9730
公为	-9731
公廨	-9732
公自	-9733
六丁	-9734
六万	-9735
六将	-9736
共戮	-9737
共论	-9738
关张	-9739
兴矣	-9740
兵卒	-9741
兵威	-9742
其党	-9743
其口	-9744
其头	-9745
其情	-9746
其生	-9747
其背	-9748
其首	-9749
具礼	-9750
养成	-9751
冀县	-9752
内无	-9753
内藏	-9754
册立	-9755
再与	-9756
再令	-9757
再容	-9758
再得	-9759
再问	-9760
写毕	-9761
军事	-9762
军力	-9763
军势	-9764
军回	-9765
军威	-9766
军少	-9767
军旅	-9768
军资	-9769
军需	-9770
冠玉	-9771
冢中	-9772
冲击	-9773
冲将	-9774
几个	-9775
几人	-9776
几何	-9777
凡遇	-9778
凭栏	-9779
凯歌	-9780
凶暴	-9781
出于	-9782
出力	-9783
出屯	-9784
出拜	-9785
出朝	-9786
出鬼	-9787
击剑	-9788
分列	-9789
分别	-9790
分屯	-9791
分路	-9792
列阵	-9793
刘安	-9794
刘延	-9795
刘弘	-9796
刘循	-9797
刘琰	-9798
则同	-9799
则生	-9800
初至	-9801
到任	-9802
到得	-9803
前功	-9804
前因	-9805
前路	-9806
前遮	-9807
剑砍	-9808
剩得	-9809
割下	-9810
割据	-9811
剿戮	-9812
力大	-9813
劝吾	-9814
劝酒	-9815
功业	-9816
功勋	-9817
功成	-9818
加兵	-9819
动也	-9820
助也	-9821
劫粮	-9822
劫驾	-9823
势必	-9824
勇士	-9825
勇猛	-9826
勉之	-9827
勒甲	-9828
勤劳	-9829
勿听	-9830
勿复	-9831
勿惊	-9832
勿轻	-9833
北伐	-9834
北面	-9835
北风	-9836
医人	-9837
十伤	-9838
十八	-9839
千人	-9840
半日	-9841
半渡	-9842
半点	-9843
华阴	-9844
卓怒	-9845
单枪	-9846
单道	-9847
卖个	-9848
南阙	-9849
博陵	-9850
卜之	-9851
卜者	-9852
占住	-9853
卢逊	-9854
卧蚕	-9855
卫弘	-9856
即发	-9857
即取	-9858
即愈	-9859
即至	-9860
却从	-9861
却再	-9862
却反	-9863
卷起	-9864
卿言	-9865
历城	-9866
历年	-9867
厚意	-9868
厚礼	-9869
厚葬	-9870
去就	-9871
去得	-9872
县吏	-9873
又值	-9874
又战	-9875
又拨	-9876
又斗	-9877
又立	-9878
又荐	-9879
又赶	-9880
及诸	-9881
双刀	-9882
双股	-9883
反助	-9884
反复	-9885
反耶	-9886
发檄	-9887
发遣	-9888
叔侄	-9889
叔明	-9890
取水	-9891
取白	-9892
受害	-9893
受魏	-9894
变法	-9895
口吐	-9896
口虽	-9897
古之	-9898
古风	-9899
叩门	-9900
叩首	-9901
只做	-9902
只将	-9903
只就	-9904
只消	-9905
只疑	-9906
叫骂	-9907
可于	-9908
可任	-9909
可便	-9910
可密	-9911
可教	-9912
可斩	-9913
可立	-9914
可退	-9915
叹服	-9916
各将	-9917
各持	-9918
各藏	-9919
各郡	-9920
各部	-9921
各领	-9922
同伴	-9923
同槽	-9924
名字	-9925
后为	-9926
后会	-9927
后园	-9928
后拥	-9929
向西	-9930
吕建	-9931
吕据	-9932
君父	-9933
吞吴	-9934
听从	-9935
听教	-9936
吴会	-9937
吴景	-9938
吴有	-9939
吴氏	-9940
吴臣	-9941
吾也	-9942
吾事	-9943
吾即	-9944
吾去	-9945
吾取	-9946
吾固	-9947
吾妹	-9948
吾甚	-9949
吾笑	-9950
吾耶	-9951
告示	-9952
告辞	-9953
周鲂	-9954
命之	-9955
命吾	-9956
咸阳	-9957
哀哉	-9958
唇若	-9959
唐妃	-9960
唤曰	-9961
唤集	-9962
唾骂	-9963
善事	-9964
喜得	-9965
喜悦	-9966
喜色	-9967
喝采	-9968
嗣位	-9969
器具	-9970
器皿	-9971
囚于	-9972
四壁	-9973
四边	-9974
回京	-9975
回奏	-9976
回宫	-9977
回船	-9978
回车	-9979
回都	-9980
围城	-9981
国事	-9982
国政	-9983
土墙	-9984
土阜	-9985
在中	-9986
在于	-9987
在北	-9988
在府	-9989
在座	-9990
在边	-9991
地雷	-9992
坐镇	-9993
坚固	-9994
坠于	-9995
垒断	-9996
埋怨	-9997
城东	-9998
填胸	-9999
增灶	-10000
士载	-10001
声喏	-10002
复见	-10003
外无	-10004
多年	-10005
多设	-10006
多降	-10007
夜半	-10008
夜战	-10009
夜来	-10010
大张	-10011
大略	-10012
大言	-10013
天心	-10014
天日	-10015
天神	-10016
天纬	-10017
太急	-10018
太极	-10019
失守	-10020
失此	-10021
头已	-10022
头来	-10023
头目	-10024
头风	-10025
夺回	-10026
奉献	-10027
奉驾	-10028
奋威	-10029
奋怒	-10030
奏帝	-10031
奏称	-10032
奔丧	-10033
女也	-10034
如同	-10035
如流	-10036
如白	-10037
如虎	-10038
如见	-10039
妄言	-10040
妇女	-10041
妖术	-10042
妙策	-10043
妨主	-10044
妻弟	-10045
妾已	-10046
始皇	-10047
姓周	-10048
姓孙	-10049
委以	-10050
威福	-10051
嫁之	-10052
子建	-10053
孔去	-10054
字彦	-10055
孙仲	-10056
孙歆	-10057
孙翊	-10058
孙资	-10059
孙高	-10060
孝景	-10061
学士	-10062
宁王	-10063
守其	-10064
守此	-10065
安堵	-10066
安邦	-10067
宗兄	-10068
宗室	-10069
宗派	-10070
官民	-10071
官职	-10072
官至	-10073
定护	-10074
定然	-10075
宜迟	-10076
宜都	-10077
宠幸	-10078
客人	-10079
宫女	-10080
害了	-10081
家事	-10082
家嫂	-10083
家客	-10084
家有	-10085
家资	-10086
容纳	-10087
容貌	-10088
密遣	-10089
寻兄	-10090
封金	-10091
射来	-10092
将也	-10093
将出	-10094
将危	-10095
将寡	-10096
将尽	-10097
将死	-10098
将终	-10099
将酒	-10100
小县	-10101
小桥	-10102
尘埃	-10103
尚且	-10104
尚可	-10105
尚存	-10106
尚欲	-10107
尚然	-10108
就命	-10109
就在	-10110
就寝	-10111
就教	-10112
尹楷	-10113
尽将	-10114
尽心	-10115
尽收	-10116
尽放	-10117
尽教	-10118
尽数	-10119
尽是	-10120
尽着	-10121
尽落	-10122
居外	-10123
山来	-10124
山西	-10125
山贼	-10126
岂容	-10127
岑威	-10128
崔毅	-10129
崔琰	-10130
崩地	-10131
州衙	-10132
左出	-10133
差失	-10134
差官	-10135
差某	-10136
差错	-10137
已丧	-10138
已后	-10139
已投	-10140
已断	-10141
已是	-10142
已极	-10143
已终	-10144
已绝	-10145
已自	-10146
已败	-10147
已走	-10148
已过	-10149
已近	-10150
已降	-10151
市曹	-10152
布怒	-10153
帐外	-10154
帝业	-10155
帝泣	-10156
帝问	-10157
带了	-10158
带刀	-10159
常以	-10160
常怀	-10161
常理	-10162
常自	-10163
常雕	-10164
干系	-10165
平分	-10166
年迈	-10167
幼时	-10168
广元	-10169
庄上	-10170
庄主	-10171
庄院	-10172
庆赏	-10173
床前	-10174
应命	-10175
废也	-10176
废帝	-10177
庵中	-10178
开关	-10179
开其	-10180
开山	-10181
开弓	-10182
异姓	-10183
弃世	-10184
弃剑	-10185
弃营	-10186
引出	-10187
引颈	-10188
张纯	-10189
张超	-10190
张音	-10191
强弓	-10192
归之	-10193
当于	-10194
当即	-10195
当立	-10196
形势	-10197
彤云	-10198
彭城	-10199
往助	-10200
往日	-10201
往者	-10202
往说	-10203
径望	-10204
径袭	-10205
径路	-10206
得也	-10207
得水	-10208
得罪	-10209
徘徊	-10210
循环	-10211
德操	-10212
德曰	-10213
德薄	-10214
心变	-10215
心安	-10216
心慌	-10217
心服	-10218
心耳	-10219
必令	-10220
必擒	-10221
必疑	-10222
必立	-10223
必走	-10224
必非	-10225
忖曰	-10226
忠勇	-10227
忠君	-10228
忠贞	-10229
忧乎	-10230
忧国	-10231
思归	-10232
思报	-10233
急奔	-10234
急问	-10235
恐人	-10236
恐伤	-10237
恐惧	-10238
恐操	-10239
恨力	-10240
恩相	-10241
恪曰	-10242
悄悄	-10243
悚然	-10244
悠悠	-10245
患者	-10246
患难	-10247
悬头	-10248
悲切	-10249
情也	-10250
情知	-10251
惊走	-10252
意也	-10253
意甚	-10254
愿同	-10255
愿效	-10256
愿求	-10257
慌入	-10258
慌请	-10259
懿自	-10260
成亲	-10261
成倅	-10262
成宜	-10263
成病	-10264
成章	-10265
我乎	-10266
我以	-10267
我们	-10268
我待	-10269
我意	-10270
我本	-10271
我耳	-10272
我闻	-10273
戒之	-10274
战国	-10275
战将	-10276
战百	-10277
戴员	-10278
戴天	-10279
户口	-10280
房中	-10281
所倚	-10282
所宜	-10283
所料	-10284
所有	-10285
所积	-10286
所管	-10287
扁舟	-10288
手持	-10289
手指	-10290
才名	-10291
扑地	-10292
打出	-10293
执缚	-10294
扫平	-10295
扫除	-10296
扶出	-10297
扶危	-10298
扶风	-10299
承露	-10300
抄出	-10301
把枪	-10302
把门	-10303
投宿	-10304
投明	-10305
抗拒	-10306
折一	-10307
折冲	-10308
折箭	-10309
抢关	-10310
护驾	-10311
抱病	-10312
押送	-10313
拜别	-10314
拜毕	-10315
拜请	-10316
拜贺	-10317
拜降	-10318
指教	-10319
捉拿	-10320
捷音	-10321
探子	-10322
接诏	-10323
推托	-10324
推调	-10325
推阻	-10326
掩之	-10327
掩至	-10328
掷之	-10329
掷剑	-10330
摩陂	-10331
擅自	-10332
操亲	-10333
操召	-10334
操唤	-10335
操得	-10336
操执	-10337
操营	-10338
操虽	-10339
擐甲	-10340
收功	-10341
收取	-10342
收回	-10343
收泪	-10344
攻围	-10345
攻杀	-10346
放之	-10347
放他	-10348
放炮	-10349
放行	-10350
政事	-10351
故作	-10352
故借	-10353
故旧	-10354
故留	-10355
敌兵	-10356
救你	-10357
救回	-10358
教去	-10359
敢去	-10360
敢烦	-10361
敢问	-10362
数声	-10363
数处	-10364
数步	-10365
数番	-10366
数阵	-10367
整肃	-10368
斗间	-10369
料我	-10370
斟酒	-10371
斩使	-10372
斩蛇	-10373
断桥	-10374
方休	-10375
方出	-10376
方圆	-10377
旋风	-10378
无亲	-10379
无以	-10380
无地	-10381
无好	-10382
无情	-10383
无穷	-10384
既为	-10385
既受	-10386
既无	-10387
既是	-10388
既然	-10389
既知	-10390
既破	-10391
日暮	-10392
日甚	-10393
日间	-10394
旧路	-10395
早回	-10396
时也	-10397
时候	-10398
昆仲	-10399
明珠	-10400
明言	-10401
昏暗	-10402
易取	-10403
春暖	-10404
是山	-10405
是非	-10406
晓夜	-10407
暂且	-10408
暂住	-10409
暗取	-10410
暗合	-10411
暗地	-10412
暗藏	-10413
暮類	-10414
暴虐	-10415
曩者	-10416
更以	-10417
更无	-10418
曹熊	-10419
曹羲	-10420
曹节	-10421
曾有	-10422
曾言	-10423
有五	-10424
有先	-10425
有十	-10426
有司	-10427
有疾	-10428
有角	-10429
有负	-10430
有难	-10431
服众	-10432
服罪	-10433
朝臣	-10434
未也	-10435
未几	-10436
未回	-10437
未安	-10438
未晚	-10439
未立	-10440
未至	-10441
未获	-10442
未识	-10443
未遇	-10444
未闻	-10445
本当	-10446
术曰	-10447
朱治	-10448
杀于	-10449
杀父	-10450
杀身	-10451
李封	-10452
李暹	-10453
李鹏	-10454
村中	-10455
杜远	-10456
束发	-10457
束草	-10458
来召	-10459
来归	-10460
来往	-10461
来接	-10462
来敌	-10463
来问	-10464
杨琦	-10465
杨祚	-10466
极易	-10467
极是	-10468
极有	-10469
枉驾	-10470
果能	-10471
枝箭	-10472
枪法	-10473
枯渴	-10474
枷锁	-10475
某去	-10476
某自	-10477
某虽	-10478
某非	-10479
柴堆	-10480
柴薪	-10481
根本	-10482
桓灵	-10483
桥梁	-10484
梁畿	-10485
梦见	-10486
检看	-10487
植曰	-10488
榜文	-10489
榻上	-10490
横枪	-10491
樵夫	-10492
欲图	-10493
欲用	-10494
欲要	-10495
欲诛	-10496
欲还	-10497
歌声	-10498
歌舞	-10499
正位	-10500
正可	-10501
正思	-10502
正赶	-10503
此名	-10504
此因	-10505
此山	-10506
此易	-10507
此正	-10508
此老	-10509
此论	-10510
步入	-10511
武功	-10512
武卫	-10513
武略	-10514
死也	-10515
死亡	-10516
死亦	-10517
死命	-10518
死守	-10519
死据	-10520
死生	-10521
残军	-10522
段煨	-10523
殿前	-10524
殿门	-10525
毁书	-10526
毒蛇	-10527
比能	-10528
毕轨	-10529
民强	-10530
民望	-10531
民皆	-10532
气概	-10533
气象	-10534
水上	-10535
水不	-10536
水之	-10537
水兵	-10538
水手	-10539
水淹	-10540
水火	-10541
水镜	-10542
永为	-10543
求亲	-10544
求免	-10545
求其	-10546
求贤	-10547
求问	-10548
汉之	-10549
汜妻	-10550
汝且	-10551
汝亦	-10552
汝以	-10553
汝耶	-10554
汝虽	-10555
汝要	-10556
汝试	-10557
汝辈	-10558
汹涌	-10559
沈莹	-10560
沟壑	-10561
河间	-10562
法令	-10563
泣而	-10564
泾县	-10565
洞口	-10566
洮西	-10567
洱河	-10568
流泪	-10569
流落	-10570
消遣	-10571
涪江	-10572
深处	-10573
深责	-10574
混杀	-10575
清平	-10576
渊曰	-10577
渐退	-10578
渡了	-10579
渭桥	-10580
滔天	-10581
满城	-10582
满天	-10583
满座	-10584
潘浚	-10585
潜入	-10586
火德	-10587
火攻	-10588
灭楚	-10589
炎曰	-10590
炎热	-10591
点视	-10592
点钢	-10593
烈焰	-10594
烧绝	-10595
焰硝	-10596
煮酒	-10597
爱民	-10598
爵赏	-10599
父之	-10600
父曰	-10601
爽曰	-10602
牌印	-10603
牙门	-10604
牛酒	-10605
物件	-10606
特以	-10607
特命	-10608
犒劳	-10609
犯之	-10610
犯界	-10611
狭处	-10612
狼心	-10613
狼狈	-10614
猖狂	-10615
猪羊	-10616
献捷	-10617
献首	-10618
猿臂	-10619
玄孙	-10620
玉泉	-10621
王侯	-10622
王则	-10623
王匡	-10624
王昶	-10625
王真	-10626
王者	-10627
王莽	-10628
现有	-10629
理宜	-10630
琪曰	-10631
瑜命	-10632
瓘曰	-10633
甘心	-10634
甚严	-10635
甚好	-10636
生于	-10637
生矣	-10638
用命	-10639
用智	-10640
用药	-10641
用铁	-10642
用长	-10643
田畴	-10644
画字	-10645
留住	-10646
略战	-10647
畿曰	-10648
疆土	-10649
疆场	-10650
疏失	-10651
疑心	-10652
疮口	-10653
病亡	-10654
病人	-10655
病已	-10656
病笃	-10657
病者	-10658
痛哉	-10659
痛打	-10660
瘴气	-10661
白日	-10662
白浪	-10663
白衣	-10664
百般	-10665
的是	-10666
皆以	-10667
皆听	-10668
皆惊	-10669
皆欲	-10670
皆由	-10671
皆知	-10672
盔缨	-10673
盖地	-10674
目不	-10675
盱眙	-10676
直杀	-10677
直来	-10678
直赶	-10679
相合	-10680
相抱	-10681
相接	-10682
相敌	-10683
相敬	-10684
相济	-10685
相约	-10686
相继	-10687
相访	-10688
相辅	-10689
相辞	-10690
相通	-10691
相逢	-10692
省亲	-10693
看见	-10694
真个	-10695
真实	-10696
着一	-10697
着慌	-10698
睁圆	-10699
知彼	-10700
知有	-10701
知遇	-10702
石上	-10703
石子	-10704
石苞	-10705
砍开	-10706
破也	-10707
破指	-10708
破矣	-10709
硫黄	-10710
碑文	-10711
磐河	-10712
示之	-10713
祈禳	-10714
祝毕	-10715
神算	-10716
神色	-10717
祭旗	-10718
祭物	-10719
禁军	-10720
禁止	-10721
私书	-10722
私宅	-10723
秋月	-10724
秦宓	-10725
秦晋	-10726
称善	-10727
称羡	-10728
程秉	-10729
稍有	-10730
窃闻	-10731
窥之	-10732
立在	-10733
竹帛	-10734
笨酌	-10735
第六	-10736
筑城	-10737
筵上	-10738
管宁	-10739
箭上	-10740
篡夺	-10741
篡窃	-10742
精熟	-10743
素著	-10744
紧随	-10745
累世	-10746
繇曰	-10747
约于	-10748
约战	-10749
纪曰	-10750
纳下	-10751
纵令	-10752
纵兵	-10753
纵有	-10754
线缝	-10755
细述	-10756
绍以	-10757
绍喜	-10758
绍魏	-10759
结怨	-10760
绕河	-10761
绝无	-10762
绣曰	-10763
缄口	-10764
罡星	-10765
罪也	-10766
羌王	-10767
美事	-10768
美而	-10769
羕曰	-10770
群下	-10771
群凶	-10772
老迈	-10773
而为	-10774
而从	-10775
而又	-10776
而就	-10777
而成	-10778
而接	-10779
而攻	-10780
而欲	-10781
而止	-10782
而视	-10783
耳畔	-10784
耳边	-10785
肃乃	-10786
肯从	-10787
胆寒	-10788
背上	-10789
背水	-10790
胜于	-10791
胜则	-10792
胜曰	-10793
胡济	-10794
胡轸	-10795
胤曰	-10796
能也	-10797
脱下	-10798
腐儒	-10799
腰悬	-10800
臣亮	-10801
臣今	-10802
臣敢	-10803
臣有	-10804
臣父	-10805
臣请	-10806
臣非	-10807
自代	-10808
自安	-10809
自投	-10810
自杀	-10811
自起	-10812
自降	-10813
至尊	-10814
至急	-10815
至晓	-10816
致令	-10817
芳林	-10818
苍龙	-10819
苏顒	-10820
若令	-10821
若到	-10822
若待	-10823
若破	-10824
英俊	-10825
范蠡	-10826
茅塞	-10827
茫茫	-10828
荀恺	-10829
荆楚	-10830
草庐	-10831
草诏	-10832
荐之	-10833
荐书	-10834
莫不	-10835
落凤	-10836
董妃	-10837
董重	-10838
蒋济	-10839
薛礼	-10840
藏吏	-10841
虎体	-10842
虎侯	-10843
虎添	-10844
虎狼	-10845
虎穴	-10846
虑哉	-10847
虚作	-10848
虚名	-10849
虚拽	-10850
虚立	-10851
虬髯	-10852
虽多	-10853
虽能	-10854
蚁聚	-10855
蛮将	-10856
蜀军	-10857
蜀地	-10858
血刃	-10859
血气	-10860
行人	-10861
行李	-10862
行走	-10863
衔枚	-10864
衣之	-10865
衣袍	-10866
表到	-10867
被维	-10868
被诛	-10869
袭取	-10870
袭吾	-10871
裁之	-10872
裴绪	-10873
裸衣	-10874
褚曰	-10875
西羌	-10876
要与	-10877
要他	-10878
要我	-10879
覆姓	-10880
见于	-10881
见公	-10882
见势	-10883
见教	-10884
见权	-10885
见母	-10886
见者	-10887
见识	-10888
见说	-10889
见责	-10890
观毕	-10891
视事	-10892
解投	-10893
解甲	-10894
解衣	-10895
解闷	-10896
言不	-10897
誓曰	-10898
计曰	-10899
计穷	-10900
讨汝	-10901
让等	-10902
议立	-10903
许田	-10904
许诸	-10905
许诺	-10906
诈言	-10907
诉与	-10908
试之	-10909
诚为	-10910
诚恐	-10911
话来	-10912
诞曰	-10913
误我	-10914
说我	-10915
说犹	-10916
诸子	-10917
诸臣	-10918
读毕	-10919
谁为	-10920
谁肯	-10921
谄佞	-10922
谋也	-10923
谗言	-10924
谦让	-10925
谮曰	-10926
负所	-10927
败阵	-10928
贱妾	-10929
贼寇	-10930
贾逵	-10931
赌赛	-10932
赏军	-10933
赚我	-10934
走到	-10935
走得	-10936
走的	-10937
走路	-10938
走马	-10939
赴任	-10940
赵弘	-10941
赶入	-10942
起义	-10943
跋扈	-10944
跟着	-10945
路径	-10946
躁暴	-10947
身一	-10948
身亡	-10949
轩昂	-10950
轻恕	-10951
辅国	-10952
辞帝	-10953
边洪	-10954
过失	-10955
过尽	-10956
运石	-10957
运赴	-10958
近城	-10959
还吴	-10960
这番	-10961
这般	-10962
进军	-10963
进贡	-10964
远望	-10965
远虑	-10966
远行	-10967
连叫	-10968
连输	-10969
连锁	-10970
迟缓	-10971
追急	-10972
退出	-10973
退步	-10974
送于	-10975
送回	-10976
送女	-10977
送归	-10978
逃奔	-10979
选一	-10980
逊谢	-10981
逐一	-10982
递与	-10983
通红	-10984
速去	-10985
速回	-10986
速速	-10987
造成	-10988
遂出	-10989
遂取	-10990
遂回	-10991
遂投	-10992
遂拨	-10993
遂放	-10994
遂教	-10995
遂曰	-10996
遂自	-10997
遇见	-10998
道中	-10999
遗嘱	-11000
遣子	-11001
遣将	-11002
避于	-11003
那个	-11004
邯郸	-11005
郁闷	-11006
郑伦	-11007
郑玄	-11008
郡主	-11009
部军	-11010
酌酒	-11011
酒后	-11012
酒醉	-11013
醉卧	-11014
钟提	-11015
钧命	-11016
铁戟	-11017
铁索	-11018
铁锤	-11019
销金	-11020
镇南	-11021
长大	-11022
长星	-11023
长曰	-11024
长水	-11025
长短	-11026
门上	-11027
门内	-11028
闲住	-11029
闻令	-11030
闻奏	-11031
闻得	-11032
闻者	-11033
闻说	-11034
阜曰	-11035
队里	-11036
阳人	-11037
阳侯	-11038
阳城	-11039
阵后	-11040
阵来	-11041
阵门	-11042
阻挡	-11043
阿多	-11044
阿附	-11045
陆地	-11046
陈孙	-11047
陈就	-11048
陈矫	-11049
降卒	-11050
降旗	-11051
降贼	-11052
陷了	-11053
随征	-11054
随我	-11055
随着	-11056
隔岸	-11057
隔江	-11058
难与	-11059
难逃	-11060
雄师	-11061
雄略	-11062
雒县	-11063
雕弓	-11064
雪地	-11065
雾散	-11066
青罗	-11067
青衣	-11068
非吾	-11069
面皮	-11070
鞍辔	-11071
鞭挞	-11072
韦曰	-11073
韩嵩	-11074
项下	-11075
顺天	-11076
顺曰	-11077
顿开	-11078
预曰	-11079
额曰	-11080
风吹	-11081
风起	-11082
飘荡	-11083
飞去	-11084
飞天	-11085
飞砂	-11086
食禄	-11087
饥色	-11088
饿死	-11089
香花	-11090
香饵	-11091
马亦	-11092
马休	-11093
马尽	-11094
马至	-11095
驰骤	-11096
驱驾	-11097
驾舟	-11098
驾船	-11099
高枕	-11100
高贤	-11101
高陵	-11102
髦曰	-11103
魏武	-11104
鱼入	-11105
鲜明	-11106
黄琬	-11107
黑夜	-11108
齐到	-11109
齐起	-11110
,——	-11111
▁丁奉	-11112
▁先主	-11113
▁操见	-11114
▁数日	-11115
▁正说	-11116
▁武侯	-11117
▁袁绍	-11118
▁钟会	-11119
一个个	-11120
一个是	-11121
一人乃	-11122
一人去	-11123
一十二	-11124
一手执	-11125
一枝军	-11126
一枪搠	-11127
一路取	-11128
一面将	-11129
一面教	-11130
丁奉曰	-11131
三个月	-11132
三四十	-11133
三日内	-11134
三百六	-11135
三百里	-11136
下书人	-11137
不一时	-11138
不十合	-11139
不可去	-11140
不可追	-11141
不在此	-11142
不多时	-11143
不如去	-11144
不容诛	-11145
不尽言	-11146
不必多	-11147
不战而	-11148
不敢动	-11149
不敢言	-11150
不敢近	-11151
不数里	-11152
不杀之	-11153
不杀汝	-11154
不知其	-11155
不知所	-11156
不移时	-11157
不能出	-11158
不能容	-11159
不能进	-11160
不若且	-11161
与东吴	-11162
与二将	-11163
与吾有	-11164
与夫人	-11165
与张辽	-11166
与马超	-11167
与魏延	-11168
且勿言	-11169
且玻徊	-11170
丞相令	-11171
丞相府	-11172
个寨栅	-11173
中军帐	-11174
中计矣	-11175
临行时	-11176
为上计	-11177
为世子	-11178
为参军	-11179
为司空	-11180
为太傅	-11181
为将者	-11182
为庶人	-11183
为疑兵	-11184
为皇后	-11185
为相国	-11186
为肉泥	-11187
为谋士	-11188
为长史	-11189
主公宜	-11190
举大事	-11191
乃东吴	-11192
乃作书	-11193
乃兵家	-11194
乃姜维	-11195
乃孙权	-11196
乃张飞	-11197
乃问曰	-11198
久后必	-11199
久必为	-11200
之上坐	-11201
之功也	-11202
之大患	-11203
之族弟	-11204
之策也	-11205
之过也	-11206
乌桓触	-11207
乌程侯	-11208
乘此时	-11209
了一程	-11210
了半晌	-11211
了玄德	-11212
事急矣	-11213
事陛下	-11214
二人入	-11215
二人出	-11216
二十人	-11217
二小将	-11218
于后堂	-11219
于将军	-11220
于山林	-11221
于山顶	-11222
于府中	-11223
于此地	-11224
于禁曰	-11225
于禁见	-11226
于袁绍	-11227
于长安	-11228
于阶下	-11229
互相争	-11230
五六十	-11231
五百骑	-11232
人报入	-11233
人皆言	-11234
今主上	-11235
今何不	-11236
今吴侯	-11237
今孙权	-11238
今幸得	-11239
今玄德	-11240
今皇叔	-11241
今马超	-11242
今魏兵	-11243
今魏王	-11244
从旱路	-11245
令人于	-11246
令人往	-11247
令众军	-11248
令关兴	-11249
令军马	-11250
令刘备	-11251
令庞德	-11252
令曹仁	-11253
令武士	-11254
以实告	-11255
以愚意	-11256
以金帛	-11257
伏两军	-11258
伏兵于	-11259
伏路军	-11260
伐刘表	-11261
众人曰	-11262
众军士	-11263
众皆曰	-11264
会猎于	-11265
伤不已	-11266
但不知	-11267
何不速	-11268
何故欲	-11269
作准备	-11270
使云长	-11271
使人来	-11272
使张辽	-11273
使张飞	-11274
便传令	-11275
便差人	-11276
俊焙庠	-11277
倘吴兵	-11278
倘曹兵	-11279
倘曹操	-11280
元绍曰	-11281
入冀州	-11282
入相府	-11283
八十余	-11284
八阵图	-11285
公何不	-11286
公可速	-11287
关公乃	-11288
关公急	-11289
关某也	-11290
兴仁义	-11291
兵不至	-11292
其余各	-11293
其大如	-11294
冀州牧	-11295
再拜而	-11296
写书与	-11297
军三千	-11298
军士多	-11299
军士曰	-11300
凉等处	-11301
出南门	-11302
出汉中	-11303
出箕谷	-11304
出迎接	-11305
出马曰	-11306
分两头	-11307
刘将军	-11308
刘璋曰	-11309
刘璝曰	-11310
则东吴	-11311
到半路	-11312
到城下	-11313
到徐州	-11314
到江边	-11315
前有一	-11316
副都督	-11317
动三军	-11318
动干戈	-11319
勿忧虑	-11320
北门外	-11321
十七岁	-11322
十万兵	-11323
十二年	-11324
十五阵	-11325
十余丈	-11326
卓笑曰	-11327
卖主求	-11328
南彝陵	-11329
博望城	-11330
卧不安	-11331
卧榻前	-11332
即下令	-11333
即下诏	-11334
即使人	-11335
即差人	-11336
即降诏	-11337
却不知	-11338
去救应	-11339
又一日	-11340
又使人	-11341
又奏曰	-11342
双股剑	-11343
反不如	-11344
反为所	-11345
反受其	-11346
取桂阳	-11347
取纸笔	-11348
取襄阳	-11349
取长安	-11350
取雍州	-11351
取雒城	-11352
只三合	-11353
只不出	-11354
只得将	-11355
只恐有	-11356
只见一	-11357
可乘其	-11358
可以保	-11359
可兴矣	-11360
可图也	-11361
可定也	-11362
可引兵	-11363
可破矣	-11364
名正言	-11365
吕布来	-11366
吕范曰	-11367
听其言	-11368
吴子兰	-11369
吾不能	-11370
吾令汝	-11371
吾军心	-11372
吾固知	-11373
吾在此	-11374
吾宁死	-11375
吾明日	-11376
吾欲令	-11377
吾父子	-11378
吾自幼	-11379
告布曰	-11380
周泰曰	-11381
命左右	-11382
哭告曰	-11383
哭拜于	-11384
哭拜曰	-11385
唤王平	-11386
嘱之曰	-11387
嘱付曰	-11388
四员将	-11389
四百余	-11390
四面皆	-11391
回新野	-11392
回汉中	-11393
在关上	-11394
在城内	-11395
在此处	-11396
在河北	-11397
在淮南	-11398
地之才	-11399
坐而待	-11400
城中兵	-11401
城中有	-11402
城亭侯	-11403
城门外	-11404
处而走	-11405
备一身	-11406
复引兵	-11407
多时矣	-11408
大王可	-11409
奇才也	-11410
奉二嫂	-11411
如反掌	-11412
如雨发	-11413
如飞蝗	-11414
如骤雨	-11415
姜维引	-11416
嫁刘备	-11417
子子孙	-11418
孔明又	-11419
孔明急	-11420
孔明请	-11421
孔融曰	-11422
守江夏	-11423
守祁山	-11424
安天下	-11425
寇将军	-11426
寡不敌	-11427
封孙权	-11428
将于吉	-11429
将何策	-11430
将军却	-11431
将军既	-11432
将孟获	-11433
将才也	-11434
小霸王	-11435
尚书事	-11436
山坡后	-11437
山头上	-11438
山脚下	-11439
山越岭	-11440
山顶上	-11441
岂可以	-11442
岂可因	-11443
崔州平	-11444
州平曰	-11445
差人去	-11446
布大喜	-11447
帅字旗	-11448
带多少	-11449
常有杀	-11450
应声曰	-11451
引三百	-11452
引从者	-11453
引兵于	-11454
引兵去	-11455
引兵往	-11456
引兵攻	-11457
引兵救	-11458
引军到	-11459
张二公	-11460
张二弟	-11461
张将军	-11462
张绣曰	-11463
张苞也	-11464
张飞便	-11465
归新野	-11466
往东吴	-11467
往河北	-11468
待蜀兵	-11469
徐公明	-11470
徐州来	-11471
徐州牧	-11472
徐盛曰	-11473
得一计	-11474
得性命	-11475
心不足	-11476
必乘虚	-11477
必杀之	-11478
必死于	-11479
忽听的	-11480
忽报有	-11481
忽曹操	-11482
恐玄德	-11483
惊视之	-11484
惊讶曰	-11485
惟明公	-11486
愕然曰	-11487
愿明公	-11488
慢军心	-11489
我和你	-11490
我等是	-11491
战不利	-11492
战不到	-11493
战百胜	-11494
战马超	-11495
所擒矣	-11496
托之重	-11497
承父兄	-11498
承露盘	-11499
抄小路	-11500
投袁术	-11501
护卫使	-11502
报孙权	-11503
报玄德	-11504
押了字	-11505
拥而来	-11506
排銮驾	-11507
探消息	-11508
提大军	-11509
插旌旗	-11510
搭上箭	-11511
操亲自	-11512
操引军	-11513
收军回	-11514
攻冀州	-11515
攻吕布	-11516
放冷箭	-11517
救火者	-11518
数人皆	-11519
数十员	-11520
数千辆	-11521
斩魏延	-11522
施礼毕	-11523
无不胜	-11524
无及矣	-11525
无数里	-11526
时邓艾	-11527
是何意	-11528
是如何	-11529
曹孟德	-11530
曹操于	-11531
曹操必	-11532
有一女	-11533
有一妹	-11534
有一将	-11535
有何不	-11536
有天下	-11537
有此意	-11538
有此败	-11539
有细作	-11540
有诗曰	-11541
有谋略	-11542
望南安	-11543
望子敬	-11544
未可伐	-11545
未尝不	-11546
未知其	-11547
杀出城	-11548
杀吕布	-11549
杀连天	-11550
权闻言	-11551
李典曰	-11552
条大路	-11553
来人曰	-11554
来搦战	-11555
来相见	-11556
来见操	-11557
杨仪等	-11558
杨松曰	-11559
松大喜	-11560
果不出	-11561
果然是	-11562
某二人	-11563
某有一	-11564
某素知	-11565
某自有	-11566
欲起兵	-11567
正可乘	-11568
正斗间	-11569
此一路	-11570
此人也	-11571
此人曾	-11572
此何人	-11573
此所谓	-11574
武皇帝	-11575
死无恨	-11576
水寨中	-11577
汉将军	-11578
汝东吴	-11579
汝父子	-11580
油柜车	-11581
法正为	-11582
洪福也	-11583
流涕曰	-11584
涪水关	-11585
濡须坞	-11586
点钢矛	-11587
然后图	-11588
然而起	-11589
玄德到	-11590
玄德留	-11591
玄德请	-11592
率大兵	-11593
率大军	-11594
王司徒	-11595
王甫曰	-11596
瑜笑曰	-11597
用其言	-11598
用反间	-11599
用此计	-11600
皇甫郦	-11601
直如此	-11602
瞒不过	-11603
知其诈	-11604
知曹操	-11605
知玄德	-11606
石头城	-11607
破袁绍	-11608
破马超	-11609
秘书郎	-11610
称帝号	-11611
称谢曰	-11612
程普等	-11613
立一人	-11614
立大功	-11615
笨酌髟	-11616
第一个	-11617
第一功	-11618
第一屯	-11619
第二个	-11620
第二队	-11621
等商议	-11622
等诸将	-11623
策大喜	-11624
米仓山	-11625
绍怒曰	-11626
经天纬	-11627
统笑曰	-11628
维大喜	-11629
维大怒	-11630
罾口川	-11631
老人曰	-11632
而不可	-11633
而叹曰	-11634
而擒之	-11635
而问之	-11636
自乱矣	-11637
自成都	-11638
至二更	-11639
至半夜	-11640
至江夏	-11641
艾笑曰	-11642
若不还	-11643
若丞相	-11644
若其不	-11645
若蜀兵	-11646
荆州兵	-11647
荆州牧	-11648
落马下	-11649
蔡瑁曰	-11650
蜀兵已	-11651
蜀兵必	-11652
蜀兵来	-11653
蜀兵皆	-11654
蜀寨时	-11655
蜀阵中	-11656
行参军	-11657
行此计	-11658
被吕布	-11659
被魏兵	-11660
被魏延	-11661
裹黄巾	-11662
襄阳人	-11663
西凉军	-11664
西曹掾	-11665
西洱河	-11666
要去处	-11667
见先主	-11668
见刘璋	-11669
见后主	-11670
见城上	-11671
见将军	-11672
言不可	-11673
言未讫	-11674
许多时	-11675
设宴于	-11676
误了我	-11677
说孔明	-11678
说曹操	-11679
诸葛尚	-11680
赍印绶	-11681
赍诏至	-11682
赞军机	-11683
赵累曰	-11684
起兵攻	-11685
起谢曰	-11686
身之地	-11687
轲比能	-11688
边杀来	-11689
迎玄德	-11690
运粮草	-11691
还许都	-11692
进兵攻	-11693
退入城	-11694
逃回见	-11695
逆不道	-11696
逊笑曰	-11697
逍遥津	-11698
遂分兵	-11699
遂叱退	-11700
遂连夜	-11701
道荣曰	-11702
遣人去	-11703
遣副将	-11704
遥望见	-11705
郭二人	-11706
郭太后	-11707
郭奉孝	-11708
都亭侯	-11709
鄢陵侯	-11710
长二尺	-11711
问计于	-11712
闻孔明	-11713
阵圆处	-11714
陆将军	-11715
陆逊曰	-11716
陛下圣	-11717
面目见	-11718
韩福曰	-11719
顿首曰	-11720
领兵到	-11721
风骤起	-11722
饮宴间	-11723
饮数杯	-11724
马谡曰	-11725
马超兵	-11726
骑校尉	-11727
骑白马	-11728
魏兵到	-11729
魏兵皆	-11730
魏延为	-11731
魏延在	-11732
魏延解	-11733
魏王宫	-11734
黄承彦	-11735
齑粉矣	-11736
????	-11737
▁忽一日	-11738
一声响亮	-11739
一声梆子	-11740
一家老小	-11741
一寸五分	-11742
一彪军从	-11743
一彪军马	-11744
一拥而入	-11745
一枝人马	-11746
一枪刺倒	-11747
一箭射死	-11748
一鼓而下	-11749
一齐拥出	-11750
一齐掩杀	-11751
万弩齐发	-11752
三分天下	-11753
三百余里	-11754
三通鼓罢	-11755
三马同槽	-11756
上马而去	-11757
下寨已毕	-11758
不习水战	-11759
不共戴天	-11760
不分胜败	-11761
不可久留	-11762
不可出战	-11763
不可胜数	-11764
不可轻出	-11765
不如且回	-11766
不战而退	-11767
不敢不从	-11768
不敢出战	-11769
不敢来追	-11770
不敢近前	-11771
不杀之恩	-11772
不知何往	-11773
不能下咽	-11774
不能得出	-11775
不能抵敌	-11776
不许入朝	-11777
不识地理	-11778
不足为虑	-11779
与夏侯惇	-11780
东吴遣使	-11781
东郡太守	-11782
丞相新亡	-11783
两军会于	-11784
两军齐出	-11785
两川之地	-11786
为他人所	-11787
为前将军	-11788
为国除害	-11789
为左将军	-11790
乃中山靖	-11791
乃张飞也	-11792
乃赵云也	-11793
久闻大名	-11794
乔国老曰	-11795
乘势攻击	-11796
乘势追之	-11797
乘间图之	-11798
书不尽言	-11799
事不宜迟	-11800
事已急矣	-11801
事已至此	-11802
事母至孝	-11803
二人大喜	-11804
二位夫人	-11805
二十余骑	-11806
二十只船	-11807
二夫人曰	-11808
二百余人	-11809
于壁衣中	-11810
于是二人	-11811
五十余合	-11812
五十余日	-11813
五千精兵	-11814
些少军士	-11815
今日如何	-11816
令人探之	-11817
令夏侯惇	-11818
以吾观之	-11819
以安民心	-11820
以退蜀兵	-11821
伏兵尽出	-11822
众将急救	-11823
众将领命	-11824
何足惧哉	-11825
使者先回	-11826
保护老小	-11827
倾国之兵	-11828
兄弟之情	-11829
先取荆州	-11830
克日兴师	-11831
入见玄德	-11832
八十三万	-11833
六丁六甲	-11834
共图大事	-11835
关公依言	-11836
关公怒曰	-11837
养成气力	-11838
再三劝解	-11839
再三相劝	-11840
再作商议	-11841
军士报知	-11842
军马钱粮	-11843
冲杀一阵	-11844
凤雏先生	-11845
出城投降	-11846
出寨迎接	-11847
出师伐魏	-11848
出马搦战	-11849
刘备敌手	-11850
刘玄德乃	-11851
利在急战	-11852
刺于马下	-11853
前来接应	-11854
劳军已毕	-11855
匹夫之勇	-11856
匹马单枪	-11857
十万枝箭	-11858
南郡太守	-11859
危在旦夕	-11860
即修书付	-11861
即时传令	-11862
却说赵云	-11863
原来周瑜	-11864
原来孔明	-11865
原来张飞	-11866
取了西川	-11867
受了计策	-11868
受计去了	-11869
古风一篇	-11870
只在旦夕	-11871
只得从之	-11872
只得弃了	-11873
只见城上	-11874
只见火光	-11875
只见蛮兵	-11876
只见蜀兵	-11877
可为英雄	-11878
可以埋伏	-11879
可速进兵	-11880
各自逃生	-11881
名不虚传	-11882
名正言顺	-11883
后主大喜	-11884
后杜工部	-11885
向导官曰	-11886
吾当亲往	-11887
吾无忧矣	-11888
吾自有计	-11889
呈上密书	-11890
告玄德曰	-11891
哭倒于地	-11892
唤诸将曰	-11893
商议此事	-11894
善保龙体	-11895
四世三公	-11896
四更造饭	-11897
四面八方	-11898
四面围住	-11899
回到大寨	-11900
回顾左右	-11901
因此大败	-11902
在敌楼上	-11903
坐于帐中	-11904
坠于马下	-11905
城中无粮	-11906
城中火起	-11907
复出祁山	-11908
夏侯惇曰	-11909
夏侯驸马	-11910
夜观乾象	-11911
夜观天文	-11912
大事去矣	-11913
大半皆是	-11914
大战一场	-11915
大犒三军	-11916
大队人马	-11917
天下幸甚	-11918
天子明诏	-11919
天降大雪	-11920
太史慈曰	-11921
太守牵弘	-11922
太守王颀	-11923
夫人所生	-11924
头一个汉	-11925
头戴纶巾	-11926
奋力冲突	-11927
奋力向前	-11928
奋力死战	-11929
奏准后主	-11930
奏知天子	-11931
如何对答	-11932
如其不从	-11933
如此行之	-11934
子子孙孙	-11935
孔明回到	-11936
孔明大惊	-11937
孔明接入	-11938
孔明答曰	-11939
孝景皇帝	-11940
孟德新书	-11941
孟获大喜	-11942
守门军士	-11943
安民已定	-11944
安民已毕	-11945
安营下寨	-11946
实为万幸	-11947
寨中火起	-11948
寻觅不见	-11949
寻路而走	-11950
将士之家	-11951
将计就计	-11952
小心在意	-11953
尘土冲天	-11954
尚与审配	-11955
尽皆升赏	-11956
尽皆挂孝	-11957
尽降其众	-11958
屯住军马	-11959
山谷之中	-11960
左右急救	-11961
差心腹人	-11962
布散流言	-11963
平北将军	-11964
年春二月	-11965
年春正月	-11966
并不出战	-11967
并力攻城	-11968
座上一人	-11969
开门投降	-11970
弃营而走	-11971
引一军从	-11972
引一千兵	-11973
引兵径到	-11974
引军出迎	-11975
引军来到	-11976
张飞赶来	-11977
强弓硬弩	-11978
当世英雄	-11979
录尚书事	-11980
径到城下	-11981
径取荆州	-11982
待为上宾	-11983
御林军马	-11984
心中大怒	-11985
心中大疑	-11986
心中甚喜	-11987
心中郁闷	-11988
心腹之人	-11989
必有伏兵	-11990
忠义之心	-11991
忽人报曰	-11992
忽报天子	-11993
忽然惊觉	-11994
思得一计	-11995
悔之何及	-11996
懿大惊曰	-11997
我死之后	-11998
我等皆是	-11999
截住厮杀	-12000
截其归路	-12001
截杀一阵	-12002
所骑之马	-12003
手摇羽扇	-12004
打将下来	-12005
扬州刺史	-12006
投华容道	-12007
折箭为誓	-12008
报入成都	-12009
披发跣足	-12010
抵当不住	-12011
拂袖而去	-12012
拆书视之	-12013
拍马向前	-12014
拍马赶来	-12015
招军买马	-12016
拜辞而去	-12017
拨回马走	-12018
拨马回走	-12019
拨马而回	-12020
拱手谢曰	-12021
挥刀来迎	-12022
挺枪来刺	-12023
挺枪骤马	-12024
授以密计	-12025
探听消息	-12026
推病不出	-12027
提刀上马	-12028
操令许褚	-12029
操大笑曰	-12030
操问其故	-12031
收兵回寨	-12032
收军回寨	-12033
收拾船只	-12034
收聚败兵	-12035
攻打樊城	-12036
散骑常侍	-12037
数万之众	-12038
数百余人	-12039
文武各官	-12040
文武商议	-12041
文武官员	-12042
斩蛇起义	-12043
斩首号令	-12044
旌旗蔽日	-12045
无可奈何	-12046
无名下将	-12047
无用之人	-12048
无谋之辈	-12049
昏倒于地	-12050
智勇足备	-12051
曹兵大乱	-12052
曹操奸计	-12053
有何良策	-12054
有勇无谋	-12055
有死而已	-12056
未得其人	-12057
未得其便	-12058
未敢轻动	-12059
未知胜负	-12060
杀上山来	-12061
杀下关来	-12062
杀之未迟	-12063
杀入城中	-12064
杀父之仇	-12065
杀牛宰马	-12066
来投曹操	-12067
来日决战	-12068
果有此事	-12069
桂阳三郡	-12070
歃血为盟	-12071
正在寨中	-12072
正赶之间	-12073
此是何人	-12074
死于马下	-12075
汝何人也	-12076
汝勿多言	-12077
江夏之兵	-12078
沓中屯田	-12079
沿江一带	-12080
活命之恩	-12081
浩浩荡荡	-12082
深有谋略	-12083
溺于酒色	-12084
火光大起	-12085
火起为号	-12086
烧绝栈道	-12087
父母妻子	-12088
片甲不回	-12089
特来投降	-12090
特来接应	-12091
献与丞相	-12092
玄德便教	-12093
玄德引关	-12094
玄德慌忙	-12095
玄德看了	-12096
玄德看毕	-12097
玄德视之	-12098
玄德问曰	-12099
玄德领命	-12100
生擒刘备	-12101
生死之交	-12102
用武之地	-12103
画成图本	-12104
白袍银铠	-12105
百万军中	-12106
百战百胜	-12107
皆斩于市	-12108
皇天后土	-12109
看了一遍	-12110
真当世之	-12111
砍为两段	-12112
祸不远矣	-12113
秋雨连绵	-12114
积草屯粮	-12115
立陈留王	-12116
立马阵前	-12117
端坐一人	-12118
笑而不答	-12119
筑起土城	-12120
箭如飞蝗	-12121
精兵五万	-12122
糜二夫人	-12123
紫虚上人	-12124
纵马挺枪	-12125
纵马提刀	-12126
细作报说	-12127
结连东吴	-12128
维大喜曰	-12129
罪不容诛	-12130
羞惭满面	-12131
耀武扬威	-12132
老母妻子	-12133
聚众谋士	-12134
背后有人	-12135
胜负不分	-12136
脚孔分墨	-12137
自取其祸	-12138
自回成都	-12139
自外而入	-12140
自相吞并	-12141
自相掩杀	-12142
自相残害	-12143
自统大军	-12144
苦谏不从	-12145
荀彧谏曰	-12146
荆州刺史	-12147
荆襄之众	-12148
荆襄之民	-12149
落荒而走	-12150
蜀主刘禅	-12151
蜀兵之后	-12152
蜀汉建兴	-12153
行军司马	-12154
行无数里	-12155
袁绍手下	-12156
西凉之兵	-12157
西凉军马	-12158
讨司马昭	-12159
诞大怒曰	-12160
诡计极多	-12161
说犹未了	-12162
诸将皆曰	-12163
诸葛亮之	-12164
诸葛子瑜	-12165
谁可为使	-12166
调练军马	-12167
谈笑自若	-12168
谓孔明曰	-12169
谓群臣曰	-12170
败军之将	-12171
贼势浩大	-12172
贼将休走	-12173
赏劳三军	-12174
赐以酒食	-12175
赚开城门	-12176
赵云出马	-12177
身带重伤	-12178
身长七尺	-12179
违令者斩	-12180
迤逦前进	-12181
退二十里	-12182
退后便走	-12183
送出城外	-12184
遮拦不住	-12185
邀入后堂	-12186
邓艾父子	-12187
郝昭病重	-12188
郭汜领兵	-12189
酒至数巡	-12190
重赏三军	-12191
金鼓齐鸣	-12192
镇东将军	-12193
长史杨仪	-12194
长子曹丕	-12195
长安去了	-12196
长水校尉	-12197
问众将曰	-12198
闻之大惊	-12199
阴云布合	-12200
阴平小路	-12201
陈仓道口	-12202
陈留王曰	-12203
陈说利害	-12204
降者无数	-12205
随后进发	-12206
雅丹丞相	-12207
青龙偃月	-12208
非丈夫也	-12209
非英雄也	-12210
面如冠玉	-12211
鞭挞士卒	-12212
顺流而下	-12213
须误了我	-12214
领了言语	-12215
领兵五千	-12216
领兵军官	-12217
领兵去了	-12218
领命去了	-12219
领计去了	-12220
飞奔前来	-12221
飞砂走石	-12222
马腾父子	-12223
马超英勇	-12224
骤马挺枪	-12225
高声大叫	-12226
魏主曹奂	-12227
魏兵方退	-12228
魏延领命	-12229
黄巾余党	-12230
鼓噪呐喊	-12231
龙骧将军	-12232
▁却说孟获	-12233
▁却说曹仁	-12234
▁却说李傕	-12235
▁却说袁术	-12236
▁却说郭淮	-12237
▁诸葛亮智	-12238
一彪军摆开	-12239
一彪军杀入	-12240
两路军杀出	-12241
两路军杀来	-12242
乃司马懿也	-12243
乃汉室宗亲	-12244
乃谓众将曰	-12245
乃魏之名将	-12246
于是司马懿	-12247
五百校刀手	-12248
以上宾之礼	-12249
伏于山谷中	-12250
传令教军士	-12251
公安傅士仁	-12252
刀斧手推出	-12253
勃然大怒曰	-12254
却说曹操在	-12255
厉声而言曰	-12256
孔明在山上	-12257
孔明大怒曰	-12258
孔明大惊曰	-12259
寻土人问之	-12260
引一千军去	-12261
战到三十合	-12262
折一人一骑	-12263
抚掌大笑曰	-12264
拥百万之众	-12265
更兼诸葛亮	-12266
有何面目见	-12267
望山路而走	-12268
次子司马昭	-12269
汉室可兴矣	-12270
燕人张翼德	-12271
王平分付曰	-12272
皆汉室宗亲	-12273
者不计其数	-12274
聚众将商议	-12275
聚文武商议	-12276
见魏兵势大	-12277
赵云引一军	-12278
长子司马师	-12279
顾谓众将曰	-12280
马岱分付曰	-12281
......	-12282
一枪刺落马下	-12283
不知何处兵来	-12284
不知何处去了	-12285
六郡八十一州	-12286
只宜深沟高垒	-12287
四面喊声大震	-12288
在此等候多时	-12289
天水太守王颀	-12290
孔明谓玄德曰	-12291
将计就计而行	-12292
张飞大喝一声	-12293
曹操性命如何	-12294
未知此人是谁	-12295
武士推出斩之	-12296
玄德急止之曰	-12297
经天纬地之才	-12298
背后喊声大震	-12299
西凉太守马腾	-12300
退三十里下寨	-12301
金城太守杨欣	-12302
陇西太守牵弘	-12303
首尾不能相顾	-12304
驱驾木牛流马	-12305
叱武士推出斩之	-12306
吾乃常山赵子龙也	-12307
!?	-12308
16	-12309
2)	-12310
7)	-12311
7.	-12312
8.	-12313
’。	-12314
▁会	-12315
▁公	-12316
▁帝	-12317
▁恪	-12318
▁战	-12319
▁方	-12320
▁昭	-12321
▁睿	-12322
▁破	-12323
▁策	-12324
】【	-12325
チ恕	-12326
一乘	-12327
一会	-12328
一停	-12329
一击	-12330
一副	-12331
一变	-12332
一国	-12333
一图	-12334
一境	-12335
一失	-12336
一婢	-12337
一宿	-12338
一寨	-12339
一屯	-12340
一山	-12341
一岁	-12342
一幅	-12343
一弩	-12344
一心	-12345
一木	-12346
一杯	-12347
一棒	-12348
一武	-12349
一盏	-12350
一盘	-12351
一目	-12352
一空	-12353
一笑	-12354
一览	-12355
一角	-12356
一课	-12357
一起	-12358
一遭	-12359
一醉	-12360
一龙	-12361
丁建	-12362
七分	-12363
七庙	-12364
七擒	-12365
七步	-12366
七盏	-12367
万勿	-12368
万匹	-12369
万望	-12370
三停	-12371
三卷	-12372
三四	-12373
三夜	-12374
三层	-12375
三弟	-12376
三思	-12377
三洞	-12378
三载	-12379
上作	-12380
上党	-12381
上厅	-12382
上合	-12383
上命	-12384
上坐	-12385
上坡	-12386
上建	-12387
上桥	-12388
上楼	-12389
上玉	-12390
上缚	-12391
上覆	-12392
下回	-12393
下定	-12394
下岭	-12395
下席	-12396
下得	-12397
下御	-12398
下桥	-12399
下用	-12400
下者	-12401
下视	-12402
下计	-12403
下辨	-12404
下问	-12405
不一	-12406
不亚	-12407
不会	-12408
不依	-12409
不保	-12410
不倦	-12411
不做	-12412
不免	-12413
不准	-12414
不妨	-12415
不守	-12416
不密	-12417
不尊	-12418
不建	-12419
不归	-12420
不忿	-12421
不惜	-12422
不拜	-12423
不断	-12424
不晓	-12425
不智	-12426
不有	-12427
不正	-12428
不毛	-12429
不求	-12430
不消	-12431
不生	-12432
不立	-12433
不竭	-12434
不纳	-12435
不肖	-12436
不背	-12437
不虞	-12438
不趋	-12439
不辱	-12440
不迭	-12441
不追	-12442
不间	-12443
与云	-12444
与儁	-12445
与布	-12446
与帝	-12447
与朕	-12448
与渊	-12449
与臣	-12450
与艾	-12451
与魏	-12452
专以	-12453
专制	-12454
专务	-12455
且到	-12456
且容	-12457
且教	-12458
且有	-12459
且歇	-12460
且请	-12461
世人	-12462
世矣	-12463
东下	-12464
东取	-12465
东有	-12466
丢下	-12467
两傍	-12468
两全	-12469
两兵	-12470
两国	-12471
两寨	-12472
两岸	-12473
两把	-12474
两月	-12475
两朝	-12476
两郡	-12477
两都	-12478
两骑	-12479
严兵	-12480
严纲	-12481
丧于	-12482
个字	-12483
中外	-12484
中平	-12485
中涓	-12486
中风	-12487
临亡	-12488
临难	-12489
丹凤	-12490
丹墀	-12491
为不	-12492
为中	-12493
为乐	-12494
为仇	-12495
为今	-12496
为儿	-12497
为兄	-12498
为助	-12499
为叔	-12500
为妙	-12501
为婿	-12502
为安	-12503
为宣	-12504
为幸	-12505
为次	-12506
为汝	-12507
为臣	-12508
为龙	-12509
主持	-12510
主灯	-12511
主见	-12512
举起	-12513
乃为	-12514
乃亲	-12515
乃叱	-12516
乃告	-12517
乃往	-12518
乃得	-12519
乃有	-12520
乃移	-12521
乃说	-12522
久不	-12523
久停	-12524
久后	-12525
久战	-12526
久留	-12527
久镇	-12528
义也	-12529
义渠	-12530
之一	-12531
之世	-12532
之会	-12533
之利	-12534
之北	-12535
之原	-12536
之变	-12537
之器	-12538
之固	-12539
之国	-12540
之夫	-12541
之学	-12542
之安	-12543
之弓	-12544
之强	-12545
之怒	-12546
之怨	-12547
之明	-12548
之服	-12549
之权	-12550
之欲	-12551
之死	-12552
之比	-12553
之瑞	-12554
之盛	-12555
之矣	-12556
之粮	-12557
之能	-12558
之节	-12559
之词	-12560
之象	-12561
之躯	-12562
之降	-12563
之风	-12564
乐宫	-12565
乐就	-12566
乘便	-12567
乘着	-12568
乘胜	-12569
九五	-12570
九里	-12571
乞命	-12572
也到	-12573
乡民	-12574
书到	-12575
书记	-12576
乱世	-12577
乱吾	-12578
乱射	-12579
乱矣	-12580
乱贼	-12581
争取	-12582
争战	-12583
事主	-12584
二兄	-12585
二客	-12586
二王	-12587
二罪	-12588
二里	-12589
二队	-12590
二颗	-12591
于世	-12592
于尊	-12593
于心	-12594
于怀	-12595
于水	-12596
于汉	-12597
于江	-12598
于糜	-12599
于道	-12600
亏得	-12601
云乃	-12602
云急	-12603
云谓	-12604
云集	-12605
五凤	-12606
五寨	-12607
五斗	-12608
五次	-12609
亡则	-12610
亡父	-12611
交付	-12612
交契	-12613
交情	-12614
交辉	-12615
交集	-12616
亦俱	-12617
亦出	-12618
亦各	-12619
亦将	-12620
亦自	-12621
京城	-12622
亭下	-12623
亮受	-12624
亮所	-12625
亲兄	-12626
亲去	-12627
亲女	-12628
亲捧	-12629
亲诣	-12630
人去	-12631
人夫	-12632
人将	-12633
人役	-12634
人所	-12635
人无	-12636
人耳	-12637
人语	-12638
人说	-12639
什物	-12640
仁者	-12641
今亦	-12642
今人	-12643
今先	-12644
今公	-12645
今反	-12646
今因	-12647
今天	-12648
今岁	-12649
今我	-12650
今朕	-12651
今某	-12652
今汝	-12653
今用	-12654
今绍	-12655
今蒙	-12656
仍前	-12657
仍回	-12658
仍复	-12659
从公	-12660
从地	-12661
从权	-12662
仓库	-12663
仓曰	-12664
他也	-12665
他往	-12666
他必	-12667
他是	-12668
付托	-12669
仙庄	-12670
代禀	-12671
令佗	-12672
令作	-12673
令刘	-12674
令取	-12675
令吴	-12676
令备	-12677
令守	-12678
令彼	-12679
令臣	-12680
以丧	-12681
以代	-12682
以刀	-12683
以制	-12684
以取	-12685
以定	-12686
以宾	-12687
以师	-12688
以弓	-12689
以愚	-12690
以擒	-12691
以敌	-12692
以显	-12693
以服	-12694
以杖	-12695
以枪	-12696
以某	-12697
以破	-12698
以私	-12699
以至	-12700
以讨	-12701
以赎	-12702
以遏	-12703
以金	-12704
以鸩	-12705
仰视	-12706
仲德	-12707
伍孚	-12708
伍延	-12709
伍琼	-12710
伏下	-12711
伏侍	-12712
伏剑	-12713
伏望	-12714
伏自	-12715
休慌	-12716
休言	-12717
休说	-12718
众位	-12719
会上	-12720
会接	-12721
会议	-12722
会饮	-12723
传与	-12724
传授	-12725
伤者	-12726
伦直	-12727
伯苗	-12728
伺隙	-12729
但备	-12730
但得	-12731
但是	-12732
但说	-12733
位极	-12734
低声	-12735
何可	-12736
何喜	-12737
何待	-12738
何曼	-12739
何独	-12740
何自	-12741
何至	-12742
何难	-12743
何颜	-12744
余兵	-12745
余杭	-12746
余者	-12747
作事	-12748
作何	-12749
作歌	-12750
作祸	-12751
作表	-12752
你且	-12753
你们	-12754
你甚	-12755
你这	-12756
佥曰	-12757
佯醉	-12758
佳节	-12759
佳酿	-12760
使备	-12761
使弟	-12762
使操	-12763
使来	-12764
使贼	-12765
侍从	-12766
侍卫	-12767
供奉	-12768
依其	-12769
依计	-12770
侥幸	-12771
侯选	-12772
便为	-12773
便以	-12774
便同	-12775
便宜	-12776
便引	-12777
便投	-12778
便跳	-12779
俊毙	-12780
俘长	-12781
保国	-12782
保汝	-12783
俞涉	-12784
信之	-12785
修德	-12786
修短	-12787
俯伏	-12788
俯首	-12789
俱发	-12790
俱曰	-12791
俱罚	-12792
候之	-12793
倾危	-12794
假意	-12795
做一	-12796
偶人	-12797
偶至	-12798
偶见	-12799
偷生	-12800
傍若	-12801
傩眨	-12802
催取	-12803
傲醣	-12804
儒生	-12805
兄今	-12806
兄言	-12807
充军	-12808
兆也	-12809
先君	-12810
先尝	-12811
先报	-12812
先据	-12813
先是	-12814
先有	-12815
先杀	-12816
先皇	-12817
先自	-12818
先见	-12819
先走	-12820
先起	-12821
先通	-12822
先除	-12823
入县	-12824
入堂	-12825
入奏	-12826
入洞	-12827
入白	-12828
入膏	-12829
入船	-12830
入谷	-12831
入贡	-12832
入辞	-12833
全尚	-12834
全师	-12835
全怿	-12836
全获	-12837
八卦	-12838
公不	-12839
公主	-12840
公勿	-12841
公宜	-12842
公当	-12843
公悌	-12844
公来	-12845
公真	-12846
公能	-12847
六七	-12848
六人	-12849
六十	-12850
六旬	-12851
共伐	-12852
共分	-12853
共成	-12854
共相	-12855
共知	-12856
共语	-12857
共起	-12858
关纯	-12859
兵乎	-12860
兵势	-12861
兵回	-12862
兵机	-12863
其使	-12864
其功	-12865
其可	-12866
其官	-12867
其形	-12868
其时	-12869
其毒	-12870
其洞	-12871
其职	-12872
其肉	-12873
其舌	-12874
其谶	-12875
其降	-12876
其风	-12877
其马	-12878
具朝	-12879
具述	-12880
典军	-12881
养兵	-12882
养军	-12883
兼有	-12884
兼道	-12885
内一	-12886
内中	-12887
内室	-12888
内披	-12889
再复	-12890
再擒	-12891
再放	-12892
再生	-12893
再说	-12894
写于	-12895
军于	-12896
军出	-12897
军容	-12898
军有	-12899
军校	-12900
冠冕	-12901
冬月	-12902
冲到	-12903
冲散	-12904
冲波	-12905
冲要	-12906
冲车	-12907
决意	-12908
决断	-12909
决水	-12910
决矣	-12911
决胜	-12912
凡有	-12913
凭吊	-12914
凯曰	-12915
凶逆	-12916
出众	-12917
出到	-12918
出敌	-12919
出生	-12920
出示	-12921
出血	-12922
出西	-12923
击贼	-12924
刀剑	-12925
分争	-12926
分于	-12927
分崩	-12928
分晓	-12929
分毫	-12930
分调	-12931
分道	-12932
列坐	-12933
刘丞	-12934
刘放	-12935
刘泌	-12936
刘虞	-12937
刘陶	-12938
则先	-12939
则失	-12940
则难	-12941
初登	-12942
初见	-12943
初觉	-12944
初附	-12945
别去	-12946
别帐	-12947
刮骨	-12948
到今	-12949
到门	-12950
制胜	-12951
前奔	-12952
前寨	-12953
前杠	-12954
前番	-12955
前船	-12956
前营	-12957
剐之	-12958
剑印	-12959
剑落	-12960
副之	-12961
割之	-12962
割了	-12963
割须	-12964
剿杀	-12965
力取	-12966
力攻	-12967
力敌	-12968
力斩	-12969
力难	-12970
劝住	-12971
劝免	-12972
劝我	-12973
劝操	-12974
劝朕	-12975
劝解	-12976
功高	-12977
助恶	-12978
劫了	-12979
劳困	-12980
势力	-12981
勒住	-12982
勿忘	-12983
勿生	-12984
勿致	-12985
勿言	-12986
勿负	-12987
北山	-12988
北平	-12989
北邙	-12990
医也	-12991
医者	-12992
十丈	-12993
十年	-12994
十斤	-12995
十胜	-12996
十辆	-12997
千员	-12998
千百	-12999
千载	-13000
升堂	-13001
午后	-13002
半年	-13003
华覈	-13004
协助	-13005
协同	-13006
卓出	-13007
单于	-13008
单刀	-13009
单衣	-13010
单马	-13011
卖官	-13012
南军	-13013
南向	-13014
南有	-13015
南船	-13016
南谷	-13017
博士	-13018
博览	-13019
卧床	-13020
卧牛	-13021
卫曰	-13022
危笃	-13023
危险	-13024
即于	-13025
即封	-13026
即用	-13027
即除	-13028
却与	-13029
却得	-13030
却放	-13031
却早	-13032
却遇	-13033
卷名	-13034
卷地	-13035
卸了	-13036
卿以	-13037
卿父	-13038
压境	-13039
厚德	-13040
原系	-13041
去之	-13042
去夺	-13043
去攻	-13044
去方	-13045
去解	-13046
去远	-13047
县前	-13048
县官	-13049
参差	-13050
又兼	-13051
又哭	-13052
又喜	-13053
又嘱	-13054
又大	-13055
又密	-13056
又封	-13057
又教	-13058
又置	-13059
又选	-13060
又遭	-13061
及今	-13062
双戟	-13063
反意	-13064
反矣	-13065
反者	-13066
反而	-13067
反臣	-13068
反遭	-13069
发哀	-13070
发怒	-13071
发百	-13072
取城	-13073
取物	-13074
受令	-13075
受戮	-13076
受汉	-13077
受职	-13078
受诛	-13079
受责	-13080
受辱	-13081
变成	-13082
叛君	-13083
古怪	-13084
古者	-13085
另作	-13086
只一	-13087
只叫	-13088
只愿	-13089
只此	-13090
只箭	-13091
只索	-13092
只落	-13093
只身	-13094
只领	-13095
叫反	-13096
召来	-13097
可发	-13098
可同	-13099
可夺	-13100
可守	-13101
可容	-13102
可当	-13103
可恨	-13104
可报	-13105
可收	-13106
可救	-13107
可断	-13108
可无	-13109
可早	-13110
可来	-13111
可脱	-13112
台以	-13113
叱之	-13114
史官	-13115
右出	-13116
右旅	-13117
号带	-13118
号曰	-13119
各事	-13120
各尽	-13121
各怀	-13122
各据	-13123
各相	-13124
各言	-13125
各设	-13126
各诉	-13127
各跨	-13128
各逃	-13129
各镇	-13130
各霸	-13131
合为	-13132
合死	-13133
同列	-13134
同受	-13135
同坐	-13136
同声	-13137
同姓	-13138
同日	-13139
同理	-13140
同罪	-13141
同胞	-13142
同郡	-13143
名吉	-13144
名垂	-13145
名誉	-13146
名闻	-13147
名震	-13148
名马	-13149
后世	-13150
后图	-13151
后妃	-13152
后妻	-13153
后寨	-13154
后日	-13155
后生	-13156
后至	-13157
后院	-13158
向南	-13159
吕望	-13160
君以	-13161
君其	-13162
君当	-13163
君恩	-13164
君王	-13165
君等	-13166
吞蜀	-13167
否则	-13168
含泪	-13169
听命	-13170
听计	-13171
听说	-13172
听调	-13173
吴中	-13174
吴敦	-13175
吴民	-13176
吴狗	-13177
吴纲	-13178
吴船	-13179
吾一	-13180
吾使	-13181
吾再	-13182
吾女	-13183
吾姓	-13184
吾家	-13185
吾尚	-13186
吾待	-13187
吾思	-13188
吾恐	-13189
吾曾	-13190
吾本	-13191
吾生	-13192
吾看	-13193
吾终	-13194
吾视	-13195
呈与	-13196
告于	-13197
告别	-13198
告戒	-13199
告报	-13200
告求	-13201
告称	-13202
周毖	-13203
呵呵	-13204
呻吟	-13205
呼为	-13206
呼我	-13207
呼曰	-13208
呼风	-13209
命为	-13210
命人	-13211
命坐	-13212
命尽	-13213
和气	-13214
和解	-13215
哑泉	-13216
哭到	-13217
哭耶	-13218
唤雨	-13219
商人	-13220
商量	-13221
啸聚	-13222
善使	-13223
善晓	-13224
喝住	-13225
喝教	-13226
喟然	-13227
嗜酒	-13228
嗟呀	-13229
嗣子	-13230
嘉平	-13231
嘉德	-13232
囚在	-13233
四五	-13234
四分	-13235
四宝	-13236
回师	-13237
回望	-13238
回观	-13239
因何	-13240
因得	-13241
因惧	-13242
困在	-13243
困龙	-13244
围场	-13245
围猎	-13246
固辞	-13247
固非	-13248
国中	-13249
国士	-13250
图谋	-13251
土填	-13252
圣上	-13253
圣贤	-13254
在东	-13255
在先	-13256
在吴	-13257
在天	-13258
在庄	-13259
在心	-13260
在魏	-13261
圭瓒	-13262
地耶	-13263
坐上	-13264
坐着	-13265
坐领	-13266
坚为	-13267
坚军	-13268
坛前	-13269
坦然	-13270
埋之	-13271
埋锅	-13272
塞满	-13273
塞野	-13274
墩台	-13275
壁间	-13276
壕堑	-13277
士也	-13278
处斩	-13279
处置	-13280
备细	-13281
备自	-13282
备请	-13283
复发	-13284
复战	-13285
复杀	-13286
复至	-13287
夏恂	-13288
外事	-13289
外面	-13290
夙夜	-13291
多人	-13292
多军	-13293
多得	-13294
多才	-13295
多矣	-13296
多立	-13297
多负	-13298
夜宿	-13299
夜至	-13300
夜走	-13301
大凶	-13302
大厦	-13303
大吉	-13304
大声	-13305
大失	-13306
大悔	-13307
大患	-13308
大惧	-13309
大戟	-13310
大排	-13311
大星	-13312
大木	-13313
大梁	-13314
大殿	-13315
大砍	-13316
大索	-13317
大统	-13318
大胆	-13319
大计	-13320
大谋	-13321
大赏	-13322
大魏	-13323
天人	-13324
天寒	-13325
天已	-13326
天晓	-13327
天败	-13328
天际	-13329
天雨	-13330
太医	-13331
太牢	-13332
太虚	-13333
失于	-13334
失利	-13335
失却	-13336
失口	-13337
失语	-13338
失身	-13339
头营	-13340
夺剑	-13341
夺吾	-13342
奇花	-13343
奇计	-13344
奇谋	-13345
奈有	-13346
奉上	-13347
奉操	-13348
奎曰	-13349
奔溃	-13350
奔过	-13351
女子	-13352
女巫	-13353
女衣	-13354
好心	-13355
好谋	-13356
如不	-13357
如从	-13358
如公	-13359
如天	-13360
如彼	-13361
如探	-13362
如梦	-13363
如潮	-13364
如肯	-13365
如遇	-13366
如醉	-13367
如麻	-13368
妄取	-13369
妄自	-13370
妆奁	-13371
妒忌	-13372
妙龄	-13373
妾当	-13374
始初	-13375
始殿	-13376
始终	-13377
姓华	-13378
姓庞	-13379
姓董	-13380
姓赵	-13381
姓黄	-13382
威仪	-13383
威德	-13384
威逼	-13385
婴儿	-13386
嫁资	-13387
子女	-13388
子弟	-13389
子房	-13390
孔文	-13391
字义	-13392
字也	-13393
字幼	-13394
字显	-13395
存日	-13396
孙亮	-13397
孙异	-13398
孙武	-13399
孙皎	-13400
孙韶	-13401
孝道	-13402
孤军	-13403
孤欲	-13404
学道	-13405
宅中	-13406
守也	-13407
守台	-13408
守坛	-13409
守边	-13410
安丰	-13411
安危	-13412
安喜	-13413
安坐	-13414
安然	-13415
安邑	-13416
安闲	-13417
宋果	-13418
完办	-13419
宕渠	-13420
宗正	-13421
官任	-13422
官兵	-13423
官爵	-13424
官诰	-13425
官道	-13426
定下	-13427
定了	-13428
定数	-13429
定议	-13430
宜即	-13431
宝位	-13432
实信	-13433
实告	-13434
实无	-13435
实是	-13436
实有	-13437
实赖	-13438
审荣	-13439
宣进	-13440
宪曰	-13441
宫外	-13442
宫官	-13443
宫阙	-13444
宫院	-13445
害他	-13446
宴饮	-13447
家财	-13448
家贫	-13449
家门	-13450
容吾	-13451
宽怀	-13452
宽洪	-13453
密与	-13454
密处	-13455
密密	-13456
密林	-13457
密语	-13458
富户	-13459
富春	-13460
寓居	-13461
寨口	-13462
寨时	-13463
寰宇	-13464
寻之	-13465
寻着	-13466
封侯	-13467
封官	-13468
封渊	-13469
封闭	-13470
射去	-13471
射回	-13472
将上	-13473
将佐	-13474
将勇	-13475
将印	-13476
将去	-13477
将城	-13478
将张	-13479
将斩	-13480
将此	-13481
将船	-13482
将覆	-13483
将诏	-13484
将马	-13485
尊命	-13486
尊大	-13487
尊颜	-13488
小利	-13489
小枝	-13490
小民	-13491
小疾	-13492
小计	-13493
小麦	-13494
少事	-13495
少府	-13496
少谋	-13497
尔乃	-13498
尖刀	-13499
尚不	-13500
尚父	-13501
尚问	-13502
尝以	-13503
尝闻	-13504
就席	-13505
就缚	-13506
尹礼	-13507
尹赏	-13508
尽为	-13509
尽去	-13510
尽在	-13511
尽封	-13512
尽属	-13513
尽带	-13514
尽废	-13515
尽情	-13516
尽打	-13517
尽湿	-13518
尽绝	-13519
尽言	-13520
居之	-13521
屈节	-13522
屋上	-13523
屋中	-13524
屡战	-13525
屡次	-13526
屡犯	-13527
山也	-13528
山傍	-13529
山冈	-13530
山势	-13531
山岭	-13532
山崩	-13533
岁矣	-13534
岂无	-13535
岂独	-13536
岑璧	-13537
岭上	-13538
岸边	-13539
峨嵋	-13540
崔勇	-13541
崩裂	-13542
嵩曰	-13543
巍巍	-13544
川将	-13545
州县	-13546
州泰	-13547
巡船	-13548
巡视	-13549
巢湖	-13550
左寨	-13551
左玄	-13552
左腿	-13553
左贤	-13554
巧匠	-13555
已久	-13556
已使	-13557
已先	-13558
已办	-13559
已历	-13560
已差	-13561
已归	-13562
已往	-13563
已折	-13564
已杀	-13565
已经	-13566
已衰	-13567
已见	-13568
巴中	-13569
布之	-13570
布令	-13571
布成	-13572
布袍	-13573
布请	-13574
帆幔	-13575
帝命	-13576
帝封	-13577
帝心	-13578
帝时	-13579
帝知	-13580
带去	-13581
席卷	-13582
常事	-13583
干休	-13584
干到	-13585
平侯	-13586
平吞	-13587
平川	-13588
平矣	-13589
年少	-13590
年已	-13591
年近	-13592
年齿	-13593
并举	-13594
并其	-13595
并所	-13596
幸赖	-13597
幼主	-13598
广汉	-13599
庄后	-13600
庄客	-13601
庆喜	-13602
床后	-13603
库内	-13604
应变	-13605
应对	-13606
应承	-13607
庞舒	-13608
废之	-13609
度日	-13610
庵后	-13611
康曰	-13612
廊下	-13613
延之	-13614
延津	-13615
延熙	-13616
开口	-13617
开基	-13618
开目	-13619
异志	-13620
弃关	-13621
弃船	-13622
弃袍	-13623
弄险	-13624
弓矢	-13625
弟董	-13626
张举	-13627
张先	-13628
张华	-13629
张当	-13630
张特	-13631
张等	-13632
张绍	-13633
张象	-13634
张遵	-13635
张钧	-13636
弥天	-13637
弦响	-13638
强中	-13639
强壮	-13640
强弱	-13641
归乡	-13642
归告	-13643
归国	-13644
归天	-13645
归心	-13646
归我	-13647
归田	-13648
归矣	-13649
归罪	-13650
归蜀	-13651
归见	-13652
归还	-13653
当灭	-13654
当诛	-13655
形如	-13656
影里	-13657
彻里	-13658
彼阵	-13659
往西	-13660
征袍	-13661
征鼙	-13662
径进	-13663
待客	-13664
徐商	-13665
得病	-13666
得知	-13667
得马	-13668
御前	-13669
微功	-13670
微露	-13671
德伟	-13672
心窝	-13673
心胆	-13674
必喜	-13675
必因	-13676
必尽	-13677
必怒	-13678
必成	-13679
必投	-13680
必轻	-13681
必速	-13682
忍也	-13683
忍耐	-13684
志也	-13685
忘了	-13686
忙牙	-13687
忠又	-13688
忠心	-13689
忠烈	-13690
念其	-13691
念咒	-13692
忽到	-13693
忽遇	-13694
忿忿	-13695
怀怨	-13696
怎地	-13697
怎得	-13698
怜而	-13699
思远	-13700
急投	-13701
急报	-13702
急拔	-13703
急掣	-13704
急攻	-13705
急遣	-13706
怨鬼	-13707
恃功	-13708
恃勇	-13709
恐中	-13710
恐怖	-13711
恐惹	-13712
恐被	-13713
恣意	-13714
恨吾	-13715
恨曰	-13716
恩信	-13717
恩养	-13718
恩惠	-13719
恩礼	-13720
恩遇	-13721
恭俭	-13722
恭祖	-13723
恰欲	-13724
恶党	-13725
悚惧	-13726
悬首	-13727
情耶	-13728
惆怅	-13729
惊怪	-13730
惊恐	-13731
惟恐	-13732
惯熟	-13733
愈怒	-13734
意乎	-13735
愚见	-13736
感伤	-13737
感公	-13738
愤恨	-13739
愿公	-13740
愿助	-13741
愿即	-13742
愿去	-13743
愿听	-13744
愿守	-13745
愿请	-13746
慢行	-13747
憔悴	-13748
懦夫	-13749
戈戟	-13750
戏言	-13751
成廉	-13752
成此	-13753
成皋	-13754
我便	-13755
我在	-13756
我奉	-13757
我寡	-13758
我将	-13759
我料	-13760
我方	-13761
我既	-13762
我死	-13763
我的	-13764
我知	-13765
我者	-13766
我虽	-13767
战了	-13768
战于	-13769
战具	-13770
战则	-13771
战功	-13772
战场	-13773
战士	-13774
战无	-13775
战时	-13776
战至	-13777
战退	-13778
截杀	-13779
戮之	-13780
房内	-13781
房陵	-13782
所传	-13783
所使	-13784
所哭	-13785
所困	-13786
所夺	-13787
所算	-13788
所行	-13789
所请	-13790
所谋	-13791
所辱	-13792
所迷	-13793
所遗	-13794
手段	-13795
才德	-13796
才过	-13797
打了	-13798
打你	-13799
托以	-13800
执戟	-13801
执手	-13802
执旗	-13803
执杯	-13804
扫荡	-13805
扬声	-13806
扬言	-13807
扭转	-13808
扰乱	-13809
扶帝	-13810
扶持	-13811
扶老	-13812
承嗣	-13813
把船	-13814
投东	-13815
投之	-13816
投奔	-13817
投拜	-13818
投献	-13819
投西	-13820
投递	-13821
折军	-13822
抚恤	-13823
抚谕	-13824
抢入	-13825
披麻	-13826
抬头	-13827
抱住	-13828
抹朱	-13829
押后	-13830
拈阄	-13831
拒我	-13832
拒曹	-13833
拚将	-13834
招魂	-13835
拜为	-13836
拜求	-13837
拥将	-13838
拦阻	-13839
拨兵	-13840
拨转	-13841
拷问	-13842
持戈	-13843
持矛	-13844
持诏	-13845
挂齿	-13846
指画	-13847
按住	-13848
按月	-13849
挑担	-13850
挽牌	-13851
捐躯	-13852
损一	-13853
损折	-13854
换了	-13855
授计	-13856
排列	-13857
掘下	-13858
探病	-13859
探细	-13860
接了	-13861
接来	-13862
推却	-13863
掩饰	-13864
掷下	-13865
插剑	-13866
插旗	-13867
携干	-13868
携幼	-13869
摆在	-13870
摩天	-13871
撇了	-13872
撞入	-13873
撤去	-13874
操亦	-13875
操从	-13876
操使	-13877
操便	-13878
操取	-13879
操喜	-13880
操忽	-13881
操恐	-13882
操拨	-13883
操深	-13884
操皆	-13885
操者	-13886
操至	-13887
操闻	-13888
擒捉	-13889
擒汝	-13890
支持	-13891
收复	-13892
收录	-13893
改名	-13894
攻也	-13895
攻拔	-13896
放吾	-13897
故乡	-13898
故使	-13899
故吏	-13900
故托	-13901
故相	-13902
故知	-13903
故耳	-13904
故行	-13905
敌得	-13906
救去	-13907
救时	-13908
救民	-13909
救难	-13910
教某	-13911
教汝	-13912
散去	-13913
数尺	-13914
整备	-13915
敷之	-13916
文房	-13917
文若	-13918
文虎	-13919
斋戒	-13920
斗到	-13921
斩也	-13922
斩讫	-13923
新定	-13924
新破	-13925
新罚	-13926
新降	-13927
方便	-13928
方免	-13929
方寸	-13930
方开	-13931
方息	-13932
方来	-13933
方毕	-13934
方见	-13935
方起	-13936
方锐	-13937
方面	-13938
施朔	-13939
旗鼓	-13940
无军	-13941
无出	-13942
无处	-13943
无头	-13944
无奈	-13945
无守	-13946
无度	-13947
无意	-13948
无暇	-13949
无足	-13950
无遗	-13951
无问	-13952
既出	-13953
既平	-13954
既承	-13955
既斩	-13956
日也	-13957
日前	-13958
日期	-13959
旧寨	-13960
旧岁	-13961
早定	-13962
早晨	-13963
早立	-13964
早见	-13965
旱寨	-13966
时已	-13967
时常	-13968
时正	-13969
时近	-13970
明上	-13971
明告	-13972
明教	-13973
明旨	-13974
明知	-13975
昏乱	-13976
昏倒	-13977
昏迷	-13978
易耳	-13979
昔楚	-13980
昔者	-13981
星月	-13982
昨为	-13983
昨闻	-13984
昭令	-13985
昭等	-13986
是为	-13987
是岁	-13988
是年	-13989
是弃	-13990
是无	-13991
是绝	-13992
晋帝	-13993
晚也	-13994
晚矣	-13995
普曰	-13996
景元	-13997
智也	-13998
智力	-13999
智浅	-14000
智者	-14001
暂时	-14002
暗想	-14003
暗算	-14004
暗约	-14005
暗诵	-14006
曲直	-14007
更深	-14008
更立	-14009
曹寨	-14010
曹纯	-14011
曾为	-14012
最喜	-14013
最好	-14014
月内	-14015
有两	-14016
有为	-14017
有二	-14018
有德	-14019
有心	-14020
有才	-14021
有数	-14022
有文	-14023
有病	-14024
有累	-14025
有药	-14026
有要	-14027
有话	-14028
有隙	-14029
有黄	-14030
服人	-14031
服曰	-14032
朔风	-14033
朕想	-14034
朕故	-14035
朕若	-14036
望即	-14037
朝堂	-14038
朝见	-14039
木为	-14040
木履	-14041
未分	-14042
未央	-14043
未宁	-14044
未成	-14045
未服	-14046
未绝	-14047
未足	-14048
未还	-14049
未除	-14050
末年	-14051
本乡	-14052
本国	-14053
本待	-14054
本心	-14055
本非	-14056
朱户	-14057
机伯	-14058
杀备	-14059
杀起	-14060
权乃	-14061
权柄	-14062
权见	-14063
权闻	-14064
李伏	-14065
李别	-14066
李堪	-14067
李氏	-14068
李珪	-14069
李通	-14070
来仪	-14071
来告	-14072
来将	-14073
来拜	-14074
来捉	-14075
来春	-14076
来朝	-14077
来船	-14078
杨洪	-14079
松亦	-14080
松江	-14081
极好	-14082
果应	-14083
枪刺	-14084
枪搠	-14085
架隔	-14086
枷钉	-14087
柏梁	-14088
某之	-14089
某奉	-14090
某才	-14091
某料	-14092
某知	-14093
某见	-14094
某请	-14095
柑子	-14096
查渎	-14097
树上	-14098
桥东	-14099
梁刚	-14100
梁宽	-14101
梁父	-14102
梦寐	-14103
楼下	-14104
楼船	-14105
樊氏	-14106
樊能	-14107
横流	-14108
次后	-14109
次夜	-14110
次早	-14111
欢声	-14112
欲入	-14113
欲坠	-14114
欲尊	-14115
欲得	-14116
欲战	-14117
欲效	-14118
欲救	-14119
欲献	-14120
欲除	-14121
欲陷	-14122
欺主	-14123
欺他	-14124
欺天	-14125
歌罢	-14126
止于	-14127
止因	-14128
止带	-14129
止曰	-14130
正如	-14131
正撞	-14132
正无	-14133
正旦	-14134
正没	-14135
正虑	-14136
正须	-14137
此仇	-14138
此关	-14139
此危	-14140
此取	-14141
此吾	-14142
此寨	-14143
此恨	-14144
此榇	-14145
此番	-14146
此病	-14147
此真	-14148
此矣	-14149
此石	-14150
此臂	-14151
此诚	-14152
此败	-14153
此路	-14154
此门	-14155
步兵	-14156
步步	-14157
武事	-14158
武关	-14159
死乎	-14160
死耳	-14161
殊遇	-14162
残生	-14163
殷馗	-14164
毁骂	-14165
母曰	-14166
每人	-14167
每队	-14168
毒气	-14169
毒药	-14170
毛发	-14171
毡车	-14172
民夫	-14173
民安	-14174
民无	-14175
民殷	-14176
气喘	-14177
气满	-14178
水土	-14179
水旱	-14180
水泛	-14181
水者	-14182
求医	-14183
求援	-14184
求见	-14185
汉君	-14186
汉宁	-14187
汉统	-14188
汉臣	-14189
汗衫	-14190
汝去	-14191
汝心	-14192
汝是	-14193
汝肉	-14194
汝见	-14195
汝须	-14196
汤蹈	-14197
沃野	-14198
沔口	-14199
沔水	-14200
沛县	-14201
没了	-14202
沮鹄	-14203
油鼎	-14204
治疗	-14205
治病	-14206
沿河	-14207
泉水	-14208
泉涌	-14209
泣别	-14210
泥泞	-14211
泪如	-14212
泼水	-14213
洒扫	-14214
流光	-14215
海宇	-14216
涂面	-14217
涌泉	-14218
涧中	-14219
淋漓	-14220
深可	-14221
深喜	-14222
深荷	-14223
深重	-14224
混入	-14225
清朗	-14226
清水	-14227
清风	-14228
渐远	-14229
渑池	-14230
渔阳	-14231
渡淮	-14232
渭口	-14233
游猎	-14234
湿透	-14235
漠漠	-14236
漫天	-14237
漫漫	-14238
漫空	-14239
潘凤	-14240
潜龙	-14241
火势	-14242
火焚	-14243
火种	-14244
灭亡	-14245
灭门	-14246
灯下	-14247
灯光	-14248
灯影	-14249
灯灭	-14250
炎刘	-14251
点上	-14252
烈士	-14253
烧断	-14254
烧死	-14255
照旧	-14256
照鉴	-14257
燕雀	-14258
爪牙	-14259
父丧	-14260
片时	-14261
牙爪	-14262
牛斗	-14263
牛金	-14264
牡丹	-14265
牢笼	-14266
牵羊	-14267
特具	-14268
特奉	-14269
特差	-14270
犬耳	-14271
犯吾	-14272
犹疑	-14273
狂寇	-14274
狐兔	-14275
独不	-14276
独坐	-14277
独行	-14278
狭路	-14279
猖獗	-14280
猛兽	-14281
献书	-14282
献刀	-14283
献头	-14284
献茶	-14285
率领	-14286
玉石	-14287
王佐	-14288
王修	-14289
王垕	-14290
王惇	-14291
王氏	-14292
王气	-14293
王沈	-14294
王肃	-14295
王颀	-14296
玩好	-14297
环立	-14298
班曰	-14299
理说	-14300
琰曰	-14301
瑜亦	-14302
瑜以	-14303
瑜谓	-14304
瑜问	-14305
甘松	-14306
甘雨	-14307
甚也	-14308
甚事	-14309
甚合	-14310
甚大	-14311
甚得	-14312
甚疑	-14313
甚的	-14314
甚盛	-14315
甚重	-14316
生力	-14317
生平	-14318
生者	-14319
用事	-14320
用人	-14321
用力	-14322
用枪	-14323
用谋	-14324
用车	-14325
用青	-14326
申生	-14327
画堂	-14328
畋猎	-14329
界分	-14330
畏也	-14331
留你	-14332
番王	-14333
疆界	-14334
疑我	-14335
疲乏	-14336
疲劳	-14337
疾忙	-14338
登为	-14339
登位	-14340
白字	-14341
白水	-14342
白绢	-14343
白蛇	-14344
白门	-14345
百世	-14346
的马	-14347
皆着	-14348
皆空	-14349
皆穿	-14350
皆要	-14351
皆赖	-14352
皆非	-14353
盗马	-14354
盛称	-14355
直须	-14356
相侵	-14357
相厚	-14358
相善	-14359
相容	-14360
相托	-14361
相杂	-14362
相瞒	-14363
相赠	-14364
省中	-14365
看得	-14366
看视	-14367
看觑	-14368
看间	-14369
真吾	-14370
真定	-14371
眼珠	-14372
眼生	-14373
眼见	-14374
着忙	-14375
着枪	-14376
督将	-14377
瞻拜	-14378
知人	-14379
知会	-14380
知公	-14381
知否	-14382
知父	-14383
石车	-14384
砍之	-14385
砍伐	-14386
砍断	-14387
砍石	-14388
破竹	-14389
礼义	-14390
礼士	-14391
礼待	-14392
礼曰	-14393
神鬼	-14394
祥瑞	-14395
祭奠	-14396
祭礼	-14397
祸乱	-14398
禀性	-14399
离山	-14400
离营	-14401
私自	-14402
私通	-14403
秋天	-14404
种种	-14405
秦川	-14406
秭归	-14407
积粟	-14408
积粮	-14409
称尊	-14410
称贺	-14411
移祸	-14412
稍可	-14413
稍定	-14414
稽首	-14415
空有	-14416
空费	-14417
空阔	-14418
穿连	-14419
突至	-14420
突起	-14421
窥见	-14422
窦武	-14423
立寨	-14424
立庙	-14425
立起	-14426
竟天	-14427
竟将	-14428
竟往	-14429
童颜	-14430
竹冠	-14431
笑而	-14432
笔砚	-14433
第七	-14434
第四	-14435
笾髟	-14436
等人	-14437
等俱	-14438
等都	-14439
答应	-14440
策也	-14441
策应	-14442
筵间	-14443
箕帚	-14444
管仲	-14445
管领	-14446
篡汉	-14447
篡魏	-14448
篱落	-14449
米粮	-14450
粉碎	-14451
索命	-14452
紧闭	-14453
纠合	-14454
红心	-14455
红袍	-14456
约共	-14457
纪律	-14458
纳了	-14459
纵虎	-14460
终身	-14461
绊倒	-14462
绍亦	-14463
绍兵	-14464
绍等	-14465
经战	-14466
给赏	-14467
绝伦	-14468
继统	-14469
绰刀	-14470
维乃	-14471
维自	-14472
缎匹	-14473
缓图	-14474
缚至	-14475
缟素	-14476
缢死	-14477
缨络	-14478
缺少	-14479
罪在	-14480
羊群	-14481
美丽	-14482
羞见	-14483
羡溪	-14484
群英	-14485
老丈	-14486
老翁	-14487
老者	-14488
而使	-14489
而动	-14490
而卒	-14491
而向	-14492
而图	-14493
而定	-14494
而寝	-14495
而居	-14496
而待	-14497
而忘	-14498
而愈	-14499
而民	-14500
而求	-14501
而渡	-14502
而谏	-14503
而问	-14504
而食	-14505
耕于	-14506
耳聋	-14507
耽曰	-14508
联络	-14509
聚铁	-14510
肉也	-14511
肉瘤	-14512
肉颤	-14513
胆落	-14514
背剑	-14515
胜了	-14516
胜捷	-14517
胡华	-14518
胡奋	-14519
胡渊	-14520
胸膛	-14521
能使	-14522
能者	-14523
能胜	-14524
脑后	-14525
脱了	-14526
腹心	-14527
腹痛	-14528
膳毕	-14529
臣下	-14530
臣与	-14531
臣也	-14532
臣以	-14533
臣受	-14534
臣所	-14535
臣故	-14536
臣无	-14537
臣言	-14538
自从	-14539
自将	-14540
自总	-14541
自误	-14542
自谓	-14543
自贬	-14544
至亲	-14545
至尾	-14546
至期	-14547
致生	-14548
致败	-14549
舌头	-14550
舍之	-14551
舍弟	-14552
舍死	-14553
舍身	-14554
舒城	-14555
舟冓	-14556
舟船	-14557
舟鹿	-14558
船头	-14559
艘玻	-14560
良工	-14561
良马	-14562
艰辛	-14563
艾见	-14564
节制	-14565
节钺	-14566
苍生	-14567
若举	-14568
若从	-14569
若先	-14570
若去	-14571
若听	-14572
若在	-14573
若失	-14574
若容	-14575
若成	-14576
若斩	-14577
若更	-14578
若等	-14579
若至	-14580
若还	-14581
若逼	-14582
苦无	-14583
苦苦	-14584
英主	-14585
英灵	-14586
英豪	-14587
范县	-14588
荀正	-14589
荀谌	-14590
草中	-14591
草创	-14592
草把	-14593
草料	-14594
草舍	-14595
荡石	-14596
荷蒙	-14597
莫如	-14598
莫能	-14599
获得	-14600
营外	-14601
营门	-14602
萧关	-14603
葛陂	-14604
董和	-14605
董昭	-14606
董祀	-14607
董禧	-14608
董衡	-14609
董超	-14610
蒂钟	-14611
蒋显	-14612
蒙恩	-14613
蒺藜	-14614
蓄锐	-14615
薛则	-14616
薛综	-14617
藏匿	-14618
藐视	-14619
虎卫	-14620
虎口	-14621
虎痴	-14622
虑者	-14623
虚发	-14624
虚妄	-14625
虞舜	-14626
虽为	-14627
虽亡	-14628
虽勇	-14629
虽败	-14630
虽赴	-14631
蛮姑	-14632
蛮邦	-14633
蜜中	-14634
蜜水	-14635
行于	-14636
行凶	-14637
行天	-14638
行计	-14639
行酒	-14640
衣冠	-14641
补报	-14642
袁公	-14643
袁遗	-14644
袖中	-14645
被岱	-14646
被斩	-14647
被责	-14648
襄城	-14649
西寨	-14650
西州	-14651
西征	-14652
西番	-14653
西都	-14654
要在	-14655
要地	-14656
要来	-14657
要用	-14658
要紧	-14659
见也	-14660
见我	-14661
见无	-14662
见父	-14663
见用	-14664
见策	-14665
见蜀	-14666
见还	-14667
观者	-14668
视我	-14669
览之	-14670
解到	-14671
解危	-14672
解围	-14673
解良	-14674
解送	-14675
解释	-14676
誓当	-14677
誓杀	-14678
誓欲	-14679
让之	-14680
议者	-14681
许久	-14682
许仪	-14683
许允	-14684
许和	-14685
许嫁	-14686
许芝	-14687
讹言	-14688
设此	-14689
设谋	-14690
设醮	-14691
识之	-14692
识人	-14693
诈乎	-14694
诏封	-14695
试耳	-14696
诛杀	-14697
语失	-14698
语言	-14699
误杀	-14700
诱入	-14701
说得	-14702
说甚	-14703
诵之	-14704
请住	-14705
请和	-14706
请死	-14707
请肃	-14708
诸县	-14709
诸寨	-14710
诸弟	-14711
读曰	-14712
谁能	-14713
谅曰	-14714
谋略	-14715
谏章	-14716
谏者	-14717
谏阻	-14718
谓之	-14719
谓关	-14720
谥曰	-14721
谦辞	-14722
谭曰	-14723
谭雄	-14724
谷利	-14725
豪气	-14726
豹头	-14727
豹曰	-14728
负义	-14729
败亡	-14730
败矣	-14731
贩屦	-14732
贫僧	-14733
贱躯	-14734
贴肉	-14735
贼军	-14736
贼阵	-14737
赍礼	-14738
赍表	-14739
赐坐	-14740
赞曰	-14741
赤体	-14742
赤心	-14743
赤色	-14744
走泄	-14745
走透	-14746
赵月	-14747
赵衢	-14748
赶了	-14749
起事	-14750
起于	-14751
起居	-14752
起驾	-14753
趋侍	-14754
跃龙	-14755
跟我	-14756
跨江	-14757
路过	-14758
跳上	-14759
跳跃	-14760
踏平	-14761
身中	-14762
身故	-14763
身衣	-14764
躲避	-14765
车乘	-14766
车儿	-14767
车盖	-14768
转入	-14769
转身	-14770
轮流	-14771
轻清	-14772
较远	-14773
辅政	-14774
辛敞	-14775
辛苦	-14776
辞也	-14777
辞朝	-14778
辞谢	-14779
辰至	-14780
辱乎	-14781
辱子	-14782
边官	-14783
边庭	-14784
辽西	-14785
过于	-14786
过河	-14787
过船	-14788
过马	-14789
迎见	-14790
近因	-14791
近我	-14792
近有	-14793
还了	-14794
还兵	-14795
还宫	-14796
还寨	-14797
还将	-14798
还当	-14799
还朝	-14800
这人	-14801
这边	-14802
进封	-14803
进来	-14804
远遁	-14805
连接	-14806
连胜	-14807
迟也	-14808
迸出	-14809
追军	-14810
追思	-14811
送粮	-14812
送酒	-14813
逃去	-14814
逃避	-14815
选定	-14816
通和	-14817
速往	-14818
速请	-14819
速进	-14820
速退	-14821
逢着	-14822
遁能	-14823
遂以	-14824
遂望	-14825
遂率	-14826
遂聚	-14827
遂解	-14828
遂辞	-14829
遂迎	-14830
遂邀	-14831
遂降	-14832
遇虎	-14833
遍地	-14834
遍示	-14835
遗下	-14836
遗计	-14837
遣兵	-14838
遣某	-14839
遥为	-14840
遭擒	-14841
遭此	-14842
遮天	-14843
遮盖	-14844
避乱	-14845
邈曰	-14846
邓禹	-14847
邓茂	-14848
邓龙	-14849
邸阁	-14850
郎将	-14851
郑度	-14852
郑泰	-14853
郭胜	-14854
都堂	-14855
都有	-14856
都门	-14857
醉后	-14858
重整	-14859
重雾	-14860
野谷	-14861
金凤	-14862
金石	-14863
銮舆	-14864
钟绅	-14865
钟缙	-14866
钟进	-14867
钦敬	-14868
钦曰	-14869
铁枪	-14870
铁石	-14871
铁锁	-14872
铁锥	-14873
铜柱	-14874
锦作	-14875
锦绣	-14876
长亭	-14877
长吁	-14878
长文	-14879
长髯	-14880
门也	-14881
门户	-14882
问我	-14883
闻君	-14884
闻吴	-14885
阁中	-14886
阎宇	-14887
阔狭	-14888
阴魂	-14889
阵也	-14890
陆战	-14891
陆景	-14892
陆绩	-14893
陈平	-14894
陈生	-14895
降书	-14896
降操	-14897
降神	-14898
陕西	-14899
除授	-14900
除暴	-14901
除根	-14902
险些	-14903
险道	-14904
陵替	-14905
陶曰	-14906
陶濬	-14907
陷于	-14908
陷害	-14909
随入	-14910
随往	-14911
随手	-14912
随机	-14913
随父	-14914
隔断	-14915
难得	-14916
难测	-14917
难道	-14918
雍杲	-14919
雍甑	-14920
雷震	-14921
霍光	-14922
霖雨	-14923
霜雪	-14924
青城	-14925
青天	-14926
青春	-14927
青琐	-14928
青红	-14929
青蝇	-14930
青霄	-14931
靖曰	-14932
非俗	-14933
非凡	-14934
非命	-14935
非汝	-14936
非真	-14937
非轻	-14938
面有	-14939
面颊	-14940
鞍鞒	-14941
鞭打	-14942
韩暨	-14943
韩琼	-14944
韩融	-14945
须是	-14946
预知	-14947
领着	-14948
颇思	-14949
题曰	-14950
风波	-14951
风流	-14952
风浪	-14953
风清	-14954
风飘	-14955
飞上	-14956
飞乃	-14957
飞亦	-14958
飞入	-14959
飞沙	-14960
飞熊	-14961
飞腾	-14962
飞至	-14963
食之	-14964
饮乎	-14965
饯行	-14966
饱餐	-14967
首先	-14968
马壮	-14969
马尾	-14970
马快	-14971
马钧	-14972
马铁	-14973
驰报	-14974
驴骡	-14975
骂贼	-14976
骄横	-14977
骨血	-14978
髀肉	-14979
高义	-14980
高名	-14981
高贵	-14982
魄散	-14983
魈椤	-14984
魏也	-14985
魏家	-14986
魏邈	-14987
鲍忠	-14988
鳞甲	-14989
鸡犬	-14990
鸣锣	-14991
鸩杀	-14992
鹦鹉	-14993
麾兵	-14994
黄口	-14995
黄罗	-14996
黑烟	-14997
鼓乐	-14998
鼠贼	-14999
鼻息	-15000
齐上	-15001
齐举	-15002
齐入	-15003
齐心	-15004
齐来	-15005
齿寒	-15006
龙床	-15007
龙榻	-15008
龙肝	-15009
龚景	-15010
!”?	-15011
16.	-15012
?(1	-15013
▁三人	-15014
▁使者	-15015
▁后主	-15016
▁少顷	-15017
▁幕府	-15018
▁建安	-15019
▁当夜	-15020
▁早有	-15021
▁时有	-15022
▁曹仁	-15023
▁李傕	-15024
▁自此	-15025
▁董卓	-15026
▁行至	-15027
▁马超	-15028
▁魏主	-15029
一件事	-15030
一匹夫	-15031
一战而	-15032
一片声	-15033
一百日	-15034
一边是	-15035
一锦囊	-15036
丁建阳	-15037
七十二	-15038
万世之	-15039
万安溪	-15040
万幸也	-15041
三件事	-15042
三公之	-15043
三匹马	-15044
三尺剑	-15045
三百余	-15046
三路军	-15047
上将军	-15048
上马投	-15049
下小船	-15050
下拜曰	-15051
下流头	-15052
下说词	-15053
不一合	-15054
不以为	-15055
不保矣	-15056
不准备	-15057
不出吾	-15058
不利于	-15059
不及甲	-15060
不及鞍	-15061
不取也	-15062
不可便	-15063
不可大	-15064
不可测	-15065
不可留	-15066
不可违	-15067
不好看	-15068
不如且	-15069
不如以	-15070
不如早	-15071
不容不	-15072
不得入	-15073
不得复	-15074
不提防	-15075
不敢受	-15076
不敢复	-15077
不敢来	-15078
不敢进	-15079
不易也	-15080
不曾亏	-15081
不曾见	-15082
不相容	-15083
不相见	-15084
不知是	-15085
不知耶	-15086
不肯受	-15087
不胜悲	-15088
不能入	-15089
不能决	-15090
不能守	-15091
不能安	-15092
不能得	-15093
不能死	-15094
不见容	-15095
不间亲	-15096
不降曹	-15097
不饮酒	-15098
与使君	-15099
与先生	-15100
与公同	-15101
与关某	-15102
与周泰	-15103
与孙权	-15104
与徐晃	-15105
与文丑	-15106
与曹兵	-15107
与曹真	-15108
与李典	-15109
与甘宁	-15110
与百姓	-15111
与皇叔	-15112
与程普	-15113
与群臣	-15114
与董承	-15115
与蔡瑁	-15116
与虎添	-15117
与郭图	-15118
与韩遂	-15119
与马岱	-15120
与黄忠	-15121
丕从之	-15122
丕大惊	-15123
丙寅日	-15124
丞相命	-15125
丞相自	-15126
丞相遗	-15127
两军各	-15128
两军皆	-15129
两枝军	-15130
两骑马	-15131
中书郎	-15132
丹凤眼	-15133
为主公	-15134
为列侯	-15135
为右军	-15136
为后队	-15137
为外援	-15138
为太后	-15139
为左军	-15140
为曹氏	-15141
为盟主	-15142
为社稷	-15143
为质当	-15144
为镇南	-15145
为陛下	-15146
主公将	-15147
主敌人	-15148
乃义阳	-15149
乃云长	-15150
乃入见	-15151
乃司徒	-15152
乃吴将	-15153
乃国之	-15154
乃孙乾	-15155
乃尚书	-15156
乃引兵	-15157
乃曹洪	-15158
乃玄德	-15159
乃笑曰	-15160
乃糜竺	-15161
乃蜀中	-15162
乃高明	-15163
久必有	-15164
之人矣	-15165
之名也	-15166
之大事	-15167
之天下	-15168
之幸也	-15169
之心也	-15170
之意也	-15171
之所在	-15172
之所学	-15173
之所料	-15174
之手曰	-15175
之时也	-15176
之甚也	-15177
之见也	-15178
之言也	-15179
之计耳	-15180
之象也	-15181
乐太平	-15182
乘小舟	-15183
书一封	-15184
了一箭	-15185
了归路	-15186
了栈道	-15187
事不谐	-15188
二万兵	-15189
二三十	-15190
二人乃	-15191
二人带	-15192
二人感	-15193
二公子	-15194
二十合	-15195
二十州	-15196
二千军	-15197
二百八	-15198
二百年	-15199
于中取	-15200
于主公	-15201
于前曰	-15202
于四海	-15203
于城下	-15204
于堂下	-15205
于宫中	-15206
于山上	-15207
于是令	-15208
于朝廷	-15209
于汉中	-15210
于江边	-15211
于河北	-15212
于王事	-15213
于祁山	-15214
于神仙	-15215
于禁等	-15216
于车前	-15217
于马项	-15218
云长之	-15219
云长去	-15220
云长急	-15221
云长问	-15222
五凤楼	-15223
五十斤	-15224
五百兵	-15225
亦不可	-15226
亦谏曰	-15227
京兆尹	-15228
亲自往	-15229
人报仇	-15230
人报说	-15231
人马俱	-15232
人马皆	-15233
仁大惊	-15234
今当先	-15235
今操引	-15236
今无端	-15237
今日乃	-15238
今果应	-15239
今果然	-15240
今特来	-15241
从城上	-15242
从屏后	-15243
从左边	-15244
从此路	-15245
从辰时	-15246
他人之	-15247
仗忠义	-15248
令严颜	-15249
令人去	-15250
令先锋	-15251
令大将	-15252
令姜维	-15253
令将军	-15254
令廖化	-15255
令张郃	-15256
令徐晃	-15257
令满宠	-15258
令玄德	-15259
令诸将	-15260
令进兵	-15261
令高顺	-15262
令鲁肃	-15263
以为己	-15264
以大兵	-15265
以天子	-15266
以女许	-15267
以密书	-15268
以将军	-15269
以待之	-15270
以拒之	-15271
以明公	-15272
以此言	-15273
以汝为	-15274
以迎之	-15275
伐东吴	-15276
众官又	-15277
众将又	-15278
众文武	-15279
众皆降	-15280
众酋长	-15281
会大喜	-15282
传于世	-15283
伤吾主	-15284
住数日	-15285
何不知	-15286
何人也	-15287
何多疑	-15288
何必多	-15289
何故以	-15290
何日得	-15291
何晏等	-15292
作一梦	-15293
作前队	-15294
作玄武	-15295
你原来	-15296
佯惊曰	-15297
使一口	-15298
使人入	-15299
使人密	-15300
使曹操	-15301
使魏人	-15302
侄李暹	-15303
侍御史	-15304
便商议	-15305
便连夜	-15306
信其言	-15307
修书付	-15308
俺哥哥	-15309
倘有用	-15310
倘蜀兵	-15311
倚定护	-15312
催车仗	-15313
允拜谢	-15314
先入见	-15315
先君之	-15316
先来见	-15317
先生幸	-15318
入书院	-15319
入南郑	-15320
入卧内	-15321
入后殿	-15322
入告曰	-15323
入宫庭	-15324
入密室	-15325
入山采	-15326
入帐中	-15327
入樊城	-15328
入膏肓	-15329
入谏曰	-15330
入谷中	-15331
八十二	-15332
八百人	-15333
公卿皆	-15334
公孙恭	-15335
公问曰	-15336
关公教	-15337
关公见	-15338
关公问	-15339
关平曰	-15340
兴义兵	-15341
兵势甚	-15342
兵大败	-15343
其余尽	-15344
其后路	-15345
其子孙	-15346
其宜也	-15347
其宜从	-15348
其尸首	-15349
其歌曰	-15350
其粮草	-15351
具朝服	-15352
典禁兵	-15353
内一人	-15354
内外皆	-15355
内转出	-15356
军中无	-15357
军中有	-15358
军士急	-15359
军士皆	-15360
军将军	-15361
军已退	-15362
军报知	-15363
军马来	-15364
军马至	-15365
决漳河	-15366
冷笑曰	-15367
凌统回	-15368
出入常	-15369
出迎敌	-15370
出重围	-15371
出鬼没	-15372
刀割开	-15373
刀砍死	-15374
分三队	-15375
分五路	-15376
分兵两	-15377
分左右	-15378
刘两家	-15379
刘备以	-15380
刘备有	-15381
刘备来	-15382
刘夫人	-15383
刘益州	-15384
刘荆州	-15385
则可以	-15386
则江南	-15387
创业之	-15388
到洛阳	-15389
到许昌	-15390
前下寨	-15391
前军至	-15392
剑阁关	-15393
割其舌	-15394
劝主公	-15395
加害于	-15396
加额曰	-15397
劫公卿	-15398
勒甲绦	-15399
勿复言	-15400
北三门	-15401
十七万	-15402
十万斛	-15403
十三岁	-15404
十三年	-15405
十五岁	-15406
十五里	-15407
十余骑	-15408
十数万	-15409
千余军	-15410
千余只	-15411
千秋仰	-15412
千里马	-15413
卓大喜	-15414
卓大怒	-15415
单福曰	-15416
南门外	-15417
南阳人	-15418
博望坡	-15419
占一课	-15420
卤城打	-15421
卧牛山	-15422
卧蚕眉	-15423
即具表	-15424
即引兵	-15425
即提兵	-15426
即日将	-15427
即时遣	-15428
即起身	-15429
却不见	-15430
却将我	-15431
卿有何	-15432
厚待之	-15433
厚赏之	-15434
原来那	-15435
去必有	-15436
去许都	-15437
参军马	-15438
参拜毕	-15439
又一人	-15440
又失了	-15441
又败走	-15442
发百中	-15443
取小路	-15444
取成都	-15445
取樊城	-15446
取武陵	-15447
受汉禅	-15448
受禅台	-15449
只剩得	-15450
只得弃	-15451
只得望	-15452
可乘虚	-15453
可以报	-15454
可作书	-15455
可差人	-15456
可斩之	-15457
可知矣	-15458
司马徽	-15459
各处关	-15460
各引军	-15461
各罢兵	-15462
同孙乾	-15463
后主即	-15464
后将军	-15465
吕布受	-15466
吕蒙曰	-15467
听令曰	-15468
听吾言	-15469
吾亦知	-15470
吾今奉	-15471
吾军中	-15472
吾岂惧	-15473
吾已令	-15474
吾平生	-15475
吾弟也	-15476
吾弟兄	-15477
吾愿往	-15478
吾有何	-15479
吾本欲	-15480
吾自从	-15481
吾蜀中	-15482
吾遍观	-15483
吾锐气	-15484
告前事	-15485
告孔明	-15486
周仓曰	-15487
周文王	-15488
周瑜为	-15489
呼左右	-15490
命斩之	-15491
命武士	-15492
命牵出	-15493
和魏延	-15494
唤貂蝉	-15495
唤赵云	-15496
唬骸按	-15497
唬骸氨	-15498
唬骸澳	-15499
唬骸疤	-15500
唬骸肮	-15501
唬骸胺	-15502
喊声起	-15503
囊取物	-15504
四五百	-15505
四人曰	-15506
四冢寨	-15507
回雒城	-15508
国老曰	-15509
图富贵	-15510
在中军	-15511
在别帐	-15512
在宫中	-15513
在帐下	-15514
在府中	-15515
在新城	-15516
在新野	-15517
在此间	-15518
在汉中	-15519
在洛阳	-15520
在襄阳	-15521
在身上	-15522
在车上	-15523
在这里	-15524
在那里	-15525
坚大怒	-15526
坡驻扎	-15527
城下寨	-15528
城内人	-15529
士仁曰	-15530
壮士曰	-15531
声不绝	-15532
声喏曰	-15533
备安敢	-15534
夏五月	-15535
夏侯兰	-15536
夏侯存	-15537
夏侯恩	-15538
大公子	-15539
大半是	-15540
大司农	-15541
大悟曰	-15542
大王何	-15543
大砍刀	-15544
大耳儿	-15545
天下事	-15546
天地之	-15547
天际地	-15548
太极殿	-15549
夫人所	-15550
失惊曰	-15551
奉宗庙	-15552
奏帝曰	-15553
如何容	-15554
如何敢	-15555
如雨下	-15556
妇人之	-15557
妻严氏	-15558
姑恕之	-15559
子翼同	-15560
孔文举	-15561
孔明复	-15562
孔明引	-15563
孔明指	-15564
孔明谓	-15565
孔明随	-15566
字元化	-15567
字士元	-15568
孙伯符	-15569
孙子云	-15570
孙礼引	-15571
孙礼曰	-15572
孙策为	-15573
孙策自	-15574
孟获引	-15575
孟获来	-15576
孟达曰	-15577
守不住	-15578
守兖州	-15579
守官渡	-15580
守小沛	-15581
守成都	-15582
守樊城	-15583
守汉中	-15584
守汝南	-15585
守绵竹	-15586
守许都	-15587
守门将	-15588
守阆中	-15589
安邦定	-15590
审配曰	-15591
宣谕曰	-15592
宫门前	-15593
宫门外	-15594
宽洪大	-15595
密书与	-15596
密诏付	-15597
密遣人	-15598
对众曰	-15599
将军印	-15600
将军器	-15601
将吕布	-15602
将大军	-15603
将孟达	-15604
将曹操	-15605
将粮草	-15606
将船筏	-15607
小儿谣	-15608
小觑我	-15609
尘遮道	-15610
就寨中	-15611
就席间	-15612
尽杀之	-15613
居何职	-15614
屯合淝	-15615
屯粮草	-15616
山之上	-15617
山僻路	-15618
山坡下	-15619
山开路	-15620
岂不自	-15621
岂不见	-15622
左右牵	-15623
左贤王	-15624
差人来	-15625
已算定	-15626
布从之	-15627
布大怒	-15628
帝与王	-15629
帝左右	-15630
并不敢	-15631
并不曾	-15632
庞德也	-15633
廖化至	-15634
建大功	-15635
建奇功	-15636
建始殿	-15637
开视之	-15638
引三万	-15639
引二将	-15640
引五万	-15641
引亲随	-15642
引军赶	-15643
引百余	-15644
引许褚	-15645
引铁骑	-15646
弘农王	-15647
张任教	-15648
张别驾	-15649
张皇后	-15650
张绣军	-15651
归大寨	-15652
归曹操	-15653
当代汉	-15654
当何以	-15655
当若何	-15656
彝陵城	-15657
彻里吉	-15658
彼必不	-15659
往小沛	-15660
往山东	-15661
往山中	-15662
征张绣	-15663
待孔明	-15664
徐盛在	-15665
得其主	-15666
得天下	-15667
得死于	-15668
御营中	-15669
心甚忧	-15670
必不从	-15671
必不负	-15672
必引兵	-15673
必来劫	-15674
必然来	-15675
必败矣	-15676
忙牙长	-15677
忽使命	-15678
忽帐下	-15679
怒气冲	-15680
急不可	-15681
急催兵	-15682
急勒兵	-15683
急回军	-15684
急回报	-15685
急引兵	-15686
急引军	-15687
急未可	-15688
急来救	-15689
急退军	-15690
急闪过	-15691
恐于路	-15692
恐孔明	-15693
恐将军	-15694
恨不得	-15695
恪大怒	-15696
患头风	-15697
惊疑间	-15698
感丞相	-15699
感其德	-15700
愿丞相	-15701
慈笑曰	-15702
慌下马	-15703
懿从之	-15704
懿叹曰	-15705
懿唤入	-15706
懿问曰	-15707
成帝业	-15708
我三人	-15709
我与你	-15710
我两个	-15711
我主人	-15712
我军心	-15713
我四人	-15714
我如何	-15715
我心中	-15716
战国时	-15717
所宜也	-15718
所庄院	-15719
所恨者	-15720
打一百	-15721
打破了	-15722
打邓贤	-15723
托他人	-15724
托孤于	-15725
扶危主	-15726
扶王室	-15727
投刘表	-15728
投河北	-15729
折了好	-15730
抚其背	-15731
报父仇	-15732
披掩心	-15733
抱阿斗	-15734
拈着的	-15735
拖刀计	-15736
拨马望	-15737
择吉日	-15738
持节至	-15739
挟住枪	-15740
推不知	-15741
插青龙	-15742
握重权	-15743
搜其身	-15744
操上马	-15745
操不信	-15746
操出马	-15747
操即令	-15748
操又问	-15749
操回顾	-15750
操坐于	-15751
操扬鞭	-15752
攻其前	-15753
攻其后	-15754
攻刘备	-15755
攻北原	-15756
放入城	-15757
故不敢	-15758
故未敢	-15759
敌不住	-15760
救兵至	-15761
教你看	-15762
敢不效	-15763
数日后	-15764
整衣冠	-15765
文书到	-15766
斩二人	-15767
斩王双	-15768
新野县	-15769
方知是	-15770
无不克	-15771
无二日	-15772
无以为	-15773
无去路	-15774
无复有	-15775
无患矣	-15776
无疑矣	-15777
时天气	-15778
时建兴	-15779
昔曹操	-15780
昔高祖	-15781
星夜回	-15782
星夜来	-15783
星见于	-15784
春三月	-15785
春正月	-15786
昭从之	-15787
昭大喜	-15788
昭笑曰	-15789
是汝等	-15790
暗令人	-15791
暗忖曰	-15792
暗投明	-15793
曹兵至	-15794
曹子丹	-15795
曹安民	-15796
曹寨中	-15797
曹操有	-15798
曹操知	-15799
曹操自	-15800
曹操虽	-15801
曹洪等	-15802
曹真病	-15803
曹营内	-15804
曹都督	-15805
有一个	-15806
有一城	-15807
有一彪	-15808
有一面	-15809
有二子	-15810
有人在	-15811
有人来	-15812
有今日	-15813
有何事	-15814
有何益	-15815
有四子	-15816
有大功	-15817
有心腹	-15818
有累卵	-15819
有蜀兵	-15820
服其论	-15821
望东南	-15822
望先生	-15823
望成都	-15824
望本阵	-15825
望荆州	-15826
望襄阳	-15827
望都督	-15828
未可知	-15829
未尝忘	-15830
未尝有	-15831
未尝见	-15832
未敢擅	-15833
朱二人	-15834
机会也	-15835
杀之间	-15836
权问曰	-15837
李乐曰	-15838
李春香	-15839
条小路	-15840
来何迟	-15841
来寨中	-15842
来救应	-15843
来日可	-15844
来赚我	-15845
来迎接	-15846
杨奉曰	-15847
柏梁台	-15848
某杀之	-15849
某自幼	-15850
梁父吟	-15851
次日又	-15852
欲何往	-15853
欲出战	-15854
欲尽诛	-15855
欲成功	-15856
欲拔剑	-15857
欲自战	-15858
止剩得	-15859
正不知	-15860
正射中	-15861
正欲与	-15862
此不祥	-15863
此事决	-15864
此二处	-15865
此人姓	-15866
此人有	-15867
此去可	-15868
此国家	-15869
此处有	-15870
此必有	-15871
死不恨	-15872
死无益	-15873
毛皇后	-15874
水下寨	-15875
汜二贼	-15876
汝三人	-15877
汝不识	-15878
汝之功	-15879
汝何故	-15880
汝既为	-15881
汝焉敢	-15882
汝等可	-15883
汝等无	-15884
汝等须	-15885
江东之	-15886
江南岸	-15887
池中物	-15888
汤蹈火	-15889
河南尹	-15890
法孝直	-15891
泠苞寨	-15892
泸水边	-15893
津隘口	-15894
济北相	-15895
淳于丹	-15896
混战到	-15897
渊大惊	-15898
渡汉水	-15899
渡渭水	-15900
温又问	-15901
濮阳兴	-15902
灭三族	-15903
烦子敬	-15904
烦足下	-15905
烧浮桥	-15906
然后令	-15907
父曹嵩	-15908
牙门将	-15909
独不见	-15910
猛省曰	-15911
献帝曰	-15912
献此计	-15913
献策曰	-15914
献计者	-15915
玄德于	-15916
玄德入	-15917
玄德又	-15918
玄德取	-15919
玄德命	-15920
玄德忙	-15921
玄德慌	-15922
玄德掣	-15923
玄德暗	-15924
玄德看	-15925
玄德至	-15926
玉泉山	-15927
王美人	-15928
瑜大怒	-15929
璋视之	-15930
瓮城边	-15931
甄夫人	-15932
甘兴霸	-15933
生四子	-15934
用何物	-15935
用其计	-15936
用天子	-15937
用青布	-15938
留二人	-15939
留外人	-15940
百姓有	-15941
百官俱	-15942
的军士	-15943
皆下马	-15944
皆大笑	-15945
皇叔俸	-15946
皓大喜	-15947
相谓曰	-15948
看今夜	-15949
真引兵	-15950
睿从之	-15951
瞑目矣	-15952
知之乎	-15953
知地理	-15954
知曹兵	-15955
知魏兵	-15956
石广元	-15957
破曹公	-15958
祁山乃	-15959
祎又曰	-15960
祜笑曰	-15961
禅位于	-15962
离徐州	-15963
离荆州	-15964
秦灭楚	-15965
穿木履	-15966
立斩之	-15967
立营寨	-15968
竟死于	-15969
笑自若	-15970
第三个	-15971
第三子	-15972
第三队	-15973
筑坛于	-15974
答礼曰	-15975
策怒曰	-15976
策马前	-15977
糜芳守	-15978
红旗招	-15979
绍魏统	-15980
维从之	-15981
缓图之	-15982
缘何不	-15983
美髯公	-15984
翻在地	-15985
老匹夫	-15986
老叟曰	-15987
老夫人	-15988
者不过	-15989
而不敢	-15990
而不能	-15991
而为之	-15992
而去者	-15993
而告曰	-15994
而复明	-15995
而来投	-15996
而来降	-15997
而笑曰	-15998
而视之	-15999
而起曰	-16000
而进曰	-16001
聚诸将	-16002
聚铁山	-16003
肯降否	-16004
胡赤儿	-16005
臣不胜	-16006
自东北	-16007
自纵马	-16008
自许昌	-16009
自走矣	-16010
至东华	-16011
至东吴	-16012
至四更	-16013
至官渡	-16014
至成都	-16015
至榻前	-16016
至江东	-16017
至荆州	-16018
至许昌	-16019
至许都	-16020
至车前	-16021
至阶下	-16022
艨艟上	-16023
良策也	-16024
艾大惊	-16025
若不得	-16026
若不杀	-16027
若不能	-16028
若二人	-16029
若刘备	-16030
若有失	-16031
若肯放	-16032
英勇如	-16033
莫大焉	-16034
获全胜	-16035
萧怀侯	-16036
落凤坡	-16037
董昭曰	-16038
董袭曰	-16039
葫芦谷	-16040
蒋琬曰	-16041
蒋钦曰	-16042
蒋钦等	-16043
蒯异度	-16044
虎将也	-16045
虏将军	-16046
虽有罪	-16047
蜀兵到	-16048
蜀营内	-16049
行不上	-16050
街亭之	-16051
袁将军	-16052
袁术处	-16053
被关平	-16054
被华雄	-16055
被庞德	-16056
被张飞	-16057
被火烧	-16058
被许褚	-16059
被黄忠	-16060
袭兖州	-16061
袭其后	-16062
袭许都	-16063
裴元绍	-16064
襄平侯	-16065
西北上	-16066
西北角	-16067
西都督	-16068
见一人	-16069
见先生	-16070
见貂蝉	-16071
见黄忠	-16072
观其变	-16073
观玄德	-16074
览书毕	-16075
言玄德	-16076
讨荆州	-16077
讲礼毕	-16078
许多年	-16079
设一谋	-16080
设宴请	-16081
访孔明	-16082
试言之	-16083
说出甚	-16084
说吕布	-16085
说姜维	-16086
说蜀兵	-16087
说魏兵	-16088
请庞统	-16089
请陈登	-16090
诸将中	-16091
诸文武	-16092
读祭文	-16093
谁可为	-16094
谏不从	-16095
谓布曰	-16096
谓承曰	-16097
谢恩毕	-16098
貂蝉也	-16099
贤礼士	-16100
败于蜀	-16101
贫道乃	-16102
费祎等	-16103
贼将休	-16104
赐酒食	-16105
赤面长	-16106
赴樊城	-16107
赴荆州	-16108
赴襄阳	-16109
赴许昌	-16110
起上庸	-16111
起兵来	-16112
起大军	-16113
跪告曰	-16114
路而走	-16115
轮大斧	-16116
辱臣死	-16117
还建业	-16118
还成都	-16119
这一路	-16120
进计曰	-16121
送关公	-16122
选天下	-16123
逊大喜	-16124
通天文	-16125
造反耶	-16126
遂上表	-16127
遂与众	-16128
遂作书	-16129
遂修书	-16130
遂催军	-16131
遂入城	-16132
遂写书	-16133
遂勒兵	-16134
遂收兵	-16135
遂起兵	-16136
遂起身	-16137
遂进兵	-16138
遂遣人	-16139
遂重赏	-16140
遣人赍	-16141
遣使往	-16142
遣使来	-16143
遣玄德	-16144
遣邓芝	-16145
遣钟会	-16146
邓士载	-16147
邓将军	-16148
邢道荣	-16149
那小将	-16150
郃大怒	-16151
郑尚书	-16152
郭汜曰	-16153
郭淮曰	-16154
郭阿多	-16155
鄱阳湖	-16156
铁笼山	-16157
锦屏山	-16158
长乐宫	-16159
长沙郡	-16160
门而入	-16161
门而出	-16162
问之曰	-16163
问何故	-16164
问是谁	-16165
闻东吴	-16166
闻其名	-16167
闻天子	-16168
闻孙权	-16169
闻此信	-16170
闻皇叔	-16171
闻鲁肃	-16172
陈应曰	-16173
陈泰曰	-16174
陈登曰	-16175
陛下且	-16176
随马超	-16177
雍州兵	-16178
青州来	-16179
青釭剑	-16180
非不欲	-16181
非卧龙	-16182
非子龙	-16183
非曹操	-16184
非汝之	-16185
鞭督邮	-16186
韩将军	-16187
韩浩曰	-16188
顾雍曰	-16189
领了书	-16190
领兵使	-16191
领军到	-16192
领军来	-16193
领本部	-16194
领精兵	-16195
颗人头	-16196
飞身上	-16197
首尾相	-16198
首级来	-16199
首级至	-16200
马到来	-16201
马前失	-16202
马岱也	-16203
马日磾	-16204
马腾曰	-16205
马良曰	-16206
马遵曰	-16207
骑一匹	-16208
高二将	-16209
高十丈	-16210
高干皆	-16211
魏与吴	-16212
魏主曰	-16213
魏二人	-16214
魏军中	-16215
黄权曰	-16216
▁刘皇叔	-16217
▁却说魏	-16218
▁司马昭	-16219
▁张翼德	-16220
▁操大喜	-16221
▁曹孟德	-16222
▁曹阿瞒	-16223
▁正说间	-16224
▁赵子龙	-16225
一军杀来	-16226
一刀斩了	-16227
一切完备	-16228
一将当先	-16229
一少年将	-16230
一手提刀	-16231
一拥而进	-16232
一日无君	-16233
一棒鼓响	-16234
一百五十	-16235
一百余合	-16236
一箭射去	-16237
一行人马	-16238
一辆小车	-16239
一面亲自	-16240
一面大旗	-16241
一齐呐喊	-16242
一齐射之	-16243
一齐放火	-16244
一齐放箭	-16245
一齐杀出	-16246
一齐进兵	-16247
三个锦囊	-16248
三十余骑	-16249
三十六岁	-16250
三千人马	-16251
三千军去	-16252
三条妙计	-16253
三百余骑	-16254
三路兵马	-16255
三面攻之	-16256
上高阜处	-16257
下回分解	-16258
下定寨栅	-16259
下寨已定	-16260
下马伏地	-16261
下马相见	-16262
不做准备	-16263
不克而还	-16264
不利之言	-16265
不可与敌	-16266
不可久居	-16267
不可怠慢	-16268
不可有误	-16269
不可胜计	-16270
不可轻入	-16271
不听吾言	-16272
不如且退	-16273
不如先取	-16274
不如投降	-16275
不如早降	-16276
不宜久居	-16277
不得脱身	-16278
不必多疑	-16279
不必忧虑	-16280
不忍相离	-16281
不思报效	-16282
不敢交战	-16283
不敢交锋	-16284
不敢前进	-16285
不敢追袭	-16286
不知为何	-16287
不知何意	-16288
不知何故	-16289
不知存亡	-16290
不能主张	-16291
不能容物	-16292
不能成事	-16293
不能理事	-16294
不能相容	-16295
不能行动	-16296
不许出战	-16297
不许妄动	-16298
不识时务	-16299
不足惧也	-16300
不足虑也	-16301
不辞而去	-16302
不遇空回	-16303
不须主公	-16304
不须张弓	-16305
与夏侯渊	-16306
与虎添翼	-16307
且说孔明	-16308
世之枭雄	-16309
世食汉禄	-16310
东吴去了	-16311
东吴吕蒙	-16312
东吴大将	-16313
东川张鲁	-16314
丞相之言	-16315
丞相在日	-16316
丞相大军	-16317
丞相张悌	-16318
丞相用兵	-16319
丞相钧旨	-16320
两个先锋	-16321
两个商议	-16322
两军呐喊	-16323
两路军马	-16324
两路夹攻	-16325
两阵圆处	-16326
两难之际	-16327
临于雒城	-16328
丹阳太守	-16329
为今之计	-16330
为关内侯	-16331
为右将军	-16332
为天下笑	-16333
为曹操所	-16334
为汉宁王	-16335
为荆州牧	-16336
主公不可	-16337
主公之命	-16338
主公今日	-16339
主公何不	-16340
主公何在	-16341
乃唤赵云	-16342
乃孙乾也	-16343
乃张苞也	-16344
乃张辽也	-16345
乃是一梦	-16346
乃是张飞	-16347
乃是马岱	-16348
乃至于此	-16349
乃谓之曰	-16350
久后必反	-16351
久远之计	-16352
之洪福也	-16353
之言甚当	-16354
乌戈国主	-16355
乘势攻之	-16356
乘势赶去	-16357
乘此机会	-16358
书中之意	-16359
书大怒曰	-16360
乱军所杀	-16361
乱棒打出	-16362
乱箭射回	-16363
事势至此	-16364
二人引兵	-16365
二十余日	-16366
二将交锋	-16367
二更时分	-16368
二罪俱罚	-16369
于东门外	-16370
于是两军	-16371
于是姜维	-16372
于路劫掠	-16373
于路杀人	-16374
云长大喜	-16375
云长大怒	-16376
云长赶来	-16377
云长问曰	-16378
五六十里	-16379
五千余人	-16380
五百军士	-16381
五虎大将	-16382
五路军马	-16383
亲自出营	-16384
亲自引兵	-16385
亲自来看	-16386
亲解其缚	-16387
人不及甲	-16388
人马困乏	-16389
今夜二更	-16390
今大将军	-16391
今日之危	-16392
今日幸得	-16393
今欲何往	-16394
今若不取	-16395
今诸葛亮	-16396
从后追来	-16397
从后追赶	-16398
从头至尾	-16399
从那条路	-16400
仗义讨贼	-16401
令玄德为	-16402
以为中计	-16403
以为疑兵	-16404
以令诸侯	-16405
以决雌雄	-16406
以助一笑	-16407
以取荆州	-16408
以图中原	-16409
以安众心	-16410
以待天时	-16411
以拒蜀兵	-16412
以收民心	-16413
以致此败	-16414
以表其忠	-16415
以避其锋	-16416
以防不测	-16417
以防魏兵	-16418
以雪吾恨	-16419
仰面大笑	-16420
伏于寨外	-16421
伏几而卧	-16422
伏波将军	-16423
众军一齐	-16424
众官救醒	-16425
众官皆散	-16426
众将一齐	-16427
众将忿怒	-16428
众将随后	-16429
众皆应曰	-16430
众皆愕然	-16431
会稽太守	-16432
传国玉玺	-16433
何以当之	-16434
何以御之	-16435
何以知吾	-16436
何况我等	-16437
何太后曰	-16438
何如人也	-16439
何故烦恼	-16440
何故背反	-16441
何足挂齿	-16442
余众皆降	-16443
作何举动	-16444
使人密报	-16445
使者赍书	-16446
侍中杨琦	-16447
依山下寨	-16448
依次而行	-16449
倍道而行	-16450
倒戈卸甲	-16451
倒撞下马	-16452
倒竖虎须	-16453
倚定护心	-16454
傍若无人	-16455
僭称帝号	-16456
兀突骨曰	-16457
兄长何故	-16458
先主叹曰	-16459
先主怒曰	-16460
先主视之	-16461
先主问曰	-16462
光武中兴	-16463
入城去了	-16464
入朝不趋	-16465
入见操曰	-16466
全家良贱	-16467
全无惧色	-16468
公意若何	-16469
共扶汉室	-16470
共破曹操	-16471
共议大事	-16472
共议良策	-16473
关公下马	-16474
关公兵败	-16475
关公勒马	-16476
关公大惊	-16477
关公显圣	-16478
兴兵问罪	-16479
兴师伐魏	-16480
兵不血刃	-16481
兵微将寡	-16482
其人告曰	-16483
其余将士	-16484
其大如斗	-16485
再三劝谏	-16486
再三称谢	-16487
再三请问	-16488
再勿多言	-16489
军中大乱	-16490
军中虚实	-16491
军中郎将	-16492
军前视之	-16493
军师将令	-16494
军马入城	-16495
冬十二月	-16496
冲将过来	-16497
冲杀将来	-16498
冲突不出	-16499
冲突而来	-16500
几误大事	-16501
凤凰来仪	-16502
出城劳军	-16503
出城迎敌	-16504
分付你甚	-16505
分付魏延	-16506
分作三寨	-16507
分兵劫寨	-16508
切齿之恨	-16509
刘玄德在	-16510
初登宝位	-16511
别作商议	-16512
别作良图	-16513
别有商议	-16514
到吊桥边	-16515
前去迎敌	-16516
前来助战	-16517
前至雒城	-16518
前遮后拥	-16519
割须弃袍	-16520
力穷势孤	-16521
勃然变色	-16522
勒马问曰	-16523
北海太守	-16524
十伤八九	-16525
千里而来	-16526
华歆奏曰	-16527
卓大喜曰	-16528
卓大怒曰	-16529
卓问肃曰	-16530
单刀赴会	-16531
卖主求荣	-16532
卧于帐中	-16533
卧床不起	-16534
即传令教	-16535
却说姜维	-16536
却说孙权	-16537
却说孟获	-16538
却说曹仁	-16539
却说曹真	-16540
却说邓艾	-16541
厉声大叫	-16542
原来却是	-16543
原来如此	-16544
原来魏延	-16545
原来黄忠	-16546
去劫蜀寨	-16547
去劫魏寨	-16548
去取荆州	-16549
去袭剑阁	-16550
参军蒋琬	-16551
参拜已毕	-16552
参赞军机	-16553
又令马岱	-16554
又出祁山	-16555
又唤赵云	-16556
又唤马忠	-16557
又引军来	-16558
反国之贼	-16559
反欲害我	-16560
反间之计	-16561
受了孔明	-16562
受了密计	-16563
口出怨言	-16564
口吐鲜血	-16565
只在目前	-16566
只得勉强	-16567
只有些小	-16568
只见一将	-16569
可以屯兵	-16570
可保无虞	-16571
可将计就	-16572
可获全胜	-16573
可退蜀兵	-16574
右旅去方	-16575
右边张苞	-16576
号哭之声	-16577
司马师也	-16578
司马德操	-16579
司马望曰	-16580
司马都督	-16581
各事其主	-16582
各依队伍	-16583
各处关隘	-16584
各引三千	-16585
各有封赏	-16586
各洞酋长	-16587
各逃性命	-16588
各霸一方	-16589
后主闻奏	-16590
吟诗一首	-16591
听知折了	-16592
吴侯之妹	-16593
吴将丁奉	-16594
吴懿四将	-16595
吾不如也	-16596
吾不杀汝	-16597
吾与汝等	-16598
吾与玄德	-16599
吾主吴侯	-16600
吾之愿也	-16601
吾以仁义	-16602
吾何惧哉	-16603
吾儿奉先	-16604
吾受魏王	-16605
吾已令人	-16606
吾已杀之	-16607
吾有一言	-16608
吾若追之	-16609
呈上书札	-16610
呈上孔明	-16611
告急文书	-16612
周瑜灵柩	-16613
呼风唤雨	-16614
哂笑而退	-16615
哨马回报	-16616
唤入帐中	-16617
唬骸拔嵋	-16618
商议停当	-16619
商议起兵	-16620
啸聚山林	-16621
喊声忽起	-16622
喊声震天	-16623
喊杀连天	-16624
喟然叹曰	-16625
嗟呀不已	-16626
四十一州	-16627
四十余人	-16628
四千余人	-16629
四时享祭	-16630
四轮车上	-16631
四门大开	-16632
四面军马	-16633
四面受敌	-16634
四面蜀兵	-16635
回到汉中	-16636
回报孔明	-16637
回报曹操	-16638
回见孙权	-16639
国人饮之	-16640
国家之有	-16641
圆睁环眼	-16642
土人引路	-16643
土崩瓦解	-16644
在上方谷	-16645
在门旗下	-16646
坐于帐上	-16647
坐于床上	-16648
坐镇中原	-16649
埋伏去讫	-16650
埋锅造饭	-16651
城下搦战	-16652
城中百姓	-16653
城中粮少	-16654
城南门外	-16655
城门开处	-16656
城门校尉	-16657
墵山谷中	-16658
声如巨雷	-16659
备言其事	-16660
外无救兵	-16661
多负勤劳	-16662
夜作一梦	-16663
大事定矣	-16664
大事已定	-16665
大事成矣	-16666
大事谐矣	-16667
大喊一声	-16668
大寨而来	-16669
大将吕旷	-16670
大小将校	-16671
大开四门	-16672
大开寨门	-16673
大胜而回	-16674
大获胜捷	-16675
大设筵宴	-16676
大逆不道	-16677
大队军马	-16678
天下大乱	-16679
天下大事	-16680
天下定矣	-16681
天下豪杰	-16682
天公将军	-16683
天气炎热	-16684
天水太守	-16685
天色微明	-16686
太傅袁隗	-16687
太史慈也	-16688
太子曹芳	-16689
太守司马	-16690
太守朱光	-16691
太守王匡	-16692
太尉王祥	-16693
奉诏讨贼	-16694
奋力冲杀	-16695
奋力杀出	-16696
奋然出曰	-16697
奏准天子	-16698
奔回本寨	-16699
如不从者	-16700
如何不报	-16701
如何不降	-16702
如何去得	-16703
如何肯服	-16704
如何迎敌	-16705
如何这里	-16706
如何退兵	-16707
如其不胜	-16708
如此光景	-16709
如此模样	-16710
如此相待	-16711
如此英雄	-16712
妄杀一人	-16713
姜维深得	-16714
威声大震	-16715
威震其主	-16716
威震华夏	-16717
威风抖擞	-16718
子布之言	-16719
子服等皆	-16720
孔明乃留	-16721
孔明之计	-16722
孔明又唤	-16723
孔明又曰	-16724
孔明嘱曰	-16725
孔明回书	-16726
孔明多谋	-16727
孔明必然	-16728
孔明急令	-16729
孔明自引	-16730
孔明请入	-16731
孔明辞了	-16732
孙权沉吟	-16733
孙策出马	-16734
守关蜀将	-16735
守把关隘	-16736
安忍弃之	-16737
安忍背之	-16738
安能当此	-16739
官兵将士	-16740
官吏军民	-16741
宜城亭侯	-16742
宝刀一口	-16743
密室问之	-16744
寝食不安	-16745
寡不敌众	-16746
对面不见	-16747
寻思无计	-16748
寿春城中	-16749
将何策以	-16750
将军莫非	-16751
将欲何往	-16752
将百余日	-16753
将至壕边	-16754
尊意若何	-16755
小路而走	-16756
少年将军	-16757
尘埃起处	-16758
就中取事	-16759
尽去其缚	-16760
尽皆失色	-16761
尽皆杀之	-16762
屡犯中原	-16763
屯于祁山	-16764
屯粮积草	-16765
山坡之上	-16766
岂可造次	-16767
左右告曰	-16768
左右近侍	-16769
左边关兴	-16770
已历三世	-16771
已有准备	-16772
帐上帐下	-16773
帝室之胄	-16774
带剑上殿	-16775
带剑入宫	-16776
带剑而入	-16777
带甲百万	-16778
平明进兵	-16779
平生谨慎	-16780
并不提起	-16781
并无一物	-16782
并无动静	-16783
广陵太守	-16784
应诺而去	-16785
废立之事	-16786
建宁太守	-16787
开山大斧	-16788
开门接入	-16789
开门放入	-16790
弃甲抛戈	-16791
弃马步行	-16792
引一万兵	-16793
引一军出	-16794
引三百军	-16795
引五千军	-16796
引兵一万	-16797
引兵先行	-16798
引兵冲出	-16799
引兵出迎	-16800
引兵搦战	-16801
引兵数万	-16802
引兵杀来	-16803
引兵追来	-16804
引军搦战	-16805
引军而出	-16806
引军自回	-16807
张昭奏曰	-16808
张昭谏曰	-16809
张郃大败	-16810
张飞在此	-16811
张飞首级	-16812
当以何策	-16813
当先一将	-16814
当先大将	-16815
当先破敌	-16816
当夜三更	-16817
当用何计	-16818
彤云密布	-16819
彼兵粮尽	-16820
往来驰骋	-16821
往荆州来	-16822
径到汉中	-16823
径取洮阳	-16824
径取长安	-16825
待吾破了	-16826
徐州失散	-16827
徐晃出马	-16828
得胜而回	-16829
得脱重围	-16830
御用之物	-16831
心中不安	-16832
心中不悦	-16833
心生一计	-16834
必有事故	-16835
必有异心	-16836
必来劫寨	-16837
必来追赶	-16838
忽报云长	-16839
忽报吴兵	-16840
忽报蜀兵	-16841
忽报袁绍	-16842
忽报费祎	-16843
忽报郭淮	-16844
忽见一道	-16845
怀二心耶	-16846
急回马时	-16847
急退军时	-16848
恐有伏兵	-16849
恐老将军	-16850
悔之晚矣	-16851
惊疑不定	-16852
意欲何为	-16853
愿为前部	-16854
慌忙下车	-16855
慢吾军心	-16856
慨然领诺	-16857
懊悔不已	-16858
懿大喜曰	-16859
成了大功	-16860
成都求救	-16861
所乘之马	-16862
所见若何	-16863
手下止有	-16864
手中宝刀	-16865
手执长枪	-16866
手执长竿	-16867
手提利刃	-16868
手提大刀	-16869
手提宝剑	-16870
手起一刀	-16871
手起剑落	-16872
打邓贤寨	-16873
托名汉相	-16874
托疾不出	-16875
扬武将军	-16876
扬鞭大骂	-16877
扮作客商	-16878
扶老携幼	-16879
投江而死	-16880
折伤大半	-16881
抚掌大笑	-16882
报知关公	-16883
抵挡不住	-16884
拂袖而起	-16885
拈弓取箭	-16886
拍马交锋	-16887
拍马轮刀	-16888
拔剑斩之	-16889
拚将一死	-16890
拜于堂下	-16891
拜受印绶	-16892
拜见曹操	-16893
拜辞后主	-16894
拦挡不住	-16895
拨转马头	-16896
拨马便回	-16897
拨马回阵	-16898
拨马而走	-16899
按月给与	-16900
挫其锐气	-16901
挫动锐气	-16902
掌握之中	-16903
探马飞报	-16904
接着曹操	-16905
推下斩之	-16906
掷于地下	-16907
掷杯为号	-16908
掷杯于地	-16909
提兵大进	-16910
操令众将	-16911
操以鞭指	-16912
操必重待	-16913
操练人马	-16914
操自乘马	-16915
操贼之首	-16916
擒此二人	-16917
收拾军器	-16918
收拾军马	-16919
收拾败军	-16920
攻其无备	-16921
放下吊桥	-16922
放火烧毁	-16923
救兵不至	-16924
教练水军	-16925
整点军马	-16926
整顿船只	-16927
文房四宝	-16928
文武百官	-16929
斩首万余	-16930
断其粮道	-16931
方才放心	-16932
旌旗遍竖	-16933
无一人敢	-16934
无义之人	-16935
无人可敌	-16936
无可以报	-16937
无礼太甚	-16938
无能之辈	-16939
无言可对	-16940
无言可答	-16941
日行千里	-16942
旧日之情	-16943
时年五十	-16944
易如反掌	-16945
昔日之言	-16946
曹兵望见	-16947
曹兵赶来	-16948
曹军大败	-16949
曹操大军	-16950
曹操奸雄	-16951
曹操必然	-16952
曹操闻之	-16953
曹爽门下	-16954
有何事故	-16955
有何理说	-16956
有何难哉	-16957
朕意已决	-16958
望见蜀兵	-16959
望阳平关	-16960
望风归顺	-16961
望风而走	-16962
朝廷大事	-16963
未出茅庐	-16964
未及交锋	-16965
未及回言	-16966
未可动兵	-16967
未可图也	-16968
未可轻动	-16969
未敢轻进	-16970
未知献帝	-16971
机事不密	-16972
杀到天明	-16973
杀将出来	-16974
杀开条路	-16975
杀条大路	-16976
杀来接应	-16977
杀过阵来	-16978
杀透重围	-16979
权且罢兵	-16980
李典军中	-16981
来与蜀兵	-16982
来日交锋	-16983
来日再战	-16984
来杀曹操	-16985
来者莫非	-16986
来见丞相	-16987
来见先主	-16988
松江鲈鱼	-16989
极天际地	-16990
林木茂盛	-16991
枭其首级	-16992
横刀勒马	-16993
欠身答曰	-16994
次日天明	-16995
次日平明	-16996
欣然领诺	-16997
欲与将军	-16998
欲为内应	-16999
欺君之贼	-17000
正合孤意	-17001
正惊疑间	-17002
正欲起兵	-17003
正行之际	-17004
正饮酒间	-17005
此为上策	-17006
此事极易	-17007
此何兆也	-17008
此去如何	-17009
此去若何	-17010
此数人皆	-17011
此时孔明	-17012
此易事耳	-17013
死于军中	-17014
死生有命	-17015
死者极多	-17016
殷勤相待	-17017
毋丘俭在	-17018
每日饮酒	-17019
比及平明	-17020
民殷国富	-17021
气力不加	-17022
气周公瑾	-17023
气数已尽	-17024
水淹七军	-17025
汉室不幸	-17026
汉室之胄	-17027
汉朝皇叔	-17028
汉朝苗裔	-17029
汝可先饮	-17030
汝是何人	-17031
汝等皆是	-17032
沃野千里	-17033
沉吟良久	-17034
沿江上下	-17035
泪如雨下	-17036
泪流满面	-17037
洞中之人	-17038
淮南径路	-17039
渡了泸水	-17040
满城百姓	-17041
漫山塞野	-17042
火光之中	-17043
灭族之祸	-17044
焉敢如此	-17045
然后可图	-17046
然后引兵	-17047
然后徐图	-17048
然后徐徐	-17049
然后起兵	-17050
熟读兵书	-17051
特来相投	-17052
犹豫未定	-17053
独自一人	-17054
猛然省悟	-17055
献与曹操	-17056
献了城池	-17057
献诈降书	-17058
玄德入城	-17059
玄德匹马	-17060
玄德只是	-17061
玄德喜曰	-17062
玄德急令	-17063
玄德泣曰	-17064
玄德答曰	-17065
玄德闻知	-17066
玄德麾军	-17067
王佐之才	-17068
王莽篡逆	-17069
现居何职	-17070
甚是危急	-17071
用火攻之	-17072
田丰之言	-17073
留之不住	-17074
疏不间亲	-17075
白旄黄钺	-17076
百发百中	-17077
皂衣跣足	-17078
皆有饥色	-17079
相抱而哭	-17080
相拒月余	-17081
看看天晚	-17082
看看至近	-17083
真丈夫也	-17084
真将才也	-17085
真忠臣也	-17086
真神算也	-17087
睁圆环眼	-17088
知也不知	-17089
知彼知己	-17090
知有准备	-17091
知遇之恩	-17092
破敌之策	-17093
破蜀必矣	-17094
硫黄焰硝	-17095
礼贤下士	-17096
祁山九寨	-17097
神机妙算	-17098
秦晋之好	-17099
突围而出	-17100
突围而走	-17101
立于白旗	-17102
立于船头	-17103
立马桥上	-17104
端坐不动	-17105
筑起土山	-17106
策视其人	-17107
箭如雨发	-17108
粮草丰足	-17109
精兵万人	-17110
精兵三千	-17111
精兵猛将	-17112
糜夫人曰	-17113
素有大志	-17114
紧要去处	-17115
红旗一招	-17116
纵横四海	-17117
纵马舞刀	-17118
纵马赶来	-17119
终日饮酒	-17120
统领大军	-17121
维大惊曰	-17122
缚于车上	-17123
羌人之心	-17124
羞惭而退	-17125
老人答曰	-17126
老将丁奉	-17127
老将严颜	-17128
背后姜维	-17129
背后张郃	-17130
脱身之计	-17131
自去准备	-17132
自古以来	-17133
自回荆州	-17134
自己威风	-17135
自引军投	-17136
自有主张	-17137
自然无事	-17138
自然退去	-17139
至长坂桥	-17140
艾从其言	-17141
芳林园中	-17142
若不早图	-17143
苦告方免	-17144
苦谏不听	-17145
英勇无敌	-17146
荆州刘表	-17147
荡寇将军	-17148
落于水中	-17149
董卓专权	-17150
葬身之地	-17151
蒋琬奏曰	-17152
虎豹豺狼	-17153
蛮兵引路	-17154
蜀兵夺了	-17155
蜀兵掩杀	-17156
蜀兵退去	-17157
蜀汉延熙	-17158
蜀道崎岖	-17159
蜀郡太守	-17160
血流成河	-17161
血流成渠	-17162
行不数步	-17163
街亭有失	-17164
表奏后主	-17165
表奏天子	-17166
袁氏兄弟	-17167
袭取荆州	-17168
襄阳城外	-17169
襄阳大路	-17170
西北角上	-17171
见了大惊	-17172
见了张飞	-17173
见汉中王	-17174
言讫不见	-17175
言讫而亡	-17176
誓以死报	-17177
训练人马	-17178
设宴后堂	-17179
设宴待之	-17180
诈败佯输	-17181
诏司马懿	-17182
误我大事	-17183
请二夫人	-17184
请入相见	-17185
请汉中王	-17186
诸将无不	-17187
诸将问曰	-17188
诸葛亮必	-17189
诸葛军师	-17190
诸葛瑾曰	-17191
谁人可去	-17192
谁可擒之	-17193
谋士商议	-17194
谓二子曰	-17195
谓孟获曰	-17196
谓赵云曰	-17197
谓韩遂曰	-17198
谭从其言	-17199
贼臣董卓	-17200
贾诩谏曰	-17201
赏劳军士	-17202
跃马而来	-17203
跪于帐下	-17204
踌躇未决	-17205
身被数枪	-17206
辞了魏主	-17207
辽东太守	-17208
迁延日月	-17209
连叫三声	-17210
连夜奔回	-17211
连珠炮响	-17212
连络不绝	-17213
迤逦追赶	-17214
追之不上	-17215
退入城中	-17216
退入谷中	-17217
送与曹操	-17218
逃得性命	-17219
遂请玄德	-17220
遍观各营	-17221
遣使致书	-17222
邓艾分兵	-17223
那时乘虚	-17224
部下军士	-17225
郭常之子	-17226
郭淮从之	-17227
重兴汉室	-17228
金疮迸裂	-17229
金盔金甲	-17230
金鼓大震	-17231
钧意若何	-17232
销金伞盖	-17233
锐气正盛	-17234
锦袍玉带	-17235
镇国寺中	-17236
长子曹昂	-17237
闭门坚守	-17238
问贾诩曰	-17239
阁下玄孙	-17240
阴平桥头	-17241
陇西诸郡	-17242
陛下不可	-17243
陛下何不	-17244
随后接应	-17245
随后追杀	-17246
随后追赶	-17247
随机应变	-17248
隐居于此	-17249
青琐门外	-17250
非常之事	-17251
非等闲可	-17252
须臾席散	-17253
顿开茅塞	-17254
顿首拜谢	-17255
预先准备	-17256
领三万军	-17257
领五千兵	-17258
领兵三万	-17259
领兵前进	-17260
领兵来救	-17261
领益州牧	-17262
领荆州牧	-17263
颇有钱粮	-17264
颇知兵法	-17265
飞沙走石	-17266
飞马而来	-17267
飞马赶来	-17268
饮了数杯	-17269
饶你性命	-17270
马不及鞍	-17271
马匹军器	-17272
马匹器械	-17273
马岱商议	-17274
马良奏曰	-17275
驱兵赶来	-17276
驾幸许都	-17277
骤马赶来	-17278
高定的人	-17279
高沛二人	-17280
高贵乡公	-17281
魏兵大队	-17282
黄口孺子	-17283
黄忠出马	-17284
黄河渡口	-17285
黄祖首级	-17286
黑油柜车	-17287
默然不答	-17288
鼓声响处	-17289
鼓角又鸣	-17290
齐声喝采	-17291
▁且说关公	-17292
▁且说后主	-17293
▁且说董卓	-17294
▁却说吕布	-17295
▁却说孙坚	-17296
▁却说庞统	-17297
▁却说曹丕	-17298
▁却说章武	-17299
▁却说魏延	-17300
▁话分两头	-17301
一彪军闪出	-17302
一舌辩之士	-17303
丈八点钢矛	-17304
三十里迎接	-17305
不知在何处	-17306
与众将商议	-17307
与孔明商议	-17308
两路兵杀出	-17309
为征西将军	-17310
为镇西将军	-17311
乃聚诸将曰	-17312
乃蜀中名将	-17313
乃谓诸将曰	-17314
于是司马昭	-17315
于马项之下	-17316
五百军擂鼓	-17317
从山僻小路	-17318
以目视玄德	-17319
会猎于江夏	-17320
但笑而不答	-17321
元年秋八月	-17322
先主大怒曰	-17323
军中无戏言	-17324
出其不意也	-17325
出马大骂曰	-17326
刘玄德之弟	-17327
到城下叫门	-17328
前面又一军	-17329
勒回马便走	-17330
十常侍卖官	-17331
即分兵两路	-17332
即召司马懿	-17333
即命司马懿	-17334
即命夏侯惇	-17335
却说孔明在	-17336
厉声大骂曰	-17337
原来司马懿	-17338
参军马谡曰	-17339
叱武士推出	-17340
右将军徐晃	-17341
司马懿引兵	-17342
司马懿父子	-17343
吾奉天子诏	-17344
吾有何面目	-17345
哭拜于地曰	-17346
喝令刀斧手	-17347
回顾诸将曰	-17348
在当阳长坂	-17349
夏侯惇引军	-17350
大丈夫处世	-17351
天下奇才也	-17352
太傅司马孚	-17353
太祖武皇帝	-17354
如何瞒得我	-17355
如探囊取物	-17356
孔明令魏延	-17357
孔明变色曰	-17358
孔明大喜曰	-17359
左将军张布	-17360
左边夏侯惇	-17361
布无心恋战	-17362
带来洞主曰	-17363
引一军伏于	-17364
引五千精兵	-17365
引兵十万攻	-17366
引败兵奔入	-17367
张侍立于侧	-17368
张昭献计曰	-17369
张翼分付曰	-17370
张苞分付曰	-17371
张郃守长安	-17372
张飞大叫曰	-17373
征西大将军	-17374
径往牛头山	-17375
心腹之患也	-17376
快下马受降	-17377
忽哨马飞报	-17378
急勒马回时	-17379
急鸣金收军	-17380
愿先生教我	-17381
愿陛下察之	-17382
战三十余合	-17383
投袁术去了	-17384
报知司马昭	-17385
拨回马便走	-17386
挺丈八蛇矛	-17387
插青龙牙旗	-17388
操自领中军	-17389
放起一把火	-17390
文武商议曰	-17391
斩了夏侯渊	-17392
晋公司马昭	-17393
曹仁引众将	-17394
曹操为魏王	-17395
有一面之交	-17396
有多少人马	-17397
杀奔长安来	-17398
梦三马同槽	-17399
正色而言曰	-17400
此间有一人	-17401
济北相鲍信	-17402
玄德从其言	-17403
班师回洛阳	-17404
班师回许昌	-17405
班师回许都	-17406
甘宁为先锋	-17407
直杀到天明	-17408
离城二十里	-17409
罡星在西方	-17410
聚众官商议	-17411
自以为得志	-17412
西曹掾邵悌	-17413
见蜀兵退去	-17414
请二嫂上车	-17415
请孔明商议	-17416
诸葛亮之计	-17417
起倾国之兵	-17418
造木牛流马	-17419
遂设宴相待	-17420
遣人求救于	-17421
长史张昭曰	-17422
长史杨大将	-17423
问向导官曰	-17424
青龙偃月刀	-17425
非汝等之罪	-17426
顾谓众官曰	-17427
顾谓诸将曰	-17428
骠骑大将军	-17429
▁却说姜维在	-17430
▁却说孔明自	-17431
不可一日无君	-17432
不可以奉宗庙	-17433
不须张弓只箭	-17434
主母与小主人	-17435
以成鼎足之势	-17436
仲达之言是也	-17437
使者呈上书信	-17438
兖州刺史邓艾	-17439
关公急止之曰	-17440
写表申奏朝廷	-17441
出马于门旗下	-17442
制造木牛流马	-17443
前面一军摆开	-17444
又见于吉立于	-17445
商议退兵之策	-17446
喏喏连声而退	-17447
围得铁桶相似	-17448
城上矢石如雨	-17449
夏侯惇为先锋	-17450
太白临于雒城	-17451
孔明分拨已毕	-17452
孔明端坐于上	-17453
孔明谓诸将曰	-17454
山上擂木炮石	-17455
左玄右旅去方	-17456
引兵一万五千	-17457
当头一员大将	-17458
征西将军陈泰	-17459
待以上宾之礼	-17460
忽报公子刘琦	-17461
忽然鼓角齐鸣	-17462
急聚众将商议	-17463
总督御林军马	-17464
愿施犬马之劳	-17465
早有细作报入	-17466
曹爽兄弟三人	-17467
曹真为大都督	-17468
有人报知玄德	-17469
未知性命如何	-17470
杀得尸横遍野	-17471
来日四更造饭	-17472
此言正合吾意	-17473
毕竟此人是谁	-17474
漫山遍野而来	-17475
玄德与孙夫人	-17476
玄德拱手谢曰	-17477
相拒五十余日	-17478
立马于门旗下	-17479
脚孔分墨二寸	-17480
荆州已被吕蒙	-17481
车中端坐一人	-17482
进退两难之际	-17483
金环三结元帅	-17484
长沙太守韩玄	-17485
首尾不能救应	-17486
魏主曹睿设朝	-17487
与夏侯霸商议曰	-17488
中诸葛亮之计也	-17489
乃中山靖王之后	-17490
叱左右推出斩之	-17491
司马懿善能用兵	-17492
吾有何面目与汝	-17493
挟天子以令诸侯	-17494
时建安二十三年	-17495
汝二人各引一万	-17496
汝二人各引一军	-17497
雍州刺史诸葛绪	-17498
二人受计引兵而去	-17499
被云一枪刺落马下	-17500
,【	-17501
14	-17502
2.	-17503
3.	-17504
6)	-17505
9?	-17506
?∮	-17507
?┫	-17508
”:	-17509
▁乃	-17510
▁众	-17511
▁其	-17512
▁又	-17513
▁取	-17514
▁宴	-17515
▁封	-17516
▁师	-17517
▁废	-17518
▁承	-17519
▁捱	-17520
▁故	-17521
▁救	-17522
▁斩	-17523
▁有	-17524
▁灭	-17525
▁艾	-17526
▁讨	-17527
▁超	-17528
▁震	-17529
。【	-17530
に汀	-17531
一世	-17532
一件	-17533
一入	-17534
一决	-17535
一凤	-17536
一分	-17537
一卦	-17538
一台	-17539
一听	-17540
一命	-17541
一天	-17542
一夫	-17543
一官	-17544
一层	-17545
一帆	-17546
一席	-17547
一意	-17548
一扫	-17549
一拳	-17550
一提	-17551
一摇	-17552
一新	-17553
一星	-17554
一更	-17555
一服	-17556
一杆	-17557
一束	-17558
一樽	-17559
一段	-17560
一牛	-17561
一甥	-17562
一看	-17563
一童	-17564
一联	-17565
一至	-17566
一观	-17567
一觞	-17568
一试	-17569
一语	-17570
一足	-17571
一载	-17572
一镇	-17573
一顿	-17574
一领	-17575
丁宁	-17576
丁封	-17577
七个	-17578
七寸	-17579
七枝	-17580
七窍	-17581
七纵	-17582
万事	-17583
万军	-17584
万刃	-17585
万口	-17586
万国	-17587
万年	-17588
万彧	-17589
万金	-17590
万马	-17591
丈者	-17592
三令	-17593
三便	-17594
三八	-17595
三升	-17596
三叔	-17597
三台	-17598
三叹	-17599
三家	-17600
三峡	-17601
三座	-17602
三教	-17603
三番	-17604
三诏	-17605
三辞	-17606
三里	-17607
上屋	-17608
上杠	-17609
上此	-17610
上着	-17611
上虞	-17612
上计	-17613
上铺	-17614
下乡	-17615
下于	-17616
下亡	-17617
下住	-17618
下及	-17619
下合	-17620
下土	-17621
下帐	-17622
下民	-17623
下笔	-17624
下至	-17625
下药	-17626
不乏	-17627
不亡	-17628
不佑	-17629
不全	-17630
不减	-17631
不反	-17632
不变	-17633
不名	-17634
不坠	-17635
不孝	-17636
不少	-17637
不废	-17638
不忧	-17639
不念	-17640
不急	-17641
不恤	-17642
不披	-17643
不招	-17644
不接	-17645
不教	-17646
不散	-17647
不敬	-17648
不朝	-17649
不杂	-17650
不果	-17651
不染	-17652
不泄	-17653
不熟	-17654
不爱	-17655
不犯	-17656
不疾	-17657
不痊	-17658
不睬	-17659
不破	-17660
不稳	-17661
不究	-17662
不空	-17663
不穿	-17664
不老	-17665
不良	-17666
不记	-17667
不诛	-17668
不诬	-17669
不谙	-17670
不辨	-17671
不逊	-17672
不醒	-17673
不重	-17674
不题	-17675
不饱	-17676
不齐	-17677
与书	-17678
与会	-17679
与前	-17680
与卿	-17681
与妻	-17682
与尚	-17683
与忠	-17684
与术	-17685
与歆	-17686
与母	-17687
与民	-17688
与王	-17689
与语	-17690
与飞	-17691
专一	-17692
专为	-17693
专待	-17694
专政	-17695
专行	-17696
且其	-17697
且喜	-17698
且带	-17699
一坛	-17700
一猪	-17701
不令	-17702
丑恶	-17703
且暂	-17704
且病	-17705
且莫	-17706
且行	-17707
丕即	-17708
世乱	-17709
世仇	-17710
世代	-17711
世无	-17712
世统	-17713
丘墟	-17714
丘本	-17715
丙午	-17716
东城	-17717
东岸	-17718
东边	-17719
东郭	-17720
丢盔	-17721
两位	-17722
两势	-17723
两县	-17724
两句	-17725
两叶	-17726
两合	-17727
两宫	-17728
两彪	-17729
两情	-17730
两旁	-17731
两段	-17732
两淮	-17733
两相	-17734
两眉	-17735
两箭	-17736
两臂	-17737
两船	-17738
两雄	-17739
两面	-17740
严加	-17741
严禁	-17742
严装	-17743
丧命	-17744
丧妻	-17745
丧家	-17746
丧葬	-17747
丧身	-17748
个死	-17749
个空	-17750
中一	-17751
中他	-17752
中吾	-17753
中子	-17754
中官	-17755
中枪	-17756
中用	-17757
中贼	-17758
中起	-17759
中酒	-17760
临别	-17761
临去	-17762
临期	-17763
临洮	-17764
临淮	-17765
为下	-17766
为乎	-17767
为乱	-17768
为事	-17769
为例	-17770
为元	-17771
为妾	-17772
为孤	-17773
为建	-17774
为戏	-17775
为执	-17776
为无	-17777
为显	-17778
为桓	-17779
为武	-17780
为治	-17781
为泉	-17782
为流	-17783
为父	-17784
为生	-17785
为盗	-17786
为相	-17787
为能	-17788
为营	-17789
为蜀	-17790
为计	-17791
为谁	-17792
为长	-17793
为题	-17794
主丧	-17795
主之	-17796
主亡	-17797
主兵	-17798
主后	-17799
,《	-17800
。?	-17801
不先	-17802
不悲	-17803
丧气	-17804
个个	-17805
中门	-17806
为饭	-17807
主忧	-17808
主臣	-17809
举发	-17810
举手	-17811
举酒	-17812
乃会	-17813
乃佯	-17814
乃发	-17815
乃取	-17816
乃吾	-17817
乃垂	-17818
乃女	-17819
乃安	-17820
乃对	-17821
乃封	-17822
乃应	-17823
乃心	-17824
乃指	-17825
乃放	-17826
乃文	-17827
乃欲	-17828
乃武	-17829
乃白	-17830
乃立	-17831
乃统	-17832
乃虚	-17833
乃表	-17834
乃设	-17835
乃调	-17836
乃起	-17837
乃邀	-17838
乃降	-17839
乃集	-17840
乃顾	-17841
乃飞	-17842
久事	-17843
久知	-17844
义同	-17845
义名	-17846
之傍	-17847
之光	-17848
之印	-17849
之友	-17850
之可	-17851
之墓	-17852
之宝	-17853
之实	-17854
之容	-17855
之封	-17856
之庙	-17857
之态	-17858
之报	-17859
之料	-17860
之暴	-17861
之本	-17862
之来	-17863
之概	-17864
之流	-17865
之由	-17866
之神	-17867
之类	-17868
之约	-17869
之营	-17870
之诏	-17871
之谊	-17872
之谏	-17873
之资	-17874
之辱	-17875
之遗	-17876
之阻	-17877
之雄	-17878
之鬼	-17879
之魂	-17880
乌合	-17881
乎其	-17882
乐业	-17883
乐乎	-17884
乘丧	-17885
乘也	-17886
乘我	-17887
乘船	-17888
乘辇	-17889
乘金	-17890
乘高	-17891
乙数	-17892
九十	-17893
九日	-17894
九流	-17895
乞哀	-17896
乞身	-17897
乞钧	-17898
乞降	-17899
一败	-17900
一郡	-17901
三道	-17902
上前	-17903
不甘	-17904
与肃	-17905
之与	-17906
之滨	-17907
也休	-17908
也善	-17909
也杀	-17910
也被	-17911
也须	-17912
也飞	-17913
习习	-17914
习学	-17915
乡勇	-17916
书也	-17917
书付	-17918
书来	-17919
买卖	-17920
买卦	-17921
乱动	-17922
乱打	-17923
乱杀	-17924
乱柴	-17925
乱走	-17926
乱逆	-17927
乱道	-17928
乱飘	-17929
了书	-17930
了令	-17931
了地	-17932
了当	-17933
了望	-17934
争也	-17935
争奔	-17936
争竞	-17937
争论	-17938
事与	-17939
事乎	-17940
事发	-17941
事平	-17942
事当	-17943
事情	-17944
事未	-17945
事殷	-17946
事虽	-17947
二侄	-17948
二八	-17949
二卒	-17950
二县	-17951
二吉	-17952
二哥	-17953
二士	-17954
二女	-17955
二封	-17956
二帝	-17957
二志	-17958
二枚	-17959
二枪	-17960
二石	-17961
二糜	-17962
二蔡	-17963
二角	-17964
二路	-17965
二面	-17966
二马	-17967
于亲	-17968
于冷	-17969
于势	-17970
于君	-17971
于左	-17972
于布	-17973
于庭	-17974
于斯	-17975
于树	-17976
于案	-17977
于沙	-17978
于湖	-17979
于瑜	-17980
于礼	-17981
于荆	-17982
于车	-17983
于野	-17984
于难	-17985
于骨	-17986
云与	-17987
云已	-17988
云收	-17989
云汉	-17990
五七	-17991
五家	-17992
五寸	-17993
五岁	-17994
五彩	-17995
五步	-17996
五脏	-17997
五落	-17998
五霸	-17999
不奏	-18000
不悟	-18001
与命	-18002
丕令	-18003
乃西	-18004
之思	-18005
之无	-18006
于法	-18007
井底	-18008
亚夫	-18009
亡者	-18010
亡魂	-18011
亢炎	-18012
交与	-18013
交州	-18014
交通	-18015
交错	-18016
亥时	-18017
亦以	-18018
亦作	-18019
亦即	-18020
亦归	-18021
亦掣	-18022
亦望	-18023
亦欲	-18024
亦疑	-18025
亦言	-18026
亦谏	-18027
亦都	-18028
亦非	-18029
享国	-18030
亭上	-18031
亮乃	-18032
亮也	-18033
亮闻	-18034
亲事	-18035
亲友	-18036
亲属	-18037
亲情	-18038
亲戚	-18039
亲斩	-18040
亲来	-18041
亲赴	-18042
亲领	-18043
亵近	-18044
人下	-18045
人世	-18046
人中	-18047
人主	-18048
人取	-18049
人喊	-18050
人是	-18051
人有	-18052
人相	-18053
人眼	-18054
人神	-18055
人笑	-18056
人行	-18057
人难	-18058
仁人	-18059
仁心	-18060
仁智	-18061
仆从	-18062
仆射	-18063
仇国	-18064
今乘	-18065
今倚	-18066
今其	-18067
今卓	-18068
今古	-18069
今听	-18070
今复	-18071
今夕	-18072
今宵	-18073
今差	-18074
今布	-18075
今往	-18076
今必	-18077
今所	-18078
今投	-18079
今据	-18080
今无	-18081
今杀	-18082
今来	-18083
今次	-18084
今汉	-18085
今瑜	-18086
今统	-18087
今臣	-18088
仍命	-18089
仍旧	-18090
从也	-18091
从前	-18092
从北	-18093
从寨	-18094
从我	-18095
从长	-18096
仓卒	-18097
仓赈	-18098
他便	-18099
一闪	-18100
万段	-18101
万物	-18102
不主	-18103
与其	-18104
之助	-18105
之禄	-18106
事卓	-18107
亦只	-18108
人者	-18109
他变	-18110
他将	-18111
他年	-18112
他的	-18113
他见	-18114
他议	-18115
仙也	-18116
仙童	-18117
仙翁	-18118
代天	-18119
代州	-18120
代瑜	-18121
令公	-18122
令勿	-18123
令后	-18124
令平	-18125
令懿	-18126
令扶	-18127
令掌	-18128
令毕	-18129
令皆	-18130
令随	-18131
令青	-18132
以从	-18133
以传	-18134
以光	-18135
以免	-18136
以军	-18137
以出	-18138
以分	-18139
以力	-18140
以动	-18141
以励	-18142
以华	-18143
以叙	-18144
以向	-18145
以土	-18146
以壮	-18147
以失	-18148
以奉	-18149
以奏	-18150
以妹	-18151
以宁	-18152
以宽	-18153
以崇	-18154
以应	-18155
以弱	-18156
以御	-18157
以惑	-18158
以故	-18159
以文	-18160
以断	-18161
以杀	-18162
以水	-18163
以王	-18164
以疑	-18165
以祭	-18166
以终	-18167
以结	-18168
以船	-18169
以衣	-18170
以袭	-18171
以西	-18172
以观	-18173
以记	-18174
以败	-18175
以逆	-18176
以靖	-18177
以顺	-18178
以香	-18179
以麻	-18180
仪仗	-18181
仪曰	-18182
仰卧	-18183
仰慕	-18184
仲翔	-18185
任曰	-18186
任用	-18187
伍习	-18188
伏山	-18189
伏德	-18190
伐纣	-18191
伐罪	-18192
休出	-18193
休息	-18194
休惊	-18195
休杀	-18196
休辞	-18197
休错	-18198
众共	-18199
不围	-18200
与慈	-18201
与论	-18202
东顾	-18203
中旬	-18204
久欲	-18205
二分	-18206
于五	-18207
于林	-18208
人叫	-18209
今事	-18210
付之	-18211
任贤	-18212
任重	-18213
众口	-18214
众各	-18215
众望	-18216
众耳	-18217
众论	-18218
优曰	-18219
会战	-18220
会用	-18221
会盟	-18222
传密	-18223
伤人	-18224
伤哉	-18225
伤害	-18226
伤心	-18227
伤悼	-18228
伪作	-18229
伯济	-18230
伸臂	-18231
似悬	-18232
似有	-18233
似雪	-18234
但凡	-18235
但卿	-18236
但吾	-18237
但指	-18238
但言	-18239
但逢	-18240
住下	-18241
佐治	-18242
体探	-18243
体貌	-18244
何云	-18245
何名	-18246
何干	-18247
何忍	-18248
何患	-18249
何损	-18250
何爵	-18251
何畏	-18252
何益	-18253
何相	-18254
何经	-18255
何药	-18256
何薄	-18257
何顒	-18258
佗以	-18259
余姚	-18260
余火	-18261
作主	-18262
作保	-18263
作儿	-18264
作文	-18265
作此	-18266
佞臣	-18267
佞贼	-18268
你为	-18269
你也	-18270
你今	-18271
你去	-18272
你夺	-18273
你把	-18274
你敢	-18275
你是	-18276
你若	-18277
佩之	-18278
佯败	-18279
佳婿	-18280
使为	-18281
使仆	-18282
使令	-18283
使公	-18284
使刀	-18285
使某	-18286
使汝	-18287
使知	-18288
使肃	-18289
使能	-18290
侄董	-18291
侍女	-18292
供食	-18293
依之	-18294
依命	-18295
依我	-18296
依所	-18297
依栖	-18298
依此	-18299
▁汉	-18300
一退	-18301
上面	-18302
下榻	-18303
中细	-18304
主帅	-18305
九指	-18306
乱砍	-18307
于故	-18308
以告	-18309
以惊	-18310
作急	-18311
依草	-18312
侮慢	-18313
侯览	-18314
侵吴	-18315
侵吾	-18316
侵掠	-18317
侵晨	-18318
侵界	-18319
便具	-18320
便到	-18321
便取	-18322
便坐	-18323
便奔	-18324
便好	-18325
便射	-18326
便战	-18327
便拜	-18328
便搠	-18329
便撤	-18330
便死	-18331
便满	-18332
便议	-18333
便说	-18334
便起	-18335
便辞	-18336
便邀	-18337
便降	-18338
便食	-18339
俄延	-18340
俊伟	-18341
俊膘	-18342
俗云	-18343
保卿	-18344
保荐	-18345
俞元	-18346
俞氏	-18347
俟其	-18348
信任	-18349
信息	-18350
俭曰	-18351
修家	-18352
修文	-18353
修理	-18354
修葺	-18355
俱备	-18356
俱已	-18357
俱无	-18358
俱有	-18359
俱未	-18360
俱焚	-18361
俱破	-18362
俱至	-18363
俱走	-18364
俱起	-18365
俱降	-18366
倍明	-18367
倍添	-18368
倍长	-18369
倏忽	-18370
倒了	-18371
倒在	-18372
倒悬	-18373
倒拖	-18374
倘得	-18375
倘或	-18376
倘蒙	-18377
候了	-18378
候其	-18379
倚仗	-18380
倚天	-18381
借得	-18382
借汝	-18383
倦怠	-18384
倾盆	-18385
假以	-18386
假作	-18387
假成	-18388
假扮	-18389
偏邦	-18390
做个	-18391
停于	-18392
停刀	-18393
停泊	-18394
偶然	-18395
偷出	-18396
偷目	-18397
傅嘏	-18398
傅粉	-18399
下人	-18400
不打	-18401
之耻	-18402
乐悬	-18403
事人	-18404
事变	-18405
二敌	-18406
人在	-18407
假如	-18408
傍山	-18409
傍有	-18410
傍涧	-18411
傕军	-18412
傕性	-18413
催逼	-18414
傲睨	-18415
僭号	-18416
僭立	-18417
允从	-18418
允命	-18419
允急	-18420
允欲	-18421
允跪	-18422
元义	-18423
元旦	-18424
元臣	-18425
兄仇	-18426
兄何	-18427
兄勿	-18428
兄命	-18429
兄妹	-18430
充塞	-18431
先人	-18432
先从	-18433
先以	-18434
先召	-18435
先射	-18436
先捉	-18437
先时	-18438
先期	-18439
先纳	-18440
先被	-18441
先要	-18442
先达	-18443
先送	-18444
光辉	-18445
光阴	-18446
克期	-18447
免冠	-18448
免罪	-18449
免遭	-18450
入京	-18451
入到	-18452
入官	-18453
入己	-18454
入庄	-18455
入店	-18456
入庙	-18457
入死	-18458
入羌	-18459
入衙	-18460
入请	-18461
入谏	-18462
入跸	-18463
入门	-18464
全仗	-18465
全军	-18466
全凭	-18467
全后	-18468
全琮	-18469
全赖	-18470
八俊	-18471
八寸	-18472
八将	-18473
八日	-18474
八纳	-18475
八道	-18476
八部	-18477
公令	-18478
公侯	-18479
公厅	-18480
公去	-18481
公如	-18482
公威	-18483
公必	-18484
公琰	-18485
公用	-18486
公肯	-18487
公若	-18488
公衡	-18489
公议	-18490
公论	-18491
公辅	-18492
公辞	-18493
公道	-18494
六合	-18495
六国	-18496
六寸	-18497
六马	-18498
兮命	-18499
一谷	-18500
上坛	-18501
与天	-18502
与绍	-18503
且不	-18504
为伍	-18505
为孝	-18506
为寨	-18507
乃木	-18508
事多	-18509
五处	-18510
交换	-18511
人广	-18512
令邓	-18513
以招	-18514
以骄	-18515
你既	-18516
便分	-18517
俱失	-18518
偿命	-18519
傅巽	-18520
兄子	-18521
先盗	-18522
共七	-18523
共之	-18524
共取	-18525
共坐	-18526
共守	-18527
共寝	-18528
共愤	-18529
共灭	-18530
共聚	-18531
共谋	-18532
关去	-18533
关后	-18534
兴刘	-18535
兴平	-18536
兴汉	-18537
兴者	-18538
兴见	-18539
兵力	-18540
兵动	-18541
兵在	-18542
兵皆	-18543
兵聚	-18544
兵衰	-18545
兵要	-18546
兵起	-18547
其为	-18548
其乐	-18549
其二	-18550
其以	-18551
其任	-18552
其利	-18553
其变	-18554
其善	-18555
其墓	-18556
其师	-18557
其帽	-18558
其德	-18559
其性	-18560
其手	-18561
其无	-18562
其术	-18563
其水	-18564
其法	-18565
其病	-18566
其眼	-18567
其禄	-18568
其自	-18569
其船	-18570
其节	-18571
其道	-18572
其锐	-18573
其髯	-18574
兹谠	-18575
养之	-18576
养尊	-18577
养犊	-18578
养精	-18579
养虎	-18580
养马	-18581
养鹰	-18582
兼之	-18583
兼备	-18584
冀民	-18585
内事	-18586
内助	-18587
内去	-18588
内实	-18589
内庭	-18590
内忌	-18591
内燥	-18592
内选	-18593
册籍	-18594
再乞	-18595
再入	-18596
再去	-18597
再无	-18598
再若	-18599
七旬	-18600
三代	-18601
不俟	-18602
与备	-18603
世谱	-18604
东冲	-18605
久围	-18606
之境	-18607
今付	-18608
仲康	-18609
任夔	-18610
会聚	-18611
但可	-18612
假途	-18613
公受	-18614
其衣	-18615
内竖	-18616
内门	-18617
再赶	-18618
再起	-18619
再追	-18620
冒火	-18621
冒险	-18622
写下	-18623
军伍	-18624
军功	-18625
军又	-18626
军国	-18627
军土	-18628
军实	-18629
军必	-18630
军政	-18631
军权	-18632
军用	-18633
军者	-18634
军见	-18635
军走	-18636
农务	-18637
农夫	-18638
冤仇	-18639
冯翊	-18640
冰消	-18641
冲上	-18642
冲倒	-18643
冲去	-18644
冲撞	-18645
冲来	-18646
冲起	-18647
决不	-18648
决个	-18649
凉兵	-18650
凉药	-18651
凌弱	-18652
凌迟	-18653
减兵	-18654
凛然	-18655
凝眸	-18656
几上	-18657
几匹	-18658
几次	-18659
几郡	-18660
凤兮	-18661
凤鸣	-18662
凭依	-18663
凭几	-18664
凶信	-18665
凶少	-18666
凶谋	-18667
出也	-18668
出书	-18669
出则	-18670
出境	-18671
出守	-18672
出山	-18673
出庄	-18674
出庙	-18675
出没	-18676
出洞	-18677
出滏	-18678
出猎	-18679
出现	-18680
出禁	-18681
出见	-18682
出观	-18683
出警	-18684
出谷	-18685
出走	-18686
出阁	-18687
出鞘	-18688
函谷	-18689
刀来	-18690
刀法	-18691
刀牌	-18692
刀砍	-18693
分八	-18694
分其	-18695
分坐	-18696
分外	-18697
分娩	-18698
分守	-18699
;”	-18700
▁嵩	-18701
一破	-18702
一贼	-18703
不缺	-18704
为吾	-18705
之姿	-18706
之教	-18707
亮于	-18708
令一	-18709
令爱	-18710
伤身	-18711
住臂	-18712
何碍	-18713
八番	-18714
共宿	-18715
其恨	-18716
冲动	-18717
分定	-18718
分忧	-18719
分派	-18720
分浅	-18721
分说	-18722
分赏	-18723
分赐	-18724
分辩	-18725
分遣	-18726
分鼎	-18727
切莫	-18728
切须	-18729
刑法	-18730
列为	-18731
列将	-18732
列曜	-18733
刘先	-18734
刘公	-18735
刘君	-18736
刘失	-18737
刘子	-18738
刘宁	-18739
刘寔	-18740
刘恢	-18741
刘理	-18742
刘瑁	-18743
刘磐	-18744
刘范	-18745
刘贞	-18746
刘郎	-18747
刘雄	-18748
则举	-18749
则乱	-18750
则从	-18751
则伤	-18752
则公	-18753
则势	-18754
则勇	-18755
则强	-18756
则明	-18757
则有	-18758
则杀	-18759
则独	-18760
则知	-18761
则致	-18762
则鉴	-18763
刚到	-18764
刚强	-18765
刚才	-18766
创立	-18767
初出	-18768
初平	-18769
初得	-18770
初无	-18771
初时	-18772
初生	-18773
初贼	-18774
别后	-18775
别处	-18776
别寻	-18777
别将	-18778
别求	-18779
别部	-18780
刮起	-18781
到府	-18782
到晚	-18783
刻期	-18784
削去	-18785
削平	-18786
前哨	-18787
前夸	-18788
前情	-18789
前曾	-18790
前次	-18791
前破	-18792
前离	-18793
前程	-18794
前绪	-18795
前蹄	-18796
前轴	-18797
前过	-18798
剑割	-18799
一宅	-18800
不惟	-18801
不报	-18802
不舍	-18803
东岭	-18804
亲提	-18805
从弟	-18806
休戚	-18807
倒行	-18808
先截	-18809
入海	-18810
具棺	-18811
冀北	-18812
剑履	-18813
剑指	-18814
剖之	-18815
剖断	-18816
副焉	-18817
割发	-18818
割头	-18819
剿捕	-18820
劈竹	-18821
力主	-18822
力困	-18823
力孤	-18824
力已	-18825
力未	-18826
力竭	-18827
力谏	-18828
劝他	-18829
劝使	-18830
劝卓	-18831
劝和	-18832
劝孤	-18833
劝止	-18834
劝立	-18835
劝表	-18836
办事	-18837
功可	-18838
功大	-18839
功曹	-18840
加为	-18841
加以	-18842
加官	-18843
加封	-18844
加赏	-18845
务于	-18846
劣弟	-18847
劣马	-18848
动地	-18849
助吾	-18850
助备	-18851
助威	-18852
助操	-18853
助蜀	-18854
助贼	-18855
劫江	-18856
劫营	-18857
劫迁	-18858
劬劳	-18859
劲敌	-18860
势弱	-18861
势猛	-18862
势若	-18863
势败	-18864
勇也	-18865
勇冠	-18866
勇烈	-18867
勇略	-18868
勒口	-18869
勘菹	-18870
勘问	-18871
勤攻	-18872
勿与	-18873
勿令	-18874
勿出	-18875
勿泄	-18876
勿虑	-18877
勿辞	-18878
勿辱	-18879
勿进	-18880
勿追	-18881
勿遣	-18882
包土	-18883
包藏	-18884
包裹	-18885
化为	-18886
化外	-18887
化成	-18888
化雪	-18889
北兵	-18890
北去	-18891
北园	-18892
北来	-18893
北渡	-18894
北行	-18895
北讨	-18896
北走	-18897
北边	-18898
北还	-18899
严明	-18900
伏睹	-18901
其叔	-18902
匠作	-18903
匡君	-18904
匡扶	-18905
匡济	-18906
匣中	-18907
区夏	-18908
区星	-18909
十只	-18910
十员	-18911
十围	-18912
十步	-18913
十队	-18914
十面	-18915
千丈	-18916
千匹	-18917
千户	-18918
千斤	-18919
千骑	-18920
升殿	-18921
升腾	-18922
午牌	-18923
半个	-18924
半响	-18925
半生	-18926
半筹	-18927
华伦	-18928
华盖	-18929
卓于	-18930
卓以	-18931
卓喜	-18932
卓教	-18933
卓进	-18934
卖阵	-18935
南去	-18936
南昌	-18937
南越	-18938
南郊	-18939
博学	-18940
博带	-18941
博闻	-18942
卜地	-18943
卜曰	-18944
卢龙	-18945
卧倒	-18946
卫演	-18947
危亡	-18948
危俊	-18949
即为	-18950
即出	-18951
即吾	-18952
即拜	-18953
即来	-18954
即点	-18955
即率	-18956
即系	-18957
即设	-18958
即起	-18959
却为	-18960
却作	-18961
却使	-18962
却去	-18963
却唤	-18964
却引	-18965
却当	-18966
却把	-18967
却掘	-18968
却欲	-18969
却自	-18970
却闻	-18971
卷旗	-18972
卷毛	-18973
卿与	-18974
卿今	-18975
卿到	-18976
卿母	-18977
卿能	-18978
厅前	-18979
历观	-18980
历过	-18981
厌诈	-18982
厚加	-18983
厚薄	-18984
厚赐	-18985
厚赠	-18986
厝ィ	-18987
原有	-18988
原赐	-18989
原降	-18990
厨下	-18991
厮打	-18992
去保	-18993
去年	-18994
去战	-18995
去截	-18996
去探	-18997
去日	-18998
去献	-18999
去禀	-19000
去罢	-19001
去者	-19002
去耳	-19003
去赶	-19004
去迎	-19005
去降	-19006
县事	-19007
县人	-19008
县宰	-19009
又一	-19010
又下	-19011
又从	-19012
又以	-19013
又使	-19014
又危	-19015
又取	-19016
又受	-19017
又召	-19018
又增	-19019
又宣	-19020
又少	-19021
又当	-19022
又必	-19023
又忽	-19024
又恼	-19025
又知	-19026
又纵	-19027
又行	-19028
又要	-19029
又观	-19030
又谓	-19031
又过	-19032
又送	-19033
又逢	-19034
及其	-19035
及弟	-19036
及晓	-19037
及此	-19038
及秦	-19039
及策	-19040
双挽	-19041
双枪	-19042
双行	-19043
反乎	-19044
反受	-19045
反客	-19046
反心	-19047
反投	-19048
反骨	-19049
发中	-19050
发使	-19051
发箭	-19052
发言	-19053
叔向	-19054
取人	-19055
取信	-19056
取关	-19057
取其	-19058
取我	-19059
取来	-19060
取枪	-19061
取石	-19062
取至	-19063
取衣	-19064
取顺	-19065
取马	-19066
受制	-19067
受封	-19068
受爵	-19069
受讫	-19070
受难	-19071
变动	-19072
变来	-19073
变者	-19074
叙坐	-19075
叙旧	-19076
叙话	-19077
叛贼	-19078
叟也	-19079
叠桥	-19080
口剑	-19081
口含	-19082
口鼻	-19083
古庙	-19084
古木	-19085
古道	-19086
句践	-19087
另居	-19088
叩其	-19089
叩户	-19090
只为	-19091
只以	-19092
只作	-19093
只候	-19094
只去	-19095
只同	-19096
只守	-19097
只打	-19098
只把	-19099
只护	-19100
只独	-19101
只用	-19102
只盼	-19103
只知	-19104
只空	-19105
只言	-19106
只这	-19107
叫唤	-19108
叫苦	-19109
召外	-19110
召我	-19111
召至	-19112
召集	-19113
可不	-19114
可从	-19115
可伏	-19116
可作	-19117
可全	-19118
可击	-19119
可助	-19120
可定	-19121
可引	-19122
可留	-19123
可疾	-19124
可纳	-19125
可继	-19126
可至	-19127
可见	-19128
可言	-19129
可请	-19130
可通	-19131
可防	-19132
叱令	-19133
史笔	-19134
右入	-19135
右寨	-19136
右弼	-19137
叵耐	-19138
叶芸	-19139
号旗	-19140
号起	-19141
司天	-19142
司直	-19143
叹惜	-19144
叹羡	-19145
吁嗟	-19146
吃一	-19147
吃酒	-19148
各一	-19149
各于	-19150
各出	-19151
各去	-19152
各叙	-19153
各家	-19154
各弃	-19155
各归	-19156
各把	-19157
各整	-19158
各穿	-19159
各置	-19160
各舍	-19161
各船	-19162
各起	-19163
各路	-19164
各退	-19165
各饮	-19166
合得	-19167
合眼	-19168
吉日	-19169
吉祥	-19170
同乐	-19171
同事	-19172
同关	-19173
同分	-19174
同到	-19175
同居	-19176
同月	-19177
同死	-19178
同窗	-19179
同观	-19180
同赴	-19181
同载	-19182
名备	-19183
名宓	-19184
名定	-19185
名恢	-19186
名慈	-19187
名昭	-19188
名权	-19189
名流	-19190
名称	-19191
名统	-19192
名维	-19193
名肃	-19194
名雍	-19195
名霸	-19196
名飞	-19197
后也	-19198
后兵	-19199
后取	-19200
后宫	-19201
后当	-19202
后杠	-19203
后羿	-19204
后自	-19205
后袭	-19206
后辈	-19207
吏曰	-19208
向事	-19209
向晚	-19210
向蒙	-19211
向辅	-19212
吓得	-19213
吕义	-19214
君也	-19215
君可	-19216
君必	-19217
君所	-19218
君若	-19219
君被	-19220
君颜	-19221
吞狼	-19222
含糊	-19223
听时	-19224
听焉	-19225
听用	-19226
听诏	-19227
听谗	-19228
启曰	-19229
启知	-19230
吴匡	-19231
吴地	-19232
吴境	-19233
吴寨	-19234
吴蜀	-19235
吴越	-19236
吹大	-19237
吹灭	-19238
吾中	-19239
吾几	-19240
吾初	-19241
吾向	-19242
吾就	-19243
吾尸	-19244
吾属	-19245
吾屯	-19246
吾归	-19247
吾无	-19248
吾昔	-19249
吾曰	-19250
吾替	-19251
吾杀	-19252
吾正	-19253
吾母	-19254
吾求	-19255
吾深	-19256
吾用	-19257
吾疑	-19258
吾病	-19259
吾算	-19260
吾累	-19261
吾老	-19262
吾聊	-19263
吾荐	-19264
吾试	-19265
吾辈	-19266
吾面	-19267
呆了	-19268
呈书	-19269
告与	-19270
告变	-19271
告归	-19272
呕吐	-19273
呕血	-19274
周平	-19275
周易	-19276
命乎	-19277
命也	-19278
命厚	-19279
命已	-19280
命斩	-19281
命某	-19282
命系	-19283
命题	-19284
和好	-19285
和衣	-19286
咨尔	-19287
哀号	-19288
哀声	-19289
哀恸	-19290
哀求	-19291
哑军	-19292
哨船	-19293
哨见	-19294
哭于	-19295
哭绝	-19296
哭诉	-19297
哭谓	-19298
唐周	-19299
唐尧	-19300
唤回	-19301
唤来	-19302
啖之	-19303
啖睛	-19304
喂养	-19305
善乎	-19306
善会	-19307
善埔	-19308
善终	-19309
善自	-19310
喊叫	-19311
喘息	-19312
喝散	-19313
嗔怒	-19314
嗟常	-19315
嘉之	-19316
嘉兴	-19317
嘉禾	-19318
嘱以	-19319
嘱其	-19320
嘱毕	-19321
嘱讫	-19322
器宇	-19323
器用	-19324
囚禁	-19325
四合	-19326
四员	-19327
四围	-19328
四寨	-19329
四番	-19330
四腮	-19331
四至	-19332
四角	-19333
四远	-19334
回之	-19335
回乡	-19336
回国	-19337
回射	-19338
回旗	-19339
回本	-19340
回看	-19341
回蜀	-19342
回路	-19343
回还	-19344
回首	-19345
因之	-19346
因命	-19347
因复	-19348
因往	-19349
因怒	-19350
因怜	-19351
因欲	-19352
因说	-19353
因谏	-19354
因闻	-19355
团团	-19356
园门	-19357
困住	-19358
围之	-19359
围堑	-19360
围定	-19361
围山	-19362
围裹	-19363
国乎	-19364
国号	-19365
国戚	-19366
国母	-19367
国法	-19368
国门	-19369
图形	-19370
图我	-19371
图报	-19372
图画	-19373
图谶	-19374
土为	-19375
土冈	-19376
土成	-19377
土神	-19378
圣意	-19379
圣明	-19380
在各	-19381
在城	-19382
在堂	-19383
在寨	-19384
在尔	-19385
在床	-19386
在我	-19387
在虎	-19388
在身	-19389
地下	-19390
地中	-19391
地矣	-19392
地连	-19393
地陷	-19394
坏了	-19395
坏壁	-19396
坐中	-19397
坐卧	-19398
坐在	-19399
坐地	-19400
坐席	-19401
坐据	-19402
坐针	-19403
坑内	-19404
坑堑	-19405
坚令	-19406
坚刚	-19407
坚得	-19408
坚意	-19409
坚闭	-19410
坞内	-19411
坞外	-19412
坠井	-19413
坡上	-19414
垂于	-19415
垂救	-19416
垂鉴	-19417
垕曰	-19418
城也	-19419
城去	-19420
城后	-19421
城壕	-19422
城时	-19423
城来	-19424
城西	-19425
基上	-19426
堂前	-19427
堆满	-19428
堤上	-19429
塞住	-19430
塞外	-19431
塞耳	-19432
塞道	-19433
境上	-19434
墒鼓	-19435
墓前	-19436
墙上	-19437
墙下	-19438
增邑	-19439
墨绶	-19440
壁上	-19441
士众	-19442
士女	-19443
壮之	-19444
壮年	-19445
壮志	-19446
声名	-19447
声响	-19448
声若	-19449
声言	-19450
声闻	-19451
声音	-19452
壶浆	-19453
处小	-19454
处所	-19455
处治	-19456
备也	-19457
备叨	-19458
备惧	-19459
备昔	-19460
备欲	-19461
复业	-19462
复使	-19463
复兴	-19464
复命	-19465
复存	-19466
复归	-19467
复得	-19468
复职	-19469
复起	-19470
夏恽	-19471
夔关	-19472
夕阳	-19473
外兵	-19474
外孙	-19475
外宽	-19476
外患	-19477
外托	-19478
外有	-19479
外穿	-19480
外门	-19481
多习	-19482
多取	-19483
多在	-19484
多处	-19485
多妖	-19486
多归	-19487
多慢	-19488
多是	-19489
多曾	-19490
多艾	-19491
多装	-19492
多计	-19493
多诈	-19494
多贤	-19495
多送	-19496
多造	-19497
夜夜	-19498
夜宴	-19499
夜深	-19500
夜袭	-19501
夜设	-19502
夥军	-19503
大不	-19504
大兴	-19505
大利	-19506
大务	-19507
大口	-19508
大可	-19509
大哉	-19510
大堤	-19511
大字	-19512
大宛	-19513
大幸	-19514
大慌	-19515
大才	-19516
大抵	-19517
大损	-19518
大晋	-19519
大杀	-19520
大树	-19521
大海	-19522
大溪	-19523
大矣	-19524
大石	-19525
大禹	-19526
大筏	-19527
大红	-19528
大荒	-19529
大营	-19530
大要	-19531
大语	-19532
大贵	-19533
大辂	-19534
大造	-19535
大道	-19536
大郡	-19537
大钉	-19538
大闹	-19539
大集	-19540
大须	-19541
大骇	-19542
天上	-19543
天与	-19544
天丧	-19545
天各	-19546
天复	-19547
天年	-19548
天幸	-19549
天府	-19550
天性	-19551
天所	-19552
天晴	-19553
天朝	-19554
天机	-19555
天狗	-19556
天理	-19557
天言	-19558
天运	-19559
天风	-19560
太仓	-19561
太和	-19562
太行	-19563
太阳	-19564
夫妇	-19565
失位	-19566
失其	-19567
失国	-19568
失宠	-19569
失德	-19570
失箸	-19571
头入	-19572
头发	-19573
头在	-19574
头烂	-19575
头生	-19576
头脑	-19577
头顶	-19578
头颅	-19579
头额	-19580
头髻	-19581
夺去	-19582
夺我	-19583
夺粮	-19584
奂泣	-19585
奇门	-19586
奉乃	-19587
奉令	-19588
奉教	-19589
奉旨	-19590
奉曰	-19591
奉表	-19592
奉还	-19593
奋武	-19594
奎星	-19595
奏乐	-19596
奏报	-19597
奏绩	-19598
奏罢	-19599
契友	-19600
奔上	-19601
奔出	-19602
奔散	-19603
奔还	-19604
奔避	-19605
奕耍	-19606
奖励	-19607
奠酒	-19608
奢侈	-19609
女傍	-19610
女名	-19611
女流	-19612
奸回	-19613
奸猾	-19614
奸诈	-19615
奸险	-19616
好为	-19617
好事	-19618
好利	-19619
好看	-19620
好色	-19621
好观	-19622
好音	-19623
如亲	-19624
如儿	-19625
如先	-19626
如再	-19627
如厕	-19628
如在	-19629
如子	-19630
如归	-19631
如得	-19632
如或	-19633
如拨	-19634
如昼	-19635
如月	-19636
如林	-19637
如果	-19638
如注	-19639
如活	-19640
如火	-19641
如父	-19642
如箭	-19643
如迟	-19644
如风	-19645
妄称	-19646
妖妄	-19647
妖孽	-19648
妙用	-19649
妙论	-19650
妾乃	-19651
妾父	-19652
妾见	-19653
姑待	-19654
姓字	-19655
姓曹	-19656
姓秦	-19657
姓程	-19658
姓蒋	-19659
姓邓	-19660
姓郭	-19661
委任	-19662
委实	-19663
威势	-19664
威胜	-19665
娜耍	-19666
娶其	-19667
娼优	-19668
婚姻	-19669
子丕	-19670
子义	-19671
子乎	-19672
子仲	-19673
子军	-19674
子去	-19675
子母	-19676
子衡	-19677
孔子	-19678
孔长	-19679
字叔	-19680
字孔	-19681
字惠	-19682
字昭	-19683
字曼	-19684
字永	-19685
存下	-19686
孙恩	-19687
孙楷	-19688
孙膑	-19689
孚曰	-19690
孝也	-19691
孝服	-19692
孝起	-19693
孟光	-19694
孟津	-19695
孤与	-19696
孤为	-19697
孤今	-19698
孤岂	-19699
孤掌	-19700
孤矣	-19701
学业	-19702
学圃	-19703
学得	-19704
学校	-19705
孱陵	-19706
宁靖	-19707
宅门	-19708
宅院	-19709
守义	-19710
守了	-19711
守分	-19712
守墓	-19713
守宣	-19714
守尸	-19715
守至	-19716
安下	-19717
安于	-19718
安享	-19719
安否	-19720
安如	-19721
安妥	-19722
安平	-19723
安息	-19724
安曰	-19725
安林	-19726
安长	-19727
宋白	-19728
宗宝	-19729
宗弟	-19730
宗社	-19731
宗祖	-19732
官品	-19733
官居	-19734
官拜	-19735
官授	-19736
官铠	-19737
定夺	-19738
定州	-19739
定引	-19740
定拟	-19741
定爵	-19742
宜且	-19743
宜善	-19744
宜深	-19745
宝物	-19746
实对	-19747
实情	-19748
实授	-19749
实由	-19750
实诉	-19751
宠妾	-19752
客兵	-19753
宣化	-19754
宣平	-19755
宦竖	-19756
宪英	-19757
宫出	-19758
宫禁	-19759
宰牛	-19760
害吾	-19761
害矣	-19762
宴于	-19763
宴会	-19764
宴毕	-19765
家世	-19766
家产	-19767
家可	-19768
家国	-19769
家婆	-19770
家家	-19771
家是	-19772
容伸	-19773
容其	-19774
容徐	-19775
容身	-19776
宽厚	-19777
宽大	-19778
宾馆	-19779
寂寞	-19780
寄下	-19781
寄与	-19782
密议	-19783
密谕	-19784
寇封	-19785
寇至	-19786
寇贼	-19787
寒心	-19788
寒鸦	-19789
寝室	-19790
察焉	-19791
寡妇	-19792
寡居	-19793
寸土	-19794
对阵	-19795
对饮	-19796
寺恚	-19797
寺院	-19798
寻事	-19799
寻章	-19800
寻访	-19801
寿酒	-19802
封艾	-19803
封记	-19804
射他	-19805
射戟	-19806
射目	-19807
射者	-19808
将从	-19809
将前	-19810
将坠	-19811
将复	-19812
将女	-19813
将就	-19814
将崩	-19815
将所	-19816
将相	-19817
将着	-19818
将西	-19819
将还	-19820
将这	-19821
将陷	-19822
将领	-19823
尊神	-19824
小乔	-19825
小亭	-19826
小可	-19827
小吏	-19828
小城	-19829
小女	-19830
小字	-19831
小宴	-19832
小师	-19833
小斛	-19834
小方	-19835
小道	-19836
小龙	-19837
少住	-19838
少出	-19839
少刻	-19840
少坐	-19841
少子	-19842
少待	-19843
少息	-19844
少罪	-19845
尔等	-19846
尚军	-19847
尚敢	-19848
尚曰	-19849
尚温	-19850
尚能	-19851
尚见	-19852
尚食	-19853
尚飨	-19854
尝与	-19855
尝往	-19856
尝怀	-19857
就于	-19858
就亲	-19859
就便	-19860
就内	-19861
就如	-19862
就将	-19863
就戮	-19864
就擒	-19865
就杀	-19866
就死	-19867
就送	-19868
就食	-19869
尹默	-19870
尺书	-19871
尺素	-19872
尽南	-19873
尽取	-19874
尽归	-19875
尽得	-19876
尽意	-19877
尽拘	-19878
尽拨	-19879
尽提	-19880
尽搬	-19881
尽撤	-19882
尽斩	-19883
尽服	-19884
尽望	-19885
尽率	-19886
尽瘁	-19887
尽脱	-19888
居其	-19889
居尊	-19890
居巢	-19891
居常	-19892
屈杀	-19893
屏障	-19894
属官	-19895
屠沽	-19896
屠猪	-19897
屡胜	-19898
屯在	-19899
屯积	-19900
山坞	-19901
山多	-19902
山崦	-19903
山石	-19904
山神	-19905
山高	-19906
岁在	-19907
岁时	-19908
岂以	-19909
岂忍	-19910
岂惧	-19911
岂望	-19912
岂识	-19913
岭下	-19914
岭南	-19915
岭峻	-19916
岳父	-19917
峡口	-19918
峪口	-19919
峻岭	-19920
峻曰	-19921
崔烈	-19922
崩倒	-19923
崩摧	-19924
嵌宝	-19925
嵩山	-19926
嵯峨	-19927
巅崖	-19928
巍然	-19929
巡江	-19930
巡狩	-19931
巡粮	-19932
左丰	-19933
左传	-19934
左目	-19935
巧言	-19936
巧计	-19937
巧说	-19938
巨兽	-19939
巨鹿	-19940
差役	-19941
差遣	-19942
已事	-19943
已于	-19944
已危	-19945
已堕	-19946
已备	-19947
已就	-19948
已弃	-19949
已怀	-19950
已急	-19951
已据	-19952
已服	-19953
已熟	-19954
已甚	-19955
已皆	-19956
已裕	-19957
已许	-19958
已遣	-19959
巳嗜	-19960
巳时	-19961
巴山	-19962
巴州	-19963
巾帻	-19964
布入	-19965
布喜	-19966
布因	-19967
布当	-19968
布德	-19969
布意	-19970
布虽	-19971
布见	-19972
布谢	-19973
布随	-19974
帆贼	-19975
师事	-19976
师巫	-19977
师急	-19978
师篡	-19979
帘内	-19980
帝亦	-19981
帝幸	-19982
帝怒	-19983
帝慰	-19984
帝教	-19985
帝胄	-19986
带回	-19987
带数	-19988
带病	-19989
常使	-19990
幅巾	-19991
幌椤	-19992
幕官	-19993
干事	-19994
干功	-19995
干粮	-19996
平也	-19997
平人	-19998
平其	-19999
平北	-20000
平南	-20001
平愈	-20002
平白	-20003
平蜀	-20004
年也	-20005
年后	-20006
年尚	-20007
年终	-20008
年长	-20009
并于	-20010
并光	-20011
并入	-20012
并布	-20013
并未	-20014
并立	-20015
并车	-20016
并非	-20017
幸垂	-20018
幸臣	-20019
幸蒙	-20020
幸遇	-20021
幼妇	-20022
幼年	-20023
幼者	-20024
幽困	-20025
幽隐	-20026
广布	-20027
广盛	-20028
庄前	-20029
床头	-20030
床来	-20031
库藏	-20032
应劭	-20033
应募	-20034
应在	-20035
应无	-20036
应是	-20037
应用	-20038
店中	-20039
庙貌	-20040
府堂	-20041
府官	-20042
府门	-20043
庞会	-20044
庞柔	-20045
废人	-20046
废公	-20047
庠獯	-20048
度尚	-20049
度沈	-20050
座前	-20051
座间	-20052
庵前	-20053
庶亦	-20054
庶可	-20055
康成	-20056
廉颇	-20057
延坐	-20058
延康	-20059
延接	-20060
廷臣	-20061
建号	-20062
建平	-20063
建庙	-20064
建曰	-20065
建章	-20066
建都	-20067
建高	-20068
开匣	-20069
开发	-20070
开拆	-20071
开肉	-20072
开道	-20073
异乡	-20074
异才	-20075
弃军	-20076
弃刀	-20077
式曰	-20078
引了	-20079
引他	-20080
引得	-20081
引承	-20082
引至	-20083
引虎	-20084
引诱	-20085
引贼	-20086
弟孙	-20087
弟恨	-20088
张昊	-20089
张来	-20090
张横	-20091
张牙	-20092
张球	-20093
张肃	-20094
张节	-20095
张衡	-20096
张裔	-20097
弦歌	-20098
弱主	-20099
弱也	-20100
弱兵	-20101
弱冠	-20102
弱草	-20103
弹丸	-20104
强为	-20105
强寇	-20106
强弩	-20107
强暴	-20108
强记	-20109
归农	-20110
归怨	-20111
归服	-20112
归期	-20113
归汉	-20114
归计	-20115
当令	-20116
当使	-20117
当前	-20118
当后	-20119
当废	-20120
当得	-20121
当曰	-20122
当然	-20123
当用	-20124
当遣	-20125
当铭	-20126
当降	-20127
彭安	-20128
彭越	-20129
彼之	-20130
彼亦	-20131
彼哉	-20132
彼因	-20133
彼岸	-20134
彼时	-20135
彼见	-20136
彼言	-20137
往下	-20138
往劫	-20139
往北	-20140
往后	-20141
往往	-20142
往聘	-20143
征东	-20144
征战	-20145
征蛮	-20146
径中	-20147
径去	-20148
待命	-20149
待敌	-20150
待时	-20151
待砍	-20152
待至	-20153
待过	-20154
徐步	-20155
徐璆	-20156
徐郡	-20157
徒为	-20158
徒众	-20159
徒弟	-20160
得二	-20161
得他	-20162
得全	-20163
得利	-20164
得功	-20165
得失	-20166
得操	-20167
得毋	-20168
得甚	-20169
得生	-20170
得着	-20171
得紧	-20172
得而	-20173
得虎	-20174
得表	-20175
得计	-20176
得诏	-20177
得这	-20178
御车	-20179
微劳	-20180
微有	-20181
微笑	-20182
微躯	-20183
微醉	-20184
[...]
