<unk>	0
<s>	0
</s>	0
:“	-0
。”	-1
?”	-2
玄德	-3
!”	-4
孔明	-5
将军	-6
曹操	-7
却说	-8
司马	-9
二人	-10
不可	-11
丞相	-12
关公	-13
引兵	-14
云长	-15
▁却说	-16
荆州	-17
夏侯	-18
不能	-19
吕布	-20
张飞	-21
蜀兵	-22
如此	-23
玄德曰	-24
孔明曰	-25
大喜	-26
诸葛	-27
如何	-28
商议	-29
大怒	-30
魏延	-31
天下	-32
孙权	-33
主公	-34
军马	-35
操曰	-36
一人	-37
军士	-38
大惊	-39
刘备	-40
赵云	-41
夫人	-42
魏兵	-43
左右	-44
姜维	-45
司马懿	-46
笑曰	-47
次日	-48
去了	-49
东吴	-50
问曰	-51
十余	-52
袁绍	-53
视之	-54
不敢	-55
于是	-56
众将	-57
引军	-58
不知	-59
今日	-60
而走	-61
诸将	-62
汉中	-63
人马	-64
而去	-65
周瑜	-66
之事	-67
只见	-68
马超	-69
一军	-70
陛下	-71
后主	-72
都督	-73
黄忠	-74
上马	-75
张郃	-76
天子	-77
有一	-78
大叫	-79
背后	-80
一面	-81
不得	-82
入城	-83
而来	-84
忽报	-85
之言	-86
太守	-87
使人	-88
后人	-89
此人	-90
大军	-91
何不	-92
先主	-93
有诗	-94
邓艾	-95
令人	-96
??	-97
何故	-98
先生	-99
一声	-100
然后	-101
下马	-102
不如	-103
原来	-104
孟获	-105
汝等	-106
二十	-107
出城	-108
叹曰	-109
诸葛亮	-110
赶来	-111
张辽	-112
先锋	-113
城中	-114
之计	-115
正是	-116
二将	-117
军中	-118
忽然	-119
后人有诗	-120
之人	-121
大将	-122
奈何	-123
奏曰	-124
徐州	-125
之后	-126
喊声	-127
领兵	-128
不出	-129
大事	-130
成都	-131
大败	-132
百姓	-133
在此	-134
江东	-135
祁山	-136
之兵	-137
因此	-138
未知	-139
众官	-140
寨中	-141
不见	-142
斩之	-143
▁第	-144
其言	-145
庞德	-146
一齐	-147
下文	-148
人报	-149
接应	-150
来见	-151
从之	-152
以为	-153
徐晃	-154
百余	-155
鲁肃	-156
下寨	-157
刘表	-158
起兵	-159
马岱	-160
分解	-161
心中	-162
杀之	-163
进兵	-164
分付	-165
孙策	-166
必有	-167
城上	-168
曹仁	-169
而出	-170
而行	-171
董卓	-172
皇叔	-173
下文分解	-174
曹兵	-175
纵马	-176
出马	-177
只得	-178
有何	-179
许都	-180
之曰	-181
粮草	-182
追赶	-183
分兵	-184
洛阳	-185
于马	-186
众皆	-187
回报	-188
大怒曰	-189
夏侯惇	-190
三千	-191
十万	-192
五千	-193
随后	-194
且说	-195
关兴	-196
听得	-197
长安	-198
于地	-199
星夜	-200
杀来	-201
答曰	-202
五百	-203
文武	-204
若何	-205
之地	-206
十里	-207
许褚	-208
可以	-209
尽皆	-210
挺枪	-211
西川	-212
兄弟	-213
前面	-214
告曰	-215
若不	-216
问之	-217
刘璋	-218
肃曰	-219
司马昭	-220
一日	-221
军师	-222
王平	-223
不肯	-224
人也	-225
精兵	-226
立于	-227
谏曰	-228
乘势	-229
张翼	-230
袁术	-231
夏侯渊	-232
之意	-233
亲自	-234
吕蒙	-235
我等	-236
且看	-237
子龙	-238
差人	-239
入见	-240
准备	-241
城下	-242
孟达	-243
忽见	-244
甘宁	-245
三军	-246
不及	-247
懿曰	-248
李傕	-249
相见	-250
一彪	-251
两路	-252
伏兵	-253
小路	-254
此事	-255
死战	-256
英雄	-257
襄阳	-258
之中	-259
于禁	-260
孙乾	-261
言曰	-262
引一军	-263
三人	-264
众军	-265
公孙	-266
吴兵	-267
魏主	-268
不住	-269
两军	-270
坚守	-271
帐下	-272
当先	-273
朝廷	-274
蛮兵	-275
首级	-276
四面	-277
遣使	-278
吾今	-279
埋伏	-280
太后	-281
张苞	-282
投降	-283
无不	-284
来日	-285
之心	-286
其人	-287
出战	-288
报知	-289
之时	-290
之间	-291
传令	-292
大震	-293
并无	-294
必然	-295
曹洪	-296
曹真	-297
来迎	-298
樊城	-299
瑜曰	-300
大将军	-301
三路	-302
大王	-303
是夜	-304
杀出	-305
此时	-306
陆逊	-307
且看下文分解	-308
不从	-309
庞统	-310
特来	-311
于马下	-312
何人	-313
如之	-314
安敢	-315
廖化	-316
张鲁	-317
权曰	-318
死于	-319
出迎	-320
回见	-321
布曰	-322
明公	-323
李典	-324
箭射	-325
郭淮	-326
中军	-327
伏于	-328
将士	-329
心腹	-330
怒曰	-331
连夜	-332
遣人	-333
使者	-334
兴兵	-335
冀州	-336
数十	-337
曹军	-338
望见	-339
一阵	-340
中原	-341
前来	-342
吴侯	-343
汉室	-344
胜负	-345
使君	-346
大喝	-347
大骂	-348
屯兵	-349
本部	-350
关平	-351
击之	-352
大哭	-353
子敬	-354
山上	-355
引一	-356
唬骸	-357
太史	-358
奔走	-359
武士	-360
江南	-361
西凉	-362
闻之	-363
领命	-364
大惊曰	-365
一将	-366
交锋	-367
帐中	-368
未可	-369
来到	-370
而退	-371
遂令	-372
一彪军	-373
为先锋	-374
回马	-375
拜谢	-376
曹丕	-377
见了	-378
许昌	-379
设宴	-380
郭汜	-381
饮酒	-382
不可轻	-383
从其言	-384
如之奈何	-385
东南	-386
为首	-387
众人	-388
性命	-389
战不	-390
而死	-391
关公曰	-392
不足	-393
厮杀	-394
吾已	-395
城门	-396
当日	-397
掩杀	-398
杀入	-399
而回	-400
汉中王	-401
两个	-402
五万	-403
张任	-404
慌忙	-405
父子	-406
细作	-407
而入	-408
自有	-409
进发	-410
黄盖	-411
大叫曰	-412
严颜	-413
城外	-414
夹攻	-415
搦战	-416
江夏	-417
火光	-418
礼毕	-419
谋士	-420
问其	-421
再三	-422
有失	-423
杀到	-424
五十	-425
前进	-426
即日	-427
大兵	-428
岂可	-429
此言	-430
火起	-431
而进	-432
蔡瑁	-433
蜀中	-434
貂蝉	-435
部将	-436
钟会	-437
韩当	-438
▁且说	-439
刘玄德	-440
之策	-441
周泰	-442
国家	-443
张昭	-444
往来	-445
报说	-446
攻打	-447
早有	-448
昔日	-449
直取	-450
言讫	-451
闻言	-452
太史慈	-453
之众	-454
何以	-455
何处	-456
何如	-457
各自	-458
向前	-459
听知	-460
数百	-461
此乃	-462
司马师	-463
为前	-464
之子	-465
兵到	-466
已定	-467
群臣	-468
言未	-469
魏王	-470
大寨	-471
拨马	-472
新野	-473
果然	-474
法正	-475
相待	-476
大笑曰	-477
三十	-478
不曾	-479
人之	-480
公瑾	-481
图之	-482
数合	-483
文丑	-484
杀了	-485
消息	-486
皇帝	-487
陈宫	-488
黄祖	-489
二十余	-490
乃是	-491
勒马	-492
吾与	-493
大半	-494
已毕	-495
拍马	-496
放火	-497
杨仪	-498
程普	-499
莫非	-500
袁尚	-501
云长曰	-502
一百	-503
于此	-504
刘封	-505
后军	-506
呈上	-507
国太	-508
报仇	-509
益州	-510
贾诩	-511
大喜曰	-512
不必	-513
之士	-514
入帐	-515
兵来	-516
出曰	-517
后面	-518
吾等	-519
回顾	-520
收军	-521
汝可	-522
至此	-523
计议	-524
诸侯	-525
败走	-526
迎敌	-527
飞报	-528
喊声大震	-529
一个	-530
三万	-531
不许	-532
交战	-533
人皆	-534
便走	-535
可速	-536
回到	-537
孙坚	-538
安能	-539
必为	-540
手下	-541
收拾	-542
迎接	-543
汝二人	-544
”。	-545
一刀	-546
丁奉	-547
之上	-548
之处	-549
二更	-550
其余	-551
刺史	-552
四人	-553
回寨	-554
坐于	-555
小沛	-556
当夜	-557
忠义	-558
数日	-559
班师	-560
百官	-561
糜竺	-562
荀彧	-563
董承	-564
取荆州	-565
夏侯霸	-566
乐进	-567
大呼	-568
拔剑	-569
求救	-570
而不	-571
赶到	-572
车仗	-573
追之	-574
退兵	-575
马腾	-576
▁次日	-577
两边	-578
叱曰	-579
守把	-580
攻之	-581
方可	-582
无数	-583
校尉	-584
正欲	-585
用兵	-586
谁敢	-587
闻知	-588
分付曰	-589
——	-590
之下	-591
关某	-592
其事	-593
到此	-594
城池	-595
大乱	-596
屯于	-597
抵敌	-598
提兵	-599
正遇	-600
比及	-601
河北	-602
皆是	-603
营中	-604
进曰	-605
须臾	-606
后人有诗赞	-607
不听	-608
与我	-609
何足	-610
厉声	-611
又唤	-612
吾欲	-613
四下	-614
大小	-615
张嶷	-616
徐盛	-617
愿往	-618
旌旗	-619
炮响	-620
相助	-621
知之	-622
自引	-623
自此	-624
马忠	-625
两下	-626
今若	-627
前去	-628
围住	-629
在后	-630
武侯	-631
每日	-632
韩遂	-633
飞马	-634
如此如此	-635
丈夫	-636
不过	-637
久矣	-638
今夜	-639
何必	-640
兵至	-641
劫寨	-642
去路	-643
合淝	-644
吴主	-645
审配	-646
径到	-647
此处	-648
直至	-649
看时	-650
观之	-651
邓芝	-652
颜良	-653
二子	-654
于路	-655
公子	-656
公曰	-657
前军	-658
岂不	-659
方欲	-660
来降	-661
生擒	-662
荆襄	-663
败军	-664
重赏	-665
门外	-666
马上	-667
马谡	-668
不已	-669
不想	-670
之势	-671
了一	-672
兖州	-673
入宫	-674
典韦	-675
前后	-676
副将	-677
千余	-678
奋力	-679
安得	-680
有人	-681
杨奉	-682
正行	-683
维曰	-684
而起	-685
谷中	-686
起身	-687
追杀	-688
南郡	-689
只是	-690
吾当	-691
大路	-692
必不	-693
时分	-694
曹公	-695
曹睿	-696
此是	-697
死者	-698
社稷	-699
讨贼	-700
阵前	-701
公孙瓒	-702
孔明笑曰	-703
三日	-704
为大	-705
入后	-706
兵败	-707
其不	-708
具言	-709
刘琦	-710
司徒	-711
大笑	-712
太师	-713
寨栅	-714
尚书	-715
操令	-716
收兵	-717
无人	-718
早晚	-719
正在	-720
此计	-721
自回	-722
自来	-723
街亭	-724
遥望	-725
雒城	-726
骤马	-727
高顺	-728
黄巾	-729
▁孔明	-730
三十余	-731
玄德与	-732
百余人	-733
:‘	-734
下令	-735
为上	-736
为号	-737
之所	-738
先帝	-739
刀斧	-740
南安	-741
卧龙	-742
号令	-743
吾自	-744
大起	-745
官僚	-746
已被	-747
截住	-748
推出	-749
方才	-750
来救	-751
此去	-752
江边	-753
父亲	-754
百万	-755
绍曰	-756
老夫	-757
虚实	-758
遂命	-759
飞曰	-760
骂曰	-761
大呼曰	-762
一处	-763
不动	-764
之法	-765
他人	-766
凌统	-767
匹夫	-768
十二	-769
即时	-770
君侯	-771
吾主	-772
四散	-773
大夫	-774
天明	-775
天水	-776
安民	-777
将来	-778
常侍	-779
张绣	-780
成功	-781
提刀	-782
擒之	-783
是也	-784
程昱	-785
立马	-786
行不	-787
谢曰	-788
豫州	-789
长子	-790
▁玄德	-791
与玄德	-792
众将曰	-793
商议曰	-794
夫人曰	-795
见玄德	-796
诸将曰	-797
▁操	-798
三更	-799
不分	-800
不用	-801
到来	-802
叫曰	-803
吾料	-804
大臣	-805
夺了	-806
孔融	-807
左边	-808
待之	-809
徐庶	-810
得胜	-811
拦住	-812
攻城	-813
旗号	-814
松曰	-815
止有	-816
翼德	-817
营寨	-818
见之	-819
部下	-820
重围	-821
隘口	-822
驱兵	-823
夏侯楙	-824
后人有诗叹曰	-825
三合	-826
二嫂	-827
修书	-828
关上	-829
其子	-830
其计	-831
各处	-832
吾乃	-833
哨马	-834
太傅	-835
平生	-836
弓弩	-837
数万	-838
是日	-839
泠苞	-840
泸水	-841
献帝	-842
糜芳	-843
赶上	-844
迎之	-845
关云长	-846
上表	-847
不在	-848
不绝	-849
不若	-850
且听	-851
中郎	-852
之恩	-853
之物	-854
乘虚	-855
军民	-856
华歆	-857
吾不	-858
吾有	-859
四将	-860
回去	-861
太尉	-862
寿春	-863
恐有	-864
战船	-865
汝南	-866
王允	-867
纪灵	-868
羌兵	-869
老小	-870
良久	-871
虽然	-872
败兵	-873
退军	-874
锐气	-875
阵中	-876
为前部	-877
令军士	-878
刀斧手	-879
如何不	-880
张飞曰	-881
问其故	-882
一枪	-883
之力	-884
从人	-885
使命	-886
便可	-887
便是	-888
冲天	-889
冲突	-890
即令	-891
吾弟	-892
呐喊	-893
土人	-894
开门	-895
径取	-896
手执	-897
昭曰	-898
曹爽	-899
木牛	-900
未及	-901
未尝	-902
来报	-903
水军	-904
流马	-905
看毕	-906
船只	-907
若得	-908
虽有	-909
言语	-910
足下	-911
遂与	-912
钱粮	-913
陶谦	-914
马匹	-915
鼓角	-916
刘皇叔	-917
为人	-918
之内	-919
仲达	-920
休走	-921
何进	-922
兄长	-923
再拜	-924
军器	-925
剑阁	-926
十五	-927
受计	-928
可也	-929
吴班	-930
吾之	-931
周郎	-932
哨探	-933
姓名	-934
守城	-935
山坡	-936
幸得	-937
当下	-938
得脱	-939
必来	-940
折了	-941
断后	-942
杀奔	-943
淮南	-944
皇后	-945
落马	-946
蜀将	-947
表曰	-948
诸军	-949
费祎	-950
退去	-951
那时	-952
那里	-953
长史	-954
阶下	-955
陈留	-956
魏军	-957
三十里	-958
之计也	-959
一声炮响	-960
且听下文分解	-961
一同	-962
不胜	-963
世之	-964
何也	-965
元年	-966
入内	-967
出师	-968
印绶	-969
吴懿	-970
吾军	-971
四方	-972
大进	-973
安肯	-974
寻思	-975
建安	-976
急令	-977
探知	-978
接入	-979
有此	-980
未敢	-981
潘璋	-982
略曰	-983
自领	-984
门旗	-985
陇西	-986
陈泰	-987
馆驿	-988
有一计	-989
言未毕	-990
木牛流马	-991
一万	-992
三百	-993
下邳	-994
不利	-995
不安	-996
乃谓	-997
之罪	-998
但见	-999
允曰	-1000
军前	-1001
十数	-1002
南阳	-1003
危矣	-1004
又令	-1005
取了	-1006
右边	-1007
国之	-1008
士仁	-1009
大功	-1010
太子	-1011
夺路	-1012
将至	-1013
已死	-1014
平关	-1015
平原	-1016
并力	-1017
府中	-1018
我军	-1019
李儒	-1020
知其	-1021
自己	-1022
自相	-1023
船上	-1024
袁谭	-1025
西北	-1026
诈败	-1027
贾充	-1028
跃马	-1029
车上	-1030
造反	-1031
阵势	-1032
陈登	-1033
领军	-1034
魏将	-1035
大喝曰	-1036
而言曰	-1037
请玄德	-1038
诸葛瑾	-1039
▁却说孔明	-1040
后人有诗曰	-1041
一时	-1042
不忍	-1043
中计	-1044
之才	-1045
今可	-1046
以防	-1047
便教	-1048
先行	-1049
入朝	-1050
即命	-1051
只有	-1052
各引	-1053
城内	-1054
士卒	-1055
妻子	-1056
孙礼	-1057
孙綝	-1058
定军	-1059
已到	-1060
帝曰	-1061
归路	-1062
所杀	-1063
此必	-1064
渡江	-1065
白旗	-1066
统曰	-1067
翻身	-1068
而已	-1069
而逃	-1070
西蜀	-1071
诈降	-1072
运粮	-1073
连日	-1074
长沙	-1075
青州	-1076
齐出	-1077
五百军	-1078
众谋士	-1079
▁却说曹操	-1080
一月	-1081
不下	-1082
不战	-1083
与吾	-1084
两家	-1085
乘马	-1086
亭侯	-1087
从事	-1088
伐魏	-1089
休矣	-1090
兵马	-1091
内应	-1092
又有	-1093
又见	-1094
可擒	-1095
哥哥	-1096
四十	-1097
宫曰	-1098
密书	-1099
山后	-1100
应声	-1101
张松	-1102
披挂	-1103
探听	-1104
接着	-1105
操贼	-1106
数里	-1107
斜谷	-1108
无路	-1109
明日	-1110
更兼	-1111
李严	-1112
知是	-1113
等候	-1114
良策	-1115
行至	-1116
贤弟	-1117
郭嘉	-1118
乱箭射	-1119
五千兵	-1120
赵子龙	-1121
▁时	-1122
不服	-1123
为使	-1124
之功	-1125
之命	-1126
之情	-1127
之道	-1128
事不	-1129
二贼	-1130
于吉	-1131
云曰	-1132
今又	-1133
何在	-1134
其心	-1135
其数	-1136
动静	-1137
千里	-1138
却被	-1139
只在	-1140
四海	-1141
天地	-1142
字子	-1143
小儿	-1144
山僻	-1145
所言	-1146
承曰	-1147
拜伏	-1148
拜辞	-1149
方今	-1150
是谁	-1151
本初	-1152
本寨	-1153
条路	-1154
正合	-1155
混战	-1156
甚是	-1157
皆被	-1158
看看	-1159
见操	-1160
谷口	-1161
过去	-1162
阿斗	-1163
雍州	-1164
默然	-1165
出祁山	-1166
性命如何	-1167
玄德大喜	-1168
。’	-1169
一半	-1170
一员	-1171
一枝	-1172
一路	-1173
一骑	-1174
不容	-1175
不然	-1176
不识	-1177
主上	-1178
从者	-1179
仰天	-1180
侍中	-1181
共议	-1182
关隘	-1183
决一	-1184
刘岱	-1185
刘璝	-1186
助战	-1187
匹马	-1188
卓曰	-1189
危急	-1190
反贼	-1191
多时	-1192
多言	-1193
奔回	-1194
子服	-1195
孟德	-1196
安营	-1197
引数	-1198
得了	-1199
惊曰	-1200
放心	-1201
旦夕	-1202
未迟	-1203
正与	-1204
正言	-1205
泣曰	-1206
生死	-1207
田丰	-1208
策曰	-1209
而哭	-1210
西南	-1211
西门	-1212
雷铜	-1213
青龙	-1214
鸣金	-1215
黄皓	-1216
与曹操	-1217
中郎将	-1218
二十里	-1219
下山	-1220
不为	-1221
不幸	-1222
与汝	-1223
东门	-1224
举火	-1225
之主	-1226
五六	-1227
五路	-1228
以此	-1229
会合	-1230
倘有	-1231
入川	-1232
兵法	-1233
军令	-1234
前事	-1235
势大	-1236
华雄	-1237
叔父	-1238
取之	-1239
名曰	-1240
吾兄	-1241
回军	-1242
多有	-1243
大开	-1244
天文	-1245
少顷	-1246
山中	-1247
平曰	-1248
归降	-1249
当之	-1250
待我	-1251
忽闻	-1252
摆开	-1253
斩首	-1254
无礼	-1255
无谋	-1256
来使	-1257
来攻	-1258
极多	-1259
活捉	-1260
满宠	-1261
濡须	-1262
王忠	-1263
现在	-1264
皆有	-1265
红旗	-1266
至今	-1267
衣甲	-1268
辽东	-1269
都尉	-1270
陈仓	-1271
面目	-1272
飞奔	-1273
黄昏	-1274
鼓声	-1275
不得已	-1276
众视之	-1277
只听得	-1278
孔明令	-1279
孙夫人	-1280
见孔明	-1281
为首大将	-1282
一合	-1283
三江	-1284
上将	-1285
上山	-1286
不信	-1287
二千	-1288
今番	-1289
以图	-1290
以致	-1291
但恐	-1292
何为	-1293
作书	-1294
公等	-1295
刘繇	-1296
勿忧	-1297
半路	-1298
去救	-1299
参军	-1300
又曰	-1301
吾亦	-1302
吾意	-1303
在外	-1304
在手	-1305
多少	-1306
多谋	-1307
失了	-1308
官渡	-1309
宫中	-1310
应曰	-1311
张济	-1312
探马	-1313
斩了	-1314
断其	-1315
杀至	-1316
来取	-1317
欲杀	-1318
步行	-1319
汝何	-1320
看了	-1321
素知	-1322
纵横	-1323
老人	-1324
老母	-1325
舞刀	-1326
表奏	-1327
议事	-1328
辽曰	-1329
遂引	-1330
郭图	-1331
二夫人	-1332
入后堂	-1333
十常侍	-1334
定军山	-1335
引一千	-1336
操大喜	-1337
自引兵	-1338
阳平关	-1339
骑将军	-1340
推出斩之	-1341
后人有诗赞曰	-1342
一封	-1343
下船	-1344
中取	-1345
乃令	-1346
交马	-1347
以来	-1348
但有	-1349
便回	-1350
便欲	-1351
八十	-1352
公卿	-1353
其缚	-1354
内外	-1355
刘晔	-1356
可得	-1357
后患	-1358
唤入	-1359
喜曰	-1360
国舅	-1361
坐定	-1362
大汉	-1363
如雨	-1364
安排	-1365
宗族	-1366
害我	-1367
山东	-1368
归寨	-1369
擂鼓	-1370
放起	-1371
整顿	-1372
文书	-1373
早降	-1374
未决	-1375
朱儁	-1376
欲与	-1377
正中	-1378
步军	-1379
相交	-1380
相府	-1381
简雍	-1382
聪明	-1383
荀攸	-1384
荼那	-1385
蒋钦	-1386
衣服	-1387
袁熙	-1388
诸路	-1389
赤兔	-1390
起处	-1391
身长	-1392
辛毗	-1393
过来	-1394
近臣	-1395
远来	-1396
邺郡	-1397
降诏	-1398
饮宴	-1399
马良	-1400
▁曹操	-1401
一枪刺	-1402
一箭射	-1403
入城中	-1404
十余里	-1405
大丈夫	-1406
引三千	-1407
数十骑	-1408
止之曰	-1409
董荼那	-1410
不可轻敌	-1411
▁却说玄德	-1412
一千	-1413
三年	-1414
上书	-1415
不才	-1416
不远	-1417
两马	-1418
久闻	-1419
书信	-1420
二万	-1421
亲往	-1422
今已	-1423
以安	-1424
以待	-1425
以手	-1426
伐吴	-1427
元直	-1428
公之	-1429
其意	-1430
冲杀	-1431
出寨	-1432
刘琮	-1433
动兵	-1434
勒兵	-1435
南征	-1436
去讫	-1437
又来	-1438
只恐	-1439
叱退	-1440
吊桥	-1441
听令	-1442
吾闻	-1443
哭拜	-1444
回身	-1445
在前	-1446
夏口	-1447
大会	-1448
头上	-1449
寨前	-1450
尽起	-1451
山路	-1452
帐前	-1453
彼军	-1454
径奔	-1455
我也	-1456
提防	-1457
是何	-1458
水陆	-1459
汉朝	-1460
江陵	-1461
泽曰	-1462
浮桥	-1463
濮阳	-1464
矢石	-1465
粮食	-1466
而坐	-1467
自然	-1468
蒋琬	-1469
请入	-1470
走脱	-1471
车驾	-1472
辞去	-1473
道荣	-1474
酒食	-1475
阴平	-1476
降者	-1477
高祖	-1478
高见	-1479
不可不	-1480
傅士仁	-1481
叱武士	-1482
夏侯尚	-1483
大骂曰	-1484
班师回	-1485
决一死战	-1486
坚守不出	-1487
大喝一声	-1488
战不数合	-1489
下手	-1490
不受	-1491
不思	-1492
不计	-1493
为何	-1494
为后	-1495
主簿	-1496
之仇	-1497
之谋	-1498
之辈	-1499
二弟	-1500
以兵	-1501
伊籍	-1502
伯约	-1503
兀突	-1504
军心	-1505
南郑	-1506
南门	-1507
去取	-1508
发兵	-1509
只宜	-1510
只留	-1511
召入	-1512
可惜	-1513
可破	-1514
吕范	-1515
吾非	-1516
告急	-1517
周仓	-1518
器械	-1519
回头	-1520
地理	-1521
垓心	-1522
壮士	-1523
大战	-1524
失色	-1525
妇人	-1526
孙桓	-1527
安定	-1528
少年	-1529
张南	-1530
张宝	-1531
彝陵	-1532
必将	-1533
我今	-1534
托孤	-1535
报入	-1536
拔寨	-1537
措手	-1538
操乃	-1539
操军	-1540
无益	-1541
景升	-1542
未定	-1543
某愿	-1544
樊稠	-1545
欣然	-1546
汉水	-1547
犹豫	-1548
狂风	-1549
玉玺	-1550
破敌	-1551
离城	-1552
羌人	-1553
老将	-1554
葭萌	-1555
许攸	-1556
诡计	-1557
说之	-1558
豪杰	-1559
起程	-1560
邓贤	-1561
郝昭	-1562
随即	-1563
顿首	-1564
馆舍	-1565
与孔明	-1566
兀突骨	-1567
后主曰	-1568
左右曰	-1569
引本部	-1570
心腹人	-1571
成阵势	-1572
操笑曰	-1573
见曹操	-1574
诸葛诞	-1575
陈留王	-1576
不计其数	-1577
”,	-1578
上庸	-1579
不久	-1580
不答	-1581
不须	-1582
两阵	-1583
为我	-1584
主人	-1585
乃与	-1586
乃问	-1587
之前	-1588
之声	-1589
于市	-1590
仁义	-1591
以报	-1592
侯成	-1593
保护	-1594
先取	-1595
全家	-1596
兴师	-1597
内有	-1598
出帐	-1599
出阵	-1600
分拨	-1601
利害	-1602
半晌	-1603
只道	-1604
可为	-1605
合兵	-1606
吾儿	-1607
四更	-1608
四路	-1609
基业	-1610
天命	-1611
如有	-1612
守之	-1613
守住	-1614
安忍	-1615
居民	-1616
岸上	-1617
已有	-1618
应允	-1619
异心	-1620
弃了	-1621
径投	-1622
总督	-1623
手起	-1624
拒敌	-1625
放声	-1626
救应	-1627
教我	-1628
无事	-1629
无所	-1630
未得	-1631
朱然	-1632
来战	-1633
楼上	-1634
次子	-1635
武艺	-1636
死不	-1637
死矣	-1638
毕竟	-1639
痛哭	-1640
相拒	-1641
知吾	-1642
破曹	-1643
立功	-1644
绵竹	-1645
罢兵	-1646
胜也	-1647
自与	-1648
自思	-1649
蜀主	-1650
蜀寨	-1651
计策	-1652
许多	-1653
贼兵	-1654
赤壁	-1655
身上	-1656
追袭	-1657
重用	-1658
陈武	-1659
面前	-1660
高翔	-1661
高览	-1662
魏寨	-1663
鼓响	-1664
▁于是	-1665
叱左右	-1666
在垓心	-1667
山谷中	-1668
左将军	-1669
此二人	-1670
西将军	-1671
诸将皆	-1672
一员大将	-1673
不分胜负	-1674
抵敌不住	-1675
措手不及	-1676
▁正	-1677
一一	-1678
一行	-1679
不止	-1680
中有	-1681
为之	-1682
之民	-1683
之臣	-1684
二处	-1685
便令	-1686
便行	-1687
入寨	-1688
其主	-1689
军兵	-1690
军到	-1691
军法	-1692
前者	-1693
前至	-1694
却教	-1695
厚恩	-1696
又无	-1697
多官	-1698
大作	-1699
奉诏	-1700
安歇	-1701
宝剑	-1702
对曰	-1703
将令	-1704
小舟	-1705
平明	-1706
当时	-1707
当此	-1708
径往	-1709
御林	-1710
必须	-1711
所以	-1712
扮作	-1713
拒之	-1714
招安	-1715
拥出	-1716
指曰	-1717
操自	-1718
攻击	-1719
救了	-1720
数人	-1721
文聘	-1722
无计	-1723
旧日	-1724
有功	-1725
柴桑	-1726
欲待	-1727
此地	-1728
此贼	-1729
汝既	-1730
深入	-1731
甚厚	-1732
甚急	-1733
白马	-1734
皆在	-1735
直入	-1736
相救	-1737
相迎	-1738
督邮	-1739
突出	-1740
童子	-1741
粮道	-1742
纷纷	-1743
结连	-1744
臣等	-1745
若非	-1746
袁氏	-1747
谓曰	-1748
贼众	-1749
起行	-1750
近闻	-1751
追兵	-1752
追至	-1753
邓忠	-1754
酒至	-1755
长叹	-1756
长坂	-1757
阚泽	-1758
陈式	-1759
难以	-1760
震地	-1761
面如	-1762
韩暹	-1763
首尾	-1764
黄权	-1765
黎阳	-1766
两路兵	-1767
十余人	-1768
千余人	-1769
只一合	-1770
四面围	-1771
百余骑	-1772
立马于	-1773
葭萌关	-1774
行不到	-1775
诸葛恪	-1776
赤兔马	-1777
▁第一百	-1778
二十余里	-1779
谓玄德曰	-1780
..	-1781
万余	-1782
三郡	-1783
下关	-1784
之名	-1785
之故	-1786
之状	-1787
之险	-1788
也不	-1789
二公	-1790
以鞭	-1791
何往	-1792
先到	-1793
出郭	-1794
县令	-1795
又被	-1796
取胜	-1797
受了	-1798
只待	-1799
可怜	-1800
同谋	-1801
君臣	-1802
吾若	-1803
大书	-1804
天色	-1805
守御	-1806
对圆	-1807
小将	-1808
岂有	-1809
张角	-1810
张让	-1811
当年	-1812
得一	-1813
得此	-1814
忠臣	-1815
惊疑	-1816
抚慰	-1817
按兵	-1818
操兵	-1819
操教	-1820
救之	-1821
无一	-1822
日月	-1823
杀散	-1824
杀死	-1825
杨阜	-1826
某等	-1827
横刀	-1828
此非	-1829
毋丘	-1830
水中	-1831
泄漏	-1832
流星	-1833
流涕	-1834
献计	-1835
王朗	-1836
王经	-1837
现为	-1838
画戟	-1839
留下	-1840
皇甫	-1841
羞惭	-1842
自幼	-1843
英勇	-1844
董袭	-1845
蜀人	-1846
行之	-1847
要去	-1848
诗曰	-1849
诸郡	-1850
辞了	-1851
迤逦	-1852
追来	-1853
逆贼	-1854
逢纪	-1855
遂不	-1856
金帛	-1857
金珠	-1858
长江	-1859
门吏	-1860
问罪	-1861
降将	-1862
高定	-1863
魏国	-1864
黄门	-1865
齐发	-1866
为内应	-1867
书略曰	-1868
于地曰	-1869
人报知	-1870
公孙渊	-1871
出此言	-1872
吾与汝	-1873
吾自有	-1874
数百人	-1875
未可轻	-1876
正言间	-1877
玄德在	-1878
见关公	-1879
两下夹攻	-1880
战不三合	-1881
放声大哭	-1882
一带	-1883
一队	-1884
上下	-1885
不与	-1886
不定	-1887
不相	-1888
不觉	-1889
与之	-1890
专权	-1891
为汉	-1892
之弟	-1893
之礼	-1894
二百	-1895
人民	-1896
今闻	-1897
从后	-1898
伐蜀	-1899
何况	-1900
何时	-1901
何用	-1902
先去	-1903
克日	-1904
兵器	-1905
兵少	-1906
军来	-1907
冯习	-1908
出营	-1909
勃然	-1910
北原	-1911
北海	-1912
十日	-1913
单福	-1914
卿等	-1915
只顾	-1916
右有	-1917
号为	-1918
同心	-1919
吴王	-1920
喊起	-1921
奸计	-1922
宦官	-1923
富贵	-1924
将近	-1925
小卒	-1926
尸首	-1927
山谷	-1928
州郡	-1929
左有	-1930
年幼	-1931
并不	-1932
弃城	-1933
张温	-1934
徐徐	-1935
急救	-1936
悔之	-1937
意欲	-1938
手提	-1939
护送	-1940
披发	-1941
数千	-1942
文官	-1943
新城	-1944
更不	-1945
曹贼	-1946
望之	-1947
机会	-1948
李乐	-1949
来人	-1950
欲自	-1951
此何	-1952
爱之	-1953
用火	-1954
疑惑	-1955
白虎	-1956
目今	-1957
直到	-1958
祎曰	-1959
立斩	-1960
者也	-1961
而降	-1962
蔡和	-1963
观其	-1964
认得	-1965
谁可	-1966
转过	-1967
造饭	-1968
遂唤	-1969
锦囊	-1970
闭门	-1971
随行	-1972
面上	-1973
骨肉	-1974
魏续	-1975
齐鸣	-1976
从小路	-1977
众官曰	-1978
先主曰	-1979
在城中	-1980
引一万	-1981
忽一人	-1982
教军士	-1983
曹丞相	-1984
毋丘俭	-1985
若如此	-1986
之言是也	-1987
早有细作	-1988
一连	-1989
上城	-1990
上邽	-1991
下来	-1992
不明	-1993
丕曰	-1994
世子	-1995
为将	-1996
之徒	-1997
之日	-1998
之际	-1999
乐綝	-2000
书与	-2001
书中	-2002
事已	-2003
人心	-2004
仗剑	-2005
休得	-2006
公安	-2007
公覆	-2008
兵出	-2009
其后	-2010
冲右	-2011
别驾	-2012
劳军	-2013
勿得	-2014
十分	-2015
可乘	-2016
可先	-2017
同去	-2018
吾以	-2019
喝令	-2020
四年	-2021
回营	-2022
国老	-2023
大队	-2024
太平	-2025
奋然	-2026
奸雄	-2027
妄动	-2028
妙计	-2029
宋宪	-2030
屯住	-2031
屯扎	-2032
岂能	-2033
崔谅	-2034
已知	-2035
常有	-2036
张虎	-2037
徐母	-2038
忠曰	-2039
急回	-2040
急难	-2041
慈曰	-2042
护卫	-2043
拈弓	-2044
拜于	-2045
拜曰	-2046
拜见	-2047
操问	-2048
施礼	-2049
权且	-2050
杜预	-2051
桂阳	-2052
此城	-2053
此间	-2054
汝乃	-2055
泰山	-2056
满面	-2057
焚香	-2058
狱中	-2059
王上	-2060
相随	-2061
第二	-2062
等处	-2063
终日	-2064
置酒	-2065
聚众	-2066
聚集	-2067
自去	-2068
自取	-2069
至晚	-2070
若有	-2071
蒋干	-2072
行军	-2073
观看	-2074
览毕	-2075
角上	-2076
言之	-2077
言罢	-2078
许之	-2079
请罪	-2080
调遣	-2081
过了	-2082
这里	-2083
进退	-2084
遍野	-2085
郑文	-2086
高垒	-2087
鼓噪	-2088
二将军	-2089
冲右突	-2090
吴主孙	-2091
回荆州	-2092
孔明在	-2093
屯兵于	-2094
张昭曰	-2095
忽听得	-2096
某愿往	-2097
荀彧曰	-2098
视其人	-2099
请孔明	-2100
两阵对圆	-2101
两马相交	-2102
分兵两路	-2103
大叫一声	-2104
左冲右突	-2105
引兵而去	-2106
拨马便走	-2107
文武官僚	-2108
是夜二更	-2109
火光冲天	-2110
胜负如何	-2111
(1	-2112
一名	-2113
一应	-2114
一班	-2115
一道	-2116
三分	-2117
不义	-2118
不到	-2119
两川	-2120
为主	-2121
久居	-2122
之有	-2123
之祸	-2124
之贼	-2125
于人	-2126
于山	-2127
互相	-2128
余众	-2129
傅佥	-2130
养病	-2131
冲出	-2132
出关	-2133
出兵	-2134
刘氏	-2135
劫掠	-2136
北门	-2137
十七	-2138
十合	-2139
半酣	-2140
又恐	-2141
各人	-2142
各各	-2143
各有	-2144
吉平	-2145
吕旷	-2146
吾奉	-2147
周围	-2148
响处	-2149
喝曰	-2150
多疑	-2151
大胜	-2152
威震	-2153
威风	-2154
子丹	-2155
字公	-2156
孟优	-2157
守关	-2158
宝刀	-2159
家属	-2160
密诏	-2161
寨内	-2162
将校	-2163
将欲	-2164
小童	-2165
小车	-2166
尘头	-2167
尚有	-2168
应之	-2169
彼必	-2170
往见	-2171
必当	-2172
战到	-2173
挥刀	-2174
接战	-2175
操见	-2176
故来	-2177
敌人	-2178
救出	-2179
数巡	-2180
文远	-2181
文钦	-2182
旗幡	-2183
无可	-2184
既有	-2185
时年	-2186
普净	-2187
曹氏	-2188
曹芳	-2189
未有	-2190
本欲	-2191
杀得	-2192
来与	-2193
杨松	-2194
桃园	-2195
武昌	-2196
民心	-2197
水寨	-2198
沿江	-2199
深沟	-2200
火把	-2201
率兵	-2202
用何	-2203
申奏	-2204
留之	-2205
目视	-2206
相持	-2207
相遇	-2208
祢衡	-2209
秦朗	-2210
空虚	-2211
第三	-2212
篡逆	-2213
结为	-2214
羽扇	-2215
者斩	-2216
脱身	-2217
自是	-2218
葬之	-2219
葬于	-2220
蛮王	-2221
讨之	-2222
议曰	-2223
诛之	-2224
说罢	-2225
诸公	-2226
谯周	-2227
赍书	-2228
践踏	-2229
车胄	-2230
近前	-2231
遂将	-2232
道路	-2233
都是	-2234
镇守	-2235
陆口	-2236
险要	-2237
非也	-2238
韩玄	-2239
顾谓	-2240
领诺	-2241
三千兵	-2242
不一日	-2243
与将军	-2244
东南风	-2245
众官皆	-2246
刘豫州	-2247
在马上	-2248
岂不闻	-2249
庞统曰	-2250
弓弩手	-2251
张翼德	-2252
操大怒	-2253
杀一阵	-2254
然其言	-2255
老将军	-2256
计而行	-2257
贾诩曰	-2258
为大都督	-2259
有何面目	-2260
深沟高垒	-2261
设宴相待	-2262
三尺	-2263
三族	-2264
上岸	-2265
上流	-2266
不仁	-2267
不以	-2268
不宜	-2269
不成	-2270
不易	-2271
不语	-2272
不降	-2273
且休	-2274
东川	-2275
为名	-2276
为君	-2277
乃唤	-2278
之义	-2279
之书	-2280
之师	-2281
之德	-2282
之重	-2283
之首	-2284
于外	-2285
五更	-2286
交割	-2287
以绝	-2288
伏后	-2289
伏地	-2290
会曰	-2291
会稽	-2292
何敢	-2293
作一	-2294
使我	-2295
保守	-2296
停当	-2297
免死	-2298
入寇	-2299
全胜	-2300
八月	-2301
公乃	-2302
公言	-2303
兵不	-2304
其妻	-2305
具说	-2306
军人	-2307
切齿	-2308
刘禅	-2309
别有	-2310
前部	-2311
升帐	-2312
半夜	-2313
即当	-2314
却是	-2315
又问	-2316
只可	-2317
可将	-2318
同往	-2319
名为	-2320
吴兰	-2321
吾见	-2322
四子	-2323
回至	-2324
土山	-2325
城边	-2326
堂上	-2327
复回	-2328
大江	-2329
天数	-2330
奔入	-2331
季玉	-2332
守将	-2333
宗亲	-2334
宛城	-2335
尽力	-2336
山下	-2337
川兵	-2338
左慈	-2339
常山	-2340
幸甚	-2341
建兴	-2342
张允	-2343
待其	-2344
忽有	-2345
忿怒	-2346
思之	-2347
我兵	-2348
戴陵	-2349
所擒	-2350
所获	-2351
报国	-2352
放箭	-2353
故意	-2354
故特	-2355
方回	-2356
无忧	-2357
无恙	-2358
无罪	-2359
早早	-2360
曹休	-2361
望风	-2362
杀退	-2363
来投	-2364
杨任	-2365
树木	-2366
正月	-2367
沉吟	-2368
沮授	-2369
洞中	-2370
洞主	-2371
洮阳	-2372
渐渐	-2373
渭水	-2374
王双	-2375
琅琊	-2376
生灵	-2377
用之	-2378
白帝	-2379
直抵	-2380
相会	-2381
真神	-2382
睿曰	-2383
破之	-2384
称谢	-2385
等皆	-2386
箕谷	-2387
纶巾	-2388
者为	-2389
而无	-2390
致书	-2391
蔡中	-2392
血流	-2393
设朝	-2394
诩曰	-2395
贼将	-2396
赶去	-2397
越吉	-2398
辎重	-2399
辕门	-2400
退入	-2401
金鼓	-2402
钟繇	-2403
长驱	-2404
门下	-2405
陈珪	-2406
颍川	-2407
饮食	-2408
马军	-2409
马遵	-2410
魏人	-2411
与云长	-2412
主公可	-2413
二十万	-2414
于天下	-2415
今曹操	-2416
刘使君	-2417
十余合	-2418
回许都	-2419
在城上	-2420
放火烧	-2421
数十人	-2422
正行间	-2423
玄德乃	-2424
玄德自	-2425
玄德问	-2426
程昱曰	-2427
聚文武	-2428
赵云曰	-2429
一声喊起	-2430
一面差人	-2431
大败而走	-2432
披挂上马	-2433
百万之众	-2434
诸路军马	-2435
魏主曹睿	-2436
▁却说姜维	-2437
;“	-2438
一回	-2439
一场	-2440
一拥	-2441
一条	-2442
一簇	-2443
一般	-2444
不上	-2445
不是	-2446
不杀	-2447
不起	-2448
与操	-2449
东北	-2450
中央	-2451
丰曰	-2452
临终	-2453
为两	-2454
为帝	-2455
为王	-2456
之勇	-2457
书曰	-2458
京师	-2459
从此	-2460
伐之	-2461
会于	-2462
似此	-2463
住马	-2464
何意	-2465
佗曰	-2466
侯刘	-2467
便了	-2468
便去	-2469
便将	-2470
便请	-2471
八路	-2472
关中	-2473
关前	-2474
决战	-2475
凤雏	-2476
出来	-2477
切勿	-2478
刘辟	-2479
别无	-2480
十三	-2481
卢植	-2482
受禅	-2483
变色	-2484
只推	-2485
只等	-2486
各带	-2487
向导	-2488
吕翔	-2489
听罢	-2490
吾令	-2491
吾故	-2492
善言	-2493
回书	-2494
回兵	-2495
回家	-2496
士元	-2497
备言	-2498
外人	-2499
奉先	-2500
奉孝	-2501
子瑜	-2502
孙峻	-2503
完备	-2504
实为	-2505
密计	-2506
察之	-2507
小船	-2508
尚未	-2509
尽弃	-2510
尽被	-2511
山川	-2512
已亡	-2513
已决	-2514
带剑	-2515
应诺	-2516
庶曰	-2517
引众	-2518
当以	-2519
当阳	-2520
心甚	-2521
心疑	-2522
怏怏	-2523
急退	-2524
扶起	-2525
持节	-2526
按剑	-2527
推辞	-2528
提备	-2529
教他	-2530
晋主	-2531
望西	-2532
李肃	-2533
来看	-2534
桥上	-2535
檄文	-2536
欲斩	-2537
正要	-2538
正说	-2539
正迎	-2540
此天	-2541
母亲	-2542
汝为	-2543
江北	-2544
渡口	-2545
渡河	-2546
父母	-2547
王必	-2548
瑾曰	-2549
甚喜	-2550
甲兵	-2551
祖宗	-2552
端坐	-2553
第一	-2554
结义	-2555
老幼	-2556
而下	-2557
而后	-2558
而归	-2559
而至	-2560
背反	-2561
胡遵	-2562
船中	-2563
艾曰	-2564
获曰	-2565
襄平	-2566
诛戮	-2567
赏劳	-2568
赵范	-2569
轻骑	-2570
辅佐	-2571
近日	-2572
送与	-2573
逊曰	-2574
那马	-2575
铜雀	-2576
队伍	-2577
阵法	-2578
降兵	-2579
零陵	-2580
韩浩	-2581
韩胤	-2582
领了	-2583
飞身	-2584
马前	-2585
骤起	-2586
???	-2587
▁关公	-2588
三千军	-2589
之子也	-2590
于帐下	-2591
军大败	-2592
切不可	-2593
到之处	-2594
厉声曰	-2595
取西川	-2596
司马望	-2597
在寨中	-2598
孔明自	-2599
将军若	-2600
山背后	-2601
引兵来	-2602
引大军	-2603
引败兵	-2604
往荆州	-2605
扶汉室	-2606
拨回马	-2607
流星马	-2608
统大军	-2609
蔡夫人	-2610
虽不才	-2611
门旗下	-2612
青龙刀	-2613
合兵一处	-2614
引一千军	-2615
急止之曰	-2616
截住去路	-2617
按兵不动	-2618
斩于马下	-2619
正行之间	-2620
死者无数	-2621
车骑将军	-2622
鼓角齐鸣	-2623
一旦	-2624
一辆	-2625
一鼓	-2626
不乐	-2627
不取	-2628
不悦	-2629
与战	-2630
中箭	-2631
中间	-2632
临行	-2633
之兆	-2634
之将	-2635
之志	-2636
事之	-2637
人物	-2638
今晚	-2639
今欲	-2640
以言	-2641
伤感	-2642
低头	-2643
何惧	-2644
何日	-2645
何能	-2646
侍郎	-2647
依言	-2648
便唤	-2649
修曰	-2650
催军	-2651
元帅	-2652
全无	-2653
八九	-2654
八尺	-2655
公路	-2656
其势	-2657
再作	-2658
出入	-2659
出征	-2660
分布	-2661
刘贤	-2662
初更	-2663
前往	-2664
前队	-2665
医治	-2666
华佗	-2667
即召	-2668
即差	-2669
又将	-2670
发书	-2671
取出	-2672
受命	-2673
叫门	-2674
可施	-2675
同宗	-2676
吞并	-2677
听候	-2678
吴人	-2679
吴将	-2680
吾兵	-2681
吾观	-2682
周善	-2683
喧天	-2684
四轮	-2685
四门	-2686
回来	-2687
图也	-2688
在右	-2689
在地	-2690
在左	-2691
声势	-2692
夜观	-2693
大义	-2694
大斧	-2695
大船	-2696
奇兵	-2697
妻小	-2698
嫂嫂	-2699
字元	-2700
安可	-2701
安在	-2702
安有	-2703
宫室	-2704
容某	-2705
射中	-2706
屯田	-2707
屯粮	-2708
岂肯	-2709
巡哨	-2710
差矣	-2711
已失	-2712
布阵	-2713
干曰	-2714
平地	-2715
平日	-2716
并进	-2717
庆贺	-2718
开处	-2719
引路	-2720
张杨	-2721
张纮	-2722
彼若	-2723
径来	-2724
徐质	-2725
必败	-2726
忽又	-2727
怒气	-2728
恋战	-2729
惇曰	-2730
我与	-2731
我当	-2732
手足	-2733
抵当	-2734
拿住	-2735
指挥	-2736
搬运	-2737
搭箭	-2738
操急	-2739
故人	-2740
文鸯	-2741
旗帜	-2742
无义	-2743
无及	-2744
无用	-2745
无粮	-2746
既已	-2747
早被	-2748
昨日	-2749
是吾	-2750
昼夜	-2751
智勇	-2752
暗喜	-2753
更待	-2754
未必	-2755
机密	-2756
杀人	-2757
杨彪	-2758
杨怀	-2759
杨昂	-2760
果见	-2761
某当	-2762
柳城	-2763
栈道	-2764
款待	-2765
正议	-2766
正走	-2767
此来	-2768
殷勤	-2769
殿下	-2770
永安	-2771
汝若	-2772
沓中	-2773
河内	-2774
涪城	-2775
淳于	-2776
潼关	-2777
火速	-2778
点起	-2779
焉敢	-2780
然则	-2781
犬马	-2782
王基	-2783
王瓘	-2784
申耽	-2785
疑兵	-2786
登高	-2787
相投	-2788
礼物	-2789
竭力	-2790
答礼	-2791
粮车	-2792
约会	-2793
缓缓	-2794
而亡	-2795
而立	-2796
耿纪	-2797
自乱	-2798
自刎	-2799
自退	-2800
苦谏	-2801
藤甲	-2802
蛮方	-2803
装载	-2804
诸人	-2805
谁想	-2806
财物	-2807
贤士	-2808
赍诏	-2809
足可	-2810
踌躇	-2811
转出	-2812
退走	-2813
造次	-2814
那人	-2815
郝萌	-2816
郿坞	-2817
酋长	-2818
铁骑	-2819
陈应	-2820
隐隐	-2821
非常	-2822
顾雍	-2823
预备	-2824
饮之	-2825
马乏	-2826
高干	-2827
鹤氅	-2828
麾下	-2829
不可当	-2830
不数合	-2831
为副将	-2832
乔国老	-2833
于帐中	-2834
五十里	-2835
众将皆	-2836
倒于地	-2837
关将军	-2838
右将军	-2839
回成都	-2840
在何处	-2841
如其不	-2842
孔明乃	-2843
孔明教	-2844
安得不	-2845
将军可	-2846
引数骑	-2847
求救于	-2848
皇甫嵩	-2849
自引军	-2850
责之曰	-2851
赴许都	-2852
乱箭射下	-2853
却说曹操	-2854
夺路而走	-2855
拦住去路	-2856
汉室宗亲	-2857
翻身落马	-2858
酒至半酣	-2859
随后赶来	-2860
鸣金收军	-2861
▁却说司马懿	-2862
一口	-2863
一把	-2864
一言	-2865
一计	-2866
七军	-2867
三子	-2868
上殿	-2869
上车	-2870
不便	-2871
不平	-2872
不来	-2873
且待	-2874
两人	-2875
为一	-2876
为国	-2877
为念	-2878
为镇	-2879
主将	-2880
举事	-2881
之为	-2882
之劳	-2883
之妻	-2884
之患	-2885
之手	-2886
之西	-2887
之语	-2888
乌巢	-2889
九郡	-2890
乱军	-2891
二日	-2892
交厚	-2893
亦是	-2894
亦被	-2895
人人	-2896
人困	-2897
今后	-2898
今操	-2899
令兵	-2900
以拒	-2901
催兵	-2902
先令	-2903
先将	-2904
先往	-2905
光武	-2906
入府	-2907
公可	-2908
公既	-2909
六郡	-2910
关下	-2911
兵书	-2912
其母	-2913
其罪	-2914
军皆	-2915
分为	-2916
分头	-2917
到处	-2918
到彼	-2919
勉强	-2920
北方	-2921
十四	-2922
南徐	-2923
南方	-2924
卫瓘	-2925
却令	-2926
吉凶	-2927
名将	-2928
后有	-2929
吕虔	-2930
吴郡	-2931
吾受	-2932
告知	-2933
嘱曰	-2934
回阵	-2935
图本	-2936
复来	-2937
大刀	-2938
大旗	-2939
大贤	-2940
大雨	-2941
天气	-2942
好言	-2943
姜叙	-2944
子翼	-2945
孙皓	-2946
定矣	-2947
家小	-2948
寨外	-2949
对敌	-2950
寻路	-2951
射之	-2952
将书	-2953
小心	-2954
山险	-2955
已得	-2956
巴西	-2957
帐上	-2958
席散	-2959
干戈	-2960
干柴	-2961
年春	-2962
幸勿	-2963
幽州	-2964
府下	-2965
建业	-2966
引着	-2967
张邰	-2968
往投	-2969
徐氏	-2970
必斩	-2971
必无	-2972
必生	-2973
急唤	-2974
惟有	-2975
愕然	-2976
我只	-2977
所得	-2978
所见	-2979
手中	-2980
把盏	-2981
拿下	-2982
挂孝	-2983
掩面	-2984
擒住	-2985
改元	-2986
敢不	-2987
文长	-2988
新败	-2989
方始	-2990
旗上	-2991
无道	-2992
日久	-2993
日夜	-2994
旬日	-2995
时值	-2996
明白	-2997
晋公	-2998
更有	-2999
曹植	-3000
曹豹	-3001
杀将	-3002
李蒙	-3003
极其	-3004
榻前	-3005
欺君	-3006
此子	-3007
武将	-3008
温侯	-3009
渭南	-3010
灵柩	-3011
然之	-3012
牛马	-3013
献与	-3014
王濬	-3015
玺绶	-3016
璋曰	-3017
生得	-3018
申报	-3019
疑虑	-3020
病危	-3021
病重	-3022
监军	-3023
盖曰	-3024
知我	-3025
等闲	-3026
箭疮	-3027
簇拥	-3028
粮尽	-3029
粮米	-3030
结好	-3031
绰枪	-3032
羊祜	-3033
老贼	-3034
者乎	-3035
而别	-3036
自往	-3037
良图	-3038
营内	-3039
衣带	-3040
观望	-3041
计于	-3042
谢恩	-3043
赶至	-3044
身披	-3045
身死	-3046
辂曰	-3047
辱骂	-3048
迎战	-3049
近侍	-3050
这个	-3051
进取	-3052
逃命	-3053
遂同	-3054
郃曰	-3055
重加	-3056
锦袍	-3057
阴云	-3058
附耳	-3059
陆续	-3060
陈震	-3061
除之	-3062
险峻	-3063
韩福	-3064
骤至	-3065
黄旗	-3066
鼠窜	-3067
齐声	-3068
三十万	-3069
不出战	-3070
不能相	-3071
为荆州	-3072
五百人	-3073
今主公	-3074
今将军	-3075
今若不	-3076
作先锋	-3077
偏将军	-3078
其不意	-3079
分两路	-3080
十五万	-3081
去其缚	-3082
可擒矣	-3083
司马炎	-3084
大哭曰	-3085
并不见	-3086
引众将	-3087
御林军	-3088
意若何	-3089
操大惊	-3090
本部兵	-3091
权大喜	-3092
欲斩之	-3093
死之后	-3094
用火攻	-3095
荀攸曰	-3096
袁绍处	-3097
言未已	-3098
长叹曰	-3099
陛下可	-3100
一声鼓响	-3101
一箭射中	-3102
不可轻进	-3103
丞相何故	-3104
为大将军	-3105
何出此言	-3106
出其不意	-3107
四散奔走	-3108
引五千兵	-3109
引数十骑	-3110
自引大军	-3111
自相践踏	-3112
魏兵大败	-3113
鼓声大震	-3114
后人有诗叹	-3115
常山赵子龙	-3116
未知胜负如何	-3117
,”	-3118
?’	-3119
▁忽	-3120
一夜	-3121
一州	-3122
一战	-3123
一手	-3124
一方	-3125
丈八	-3126
三个	-3127
三寨	-3128
上关	-3129
不去	-3130
不堪	-3131
不退	-3132
不通	-3133
与他	-3134
与关	-3135
且走	-3136
且退	-3137
东郡	-3138
两头	-3139
严氏	-3140
丧胆	-3141
为辅	-3142
为重	-3143
乃命	-3144
乃曰	-3145
之外	-3146
之头	-3147
之望	-3148
之水	-3149
之理	-3150
之面	-3151
乘其	-3152
乘间	-3153
九回	-3154
争奈	-3155
二心	-3156
于后	-3157
于我	-3158
于操	-3159
云梯	-3160
五丈	-3161
五里	-3162
亦不	-3163
亦有	-3164
人言	-3165
令其	-3166
以备	-3167
仰面	-3168
伏路	-3169
会喃	-3170
何事	-3171
何期	-3172
侍婢	-3173
依次	-3174
便当	-3175
便问	-3176
先回	-3177
八回	-3178
六回	-3179
共饮	-3180
兵多	-3181
兵退	-3182
其说	-3183
写书	-3184
刀落	-3185
列侯	-3186
刘焉	-3187
刺斜	-3188
前日	-3189
剿除	-3190
功德	-3191
加害	-3192
务要	-3193
努力	-3194
十人	-3195
华容	-3196
南岸	-3197
博望	-3198
卤城	-3199
却将	-3200
却来	-3201
卸甲	-3202
去劫	-3203
去处	-3204
参拜	-3205
参谋	-3206
又是	-3207
又欲	-3208
口中	-3209
只教	-3210
只看	-3211
各守	-3212
各执	-3213
各营	-3214
吊丧	-3215
后事	-3216
吾言	-3217
回时	-3218
因见	-3219
困乏	-3220
困于	-3221
国贼	-3222
在家	-3223
在彼	-3224
垂泪	-3225
城郭	-3226
大业	-3227
大名	-3228
大宴	-3229
失信	-3230
夺其	-3231
夺得	-3232
奉命	-3233
奏闻	-3234
子孙	-3235
孟起	-3236
守寨	-3237
守门	-3238
官军	-3239
定也	-3240
宫门	-3241
寨后	-3242
寨来	-3243
寻觅	-3244
就令	-3245
山阳	-3246
山顶	-3247
川口	-3248
已尽	-3249
带来	-3250
并州	-3251
延曰	-3252
弃之	-3253
弓箭	-3254
归于	-3255
归顺	-3256
当有	-3257
径入	-3258
径出	-3259
得志	-3260
忧闷	-3261
忽听	-3262
怠慢	-3263
急急	-3264
恐失	-3265
愚意	-3266
愿闻	-3267
慨然	-3268
我若	-3269
战心	-3270
战马	-3271
所生	-3272
所谓	-3273
打破	-3274
打话	-3275
托病	-3276
扬鞭	-3277
折兵	-3278
护军	-3279
报曰	-3280
拆开	-3281
拦路	-3282
撞出	-3283
撞着	-3284
收川	-3285
放了	-3286
敌军	-3287
救兵	-3288
料敌	-3289
新亡	-3290
无备	-3291
无言	-3292
无语	-3293
昏绝	-3294
暗暗	-3295
望北	-3296
未曾	-3297
杀我	-3298
杀败	-3299
来杀	-3300
来此	-3301
来者	-3302
来说	-3303
来追	-3304
杨陵	-3305
欲以	-3306
欲投	-3307
正值	-3308
此马	-3309
段珪	-3310
毛玠	-3311
水关	-3312
汝不	-3313
江口	-3314
江山	-3315
火来	-3316
烦恼	-3317
焦触	-3318
猛将	-3319
王室	-3320
甚善	-3321
用计	-3322
申仪	-3323
男女	-3324
登曰	-3325
真曰	-3326
祭祀	-3327
筑起	-3328
管亥	-3329
精神	-3330
细言	-3331
绍军	-3332
臣愿	-3333
臧霸	-3334
自称	-3335
良谋	-3336
芝曰	-3337
若以	-3338
茅庐	-3339
落于	-3340
蒯越	-3341
融曰	-3342
行到	-3343
袁军	-3344
袭了	-3345
要路	-3346
许靖	-3347
论之	-3348
设计	-3349
诸君	-3350
谋反	-3351
赏赐	-3352
跟随	-3353
跣足	-3354
车前	-3355
辞别	-3356
过也	-3357
远远	-3358
遇害	-3359
郤正	-3360
重任	-3361
重地	-3362
量此	-3363
闪出	-3364
闪过	-3365
防之	-3366
隐者	-3367
雅丹	-3368
鞍马	-3369
韦晃	-3370
颇有	-3371
高声	-3372
高沛	-3373
龚都	-3374
一军取	-3375
一刀砍	-3376
不能行	-3377
与关公	-3378
与刘备	-3379
与孙乾	-3380
东将军	-3381
为大将	-3382
为将军	-3383
乃孔明	-3384
于马上	-3385
众诸侯	-3386
传令曰	-3387
刘景升	-3388
勒回马	-3389
十数骑	-3390
又问曰	-3391
叙礼毕	-3392
吾二人	-3393
在帐中	-3394
在荆州	-3395
太守王	-3396
将首级	-3397
岂不知	-3398
差人往	-3399
开城门	-3400
急上马	-3401
我等皆	-3402
操视之	-3403
敌楼上	-3404
数百骑	-3405
斩于市	-3406
玄德见	-3407
王子服	-3408
白帝城	-3409
者为牛	-3410
而出曰	-3411
聚众将	-3412
见孙权	-3413
退左右	-3414
问何人	-3415
阿会喃	-3416
黄公覆	-3417
举火为号	-3418
乘势掩杀	-3419
人困马乏	-3420
困在垓心	-3421
孔明大喜	-3422
建安二十	-3423
引五百军	-3424
所到之处	-3425
拈弓搭箭	-3426
挺枪来迎	-3427
放起火来	-3428
无计可施	-3429
有何高见	-3430
某有一计	-3431
正合吾意	-3432
矢石如雨	-3433
身长八尺	-3434
近臣奏曰	-3435
鼓角喧天	-3436
分付如此如此	-3437
一只	-3438
一字	-3439
丁原	-3440
七十	-3441
七星	-3442
三公	-3443
三处	-3444
三寸	-3445
下了	-3446
下楼	-3447
下狱	-3448
下诏	-3449
不惧	-3450
不期	-3451
不顾	-3452
且宜	-3453
且战	-3454
两将	-3455
中山	-3456
临阵	-3457
为外	-3458
为征	-3459
为所	-3460
乃以	-3461
乃召	-3462
乃密	-3463
乃引	-3464
义兵	-3465
之交	-3466
之以	-3467
之任	-3468
之南	-3469
之机	-3470
之见	-3471
乡侯	-3472
书生	-3473
乱言	-3474
事急	-3475
于内	-3476
五人	-3477
今当	-3478
今有	-3479
今见	-3480
令我	-3481
以救	-3482
以雪	-3483
仰观	-3484
仲谋	-3485
伏完	-3486
传旨	-3487
伯言	-3488
伺候	-3489
何得	-3490
余人	-3491
余皆	-3492
使至	-3493
侍妾	-3494
依山	-3495
依旧	-3496
便有	-3497
便来	-3498
傅彤	-3499
傍岸	-3500
催督	-3501
允诺	-3502
先斩	-3503
入告	-3504
公何	-3505
六年	-3506
兵权	-3507
其家	-3508
其父	-3509
再往	-3510
写表	-3511
军将	-3512
出榜	-3513
分作	-3514
分军	-3515
前行	-3516
加鞭	-3517
勿疑	-3518
十月	-3519
南蛮	-3520
卧病	-3521
即遣	-3522
去见	-3523
又到	-3524
又起	-3525
又遣	-3526
受其	-3527
只听	-3528
只因	-3529
只要	-3530
只说	-3531
可使	-3532
可急	-3533
叹息	-3534
同乡	-3535
同领	-3536
后队	-3537
吕凯	-3538
听之	-3539
听信	-3540
吾先	-3541
吾知	-3542
吾计	-3543
员将	-3544
四月	-3545
四郡	-3546
固守	-3547
在日	-3548
地道	-3549
地面	-3550
坐而	-3551
壕边	-3552
士马	-3553
天时	-3554
太甚	-3555
失惊	-3556
奔到	-3557
奔至	-3558
奔逃	-3559
如飞	-3560
妙算	-3561
孝直	-3562
孺子	-3563
安身	-3564
宗党	-3565
官员	-3566
家人	-3567
射死	-3568
将亡	-3569
少歇	-3570
就此	-3571
屯军	-3572
山前	-3573
山头	-3574
岂得	-3575
岱曰	-3576
左手	-3577
已将	-3578
已至	-3579
巴丘	-3580
布乃	-3581
师纂	-3582
并皆	-3583
床上	-3584
弘农	-3585
张梁	-3586
张英	-3587
当世	-3588
当今	-3589
征伐	-3590
得书	-3591
御驾	-3592
心也	-3593
必胜	-3594
忧虑	-3595
忻然	-3596
忽起	-3597
急切	-3598
急召	-3599
急欲	-3600
恢复	-3601
恨无	-3602
恰才	-3603
惊慌	-3604
惊讶	-3605
懦弱	-3606
我为	-3607
我自	-3608
所佩	-3609
扎住	-3610
扬州	-3611
抖擞	-3612
抚掌	-3613
报捷	-3614
抱头	-3615
拆封	-3616
拜服	-3617
挑战	-3618
挺身	-3619
掎角	-3620
探之	-3621
推车	-3622
操即	-3623
操欲	-3624
攻取	-3625
放回	-3626
敌手	-3627
救援	-3628
文王	-3629
方得	-3630
无敌	-3631
既死	-3632
旧臣	-3633
旱路	-3634
昂然	-3635
昨夜	-3636
是个	-3637
是以	-3638
是我	-3639
暂歇	-3640
更衣	-3641
曹髦	-3642
曾与	-3643
有变	-3644
有命	-3645
有所	-3646
朝政	-3647
朱异	-3648
李丰	-3649
来意	-3650
来赶	-3651
果有	-3652
某乃	-3653
柴草	-3654
欲使	-3655
欲取	-3656
歇息	-3657
歌曰	-3658
正当	-3659
水势	-3660
水战	-3661
水路	-3662
汜曰	-3663
汝勿	-3664
江中	-3665
泣拜	-3666
流血	-3667
海内	-3668
涪关	-3669
溃散	-3670
点军	-3671
点头	-3672
猇亭	-3673
献上	-3674
献于	-3675
玉带	-3676
王甫	-3677
瑁曰	-3678
甲士	-3679
疲困	-3680
登城	-3681
百里	-3682
的人	-3683
直冲	-3684
知也	-3685
砍死	-3686
立之	-3687
粮足	-3688
精壮	-3689
素有	-3690
约有	-3691
细说	-3692
胡班	-3693
自到	-3694
自古	-3695
自走	-3696
艨艟	-3697
良曰	-3698
艰难	-3699
芦苇	-3700
若能	-3701
草堂	-3702
莫敢	-3703
葫芦	-3704
蒋舒	-3705
蒙曰	-3706
蔡氏	-3707
蔡邕	-3708
虞翻	-3709
虽是	-3710
蜀汉	-3711
被擒	-3712
见一	-3713
解之	-3714
计就	-3715
设祭	-3716
诈称	-3717
诉说	-3718
误了	-3719
请问	-3720
谁人	-3721
调用	-3722
谋害	-3723
谡曰	-3724
贤侄	-3725
赐以	-3726
赐教	-3727
赴宴	-3728
迁都	-3729
过人	-3730
过桥	-3731
远征	-3732
连声	-3733
连年	-3734
退守	-3735
送至	-3736
逃窜	-3737
逃难	-3738
避之	-3739
鏖兵	-3740
长枪	-3741
阆中	-3742
阵上	-3743
随军	-3744
雌雄	-3745
震天	-3746
霸业	-3747
预先	-3748
马步	-3749
驰书	-3750
高阜	-3751
魏营	-3752
黄河	-3753
鼎足	-3754
鼠辈	-3755
▁是夜	-3756
三万军	-3757
三路兵	-3758
与众将	-3759
与吕布	-3760
为上策	-3761
为天下	-3762
了一惊	-3763
五十合	-3764
亦不能	-3765
以鞭指	-3766
传令教	-3767
何足道	-3768
倘有疏	-3769
先使人	-3770
入城去	-3771
入成都	-3772
公孙康	-3773
再三劝	-3774
军令状	-3775
出城外	-3776
十余万	-3777
即修书	-3778
即皇帝	-3779
可擒也	-3780
周瑜曰	-3781
商议间	-3782
四轮车	-3783
回报曰	-3784
国太曰	-3785
姜维曰	-3786
孙乾曰	-3787
张二人	-3788
张郃曰	-3789
甘夫人	-3790
甚爱之	-3791
百余里	-3792
糜夫人	-3793
群臣曰	-3794
荆州来	-3795
见魏兵	-3796
赏三军	-3797
赴洛阳	-3798
退蜀兵	-3799
鲁肃曰	-3800
▁诸葛亮	-3801
且战且走	-3802
何不早降	-3803
何以知之	-3804
先帝托孤	-3805
各引一军	-3806
喊声大起	-3807
喊声震地	-3808
大开城门	-3809
孔明叹曰	-3810
尘头大起	-3811
山僻小路	-3812
往来冲突	-3813
手起刀落	-3814
抱头鼠窜	-3815
挺枪出马	-3816
挺枪纵马	-3817
更待何时	-3818
水陆并进	-3819
看看赶上	-3820
荆州之兵	-3821
虽然如此	-3822
诸葛丞相	-3823
骠骑将军	-3824
众谋士商议	-3825
早有人报知	-3826
》,	-3827
一举	-3828
一家	-3829
一戟	-3830
一死	-3831
一见	-3832
一边	-3833
七月	-3834
万人	-3835
万死	-3836
三将	-3837
三队	-3838
三面	-3839
上方	-3840
上来	-3841
上船	-3842
下书	-3843
下战	-3844
下车	-3845
不回	-3846
不复	-3847
不意	-3848
不疑	-3849
不祥	-3850
不赶	-3851
专候	-3852
世所	-3853
两枝	-3854
两番	-3855
中之	-3856
中路	-3857
为誓	-3858
主母	-3859
举刀	-3860
举哀	-3861
乃大	-3862
之分	-3863
之围	-3864
之大	-3865
之气	-3866
之职	-3867
乌戈	-3868
乐嘉	-3869
乘此	-3870
九泉	-3871
二者	-3872
二袁	-3873
于前	-3874
五分	-3875
亲征	-3876
人等	-3877
人臣	-3878
今幸	-3879
今虽	-3880
他日	-3881
以正	-3882
以示	-3883
众心	-3884
伯奢	-3885
住了	-3886
何策	-3887
何计	-3888
侍立	-3889
侍臣	-3890
便与	-3891
便命	-3892
保驾	-3893
倍道	-3894
儒曰	-3895
入吴	-3896
全功	-3897
八阵	-3898
公明	-3899
关索	-3900
兵去	-3901
兵已	-3902
其中	-3903
再言	-3904
凛凛	-3905
出班	-3906
击鼓	-3907
刀手	-3908
到了	-3909
到寨	-3910
前到	-3911
前言	-3912
劝曰	-3913
助之	-3914
势孤	-3915
北军	-3916
即便	-3917
去矣	-3918
又差	-3919
又闻	-3920
双手	-3921
反间	-3922
受之	-3923
古人	-3924
只望	-3925
可令	-3926
可用	-3927
同至	-3928
同行	-3929
向者	-3930
听毕	-3931
吴军	-3932
吴押	-3933
吾却	-3934
吾将	-3935
命将	-3936
咬牙	-3937
咽喉	-3938
唇齿	-3939
嗟叹	-3940
园中	-3941
土城	-3942
圣人	-3943
坚曰	-3944
大疑	-3945
大至	-3946
天晚	-3947
天象	-3948
天顺	-3949
太常	-3950
头戴	-3951
女婿	-3952
好意	-3953
子布	-3954
字仲	-3955
字文	-3956
宗庙	-3957
官吏	-3958
家中	-3959
家眷	-3960
密室	-3961
密报	-3962
寨门	-3963
封为	-3964
将星	-3965
尚在	-3966
尽忠	-3967
居中	-3968
居于	-3969
川中	-3970
帝与	-3971
帝后	-3972
年矣	-3973
年老	-3974
幸也	-3975
座上	-3976
开路	-3977
弃马	-3978
弑君	-3979
弓弦	-3980
张卫	-3981
当住	-3982
当头	-3983
彭羕	-3984
征进	-3985
必出	-3986
必得	-3987
必死	-3988
必被	-3989
恍惚	-3990
情愿	-3991
惊惧	-3992
惊觉	-3993
愈加	-3994
感其	-3995
愿从	-3996
我有	-3997
才也	-3998
把住	-3999
报来	-4000
拂袖	-4001
拆书	-4002
招军	-4003
拱手	-4004
持书	-4005
捉住	-4006
据守	-4007
掌握	-4008
探得	-4009
接连	-4010
提起	-4011
操寨	-4012
操必	-4013
收聚	-4014
放入	-4015
斩将	-4016
方知	-4017
无主	-4018
无心	-4019
无能	-4020
早到	-4021
时有	-4022
明诏	-4023
暗思	-4024
有书	-4025
有言	-4026
有谋	-4027
未审	-4028
未见	-4029
本阵	-4030
朵思	-4031
机谋	-4032
李歆	-4033
李胜	-4034
杨柏	-4035
林木	-4036
欲害	-4037
正慌	-4038
此书	-4039
此女	-4040
此等	-4041
此阵	-4042
武城	-4043
气力	-4044
汉寿	-4045
汉帝	-4046
汝敢	-4047
汝父	-4048
洮水	-4049
灵帝	-4050
牛辅	-4051
狄道	-4052
狱卒	-4053
狱吏	-4054
王方	-4055
环眼	-4056
现今	-4057
理会	-4058
甘露	-4059
界口	-4060
登坛	-4061
百人	-4062
皆出	-4063
皆言	-4064
皇子	-4065
皖城	-4066
相国	-4067
相逼	-4068
省悟	-4069
破蜀	-4070
碧眼	-4071
祝融	-4072
积草	-4073
答话	-4074
策马	-4075
约定	-4076
统领	-4077
自出	-4078
自恃	-4079
自知	-4080
至死	-4081
范曰	-4082
虎将	-4083
虎踞	-4084
西城	-4085
西山	-4086
览表	-4087
誓同	-4088
设席	-4089
诏命	-4090
说客	-4091
谁知	-4092
调兵	-4093
谋杀	-4094
贵人	-4095
赐之	-4096
走了	-4097
赴会	-4098
超曰	-4099
身穿	-4100
轮刀	-4101
迁延	-4102
连忙	-4103
连环	-4104
速行	-4105
遂封	-4106
遗命	-4107
郭常	-4108
金城	-4109
铁笼	-4110
铁车	-4111
问安	-4112
问时	-4113
闻报	-4114
阻当	-4115
陈群	-4116
降曹	-4117
降魏	-4118
驸马	-4119
骤雨	-4120
魏公	-4121
麦城	-4122
黄奎	-4123
▁一日	-4124
▁第九	-4125
▁第六	-4126
上方谷	-4127
下江南	-4128
不三合	-4129
不可失	-4130
不可胜	-4131
不得不	-4132
不能用	-4133
不见了	-4134
不足为	-4135
两路军	-4136
为两段	-4137
为军师	-4138
之人也	-4139
乌戈国	-4140
二十只	-4141
二十四	-4142
于丞相	-4143
五丈原	-4144
五十余	-4145
今刘备	-4146
从其计	-4147
从背后	-4148
何太后	-4149
列柳城	-4150
刘季玉	-4151
勒住马	-4152
各引兵	-4153
后必为	-4154
向导官	-4155
吴押狱	-4156
周公瑾	-4157
唬骸叭	-4158
唬骸拔	-4159
在山上	-4160
在旦夕	-4161
在祁山	-4162
坐下马	-4163
孔明亦	-4164
引兵出	-4165
愿陛下	-4166
此人乃	-4167
死不辞	-4168
汝安敢	-4169
法正曰	-4170
玄德为	-4171
用好言	-4172
知此事	-4173
破曹操	-4174
童子曰	-4175
端坐于	-4176
等一班	-4177
箭射之	-4178
群臣皆	-4179
而问曰	-4180
能用兵	-4181
袁公路	-4182
见张飞	-4183
见蜀兵	-4184
计议曰	-4185
诸葛绪	-4186
谓之曰	-4187
遂上马	-4188
郭嘉曰	-4189
铜雀台	-4190
陈宫曰	-4191
马步军	-4192
鲁子敬	-4193
▁第三十	-4194
▁第五十	-4195
一人一骑	-4196
乱军之中	-4197
令人哨探	-4198
以致如此	-4199
何足道哉	-4200
依计而行	-4201
兄弟二人	-4202
兖州刺史	-4203
关云长也	-4204
出郭迎接	-4205
分兵三路	-4206
勃然大怒	-4207
十里下寨	-4208
即皇帝位	-4209
却说孔明	-4210
司马懿曰	-4211
吃了一惊	-4212
吴主孙亮	-4213
呈上书信	-4214
四面围定	-4215
大小官僚	-4216
弃城而走	-4217
拆封视之	-4218
拍马舞刀	-4219
挺枪跃马	-4220
掎角之势	-4221
整顿军马	-4222
旗上大书	-4223
犬马之劳	-4224
犹豫未决	-4225
狂风大作	-4226
玄德大惊	-4227
谓诸将曰	-4228
长驱大进	-4229
随后掩杀	-4230
飞报曹操	-4231
▁却说孙权	-4232
。)	-4233
一年	-4234
一招	-4235
一片	-4236
一箭	-4237
一者	-4238
万古	-4239
万夫	-4240
上人	-4241
上天	-4242
不同	-4243
不和	-4244
不应	-4245
不弃	-4246
不忘	-4247
不时	-4248
不欲	-4249
不测	-4250
不睦	-4251
不行	-4252
不言	-4253
与贼	-4254
且勿	-4255
世间	-4256
丛杂	-4257
东西	-4258
两行	-4259
中书	-4260
临危	-4261
临淄	-4262
主张	-4263
主意	-4264
举动	-4265
乃留	-4266
久计	-4267
之侄	-4268
之军	-4269
之危	-4270
之马	-4271
乌林	-4272
乘时	-4273
书毕	-4274
书院	-4275
乾曰	-4276
争锋	-4277
二城	-4278
二寸	-4279
二年	-4280
二月	-4281
于东	-4282
五年	-4283
五日	-4284
交兵	-4285
人来	-4286
仁德	-4287
仇人	-4288
今不	-4289
今奉	-4290
今既	-4291
仔细	-4292
以保	-4293
以死	-4294
以逸	-4295
伏在	-4296
伏道	-4297
传国	-4298
伯符	-4299
侵犯	-4300
便退	-4301
保全	-4302
俱各	-4303
倒竖	-4304
倾心	-4305
假节	-4306
偏将	-4307
催促	-4308
充曰	-4309
先使	-4310
先发	-4311
八岁	-4312
共图	-4313
兴曰	-4314
兵屯	-4315
兵符	-4316
其地	-4317
其才	-4318
其死	-4319
具表	-4320
冀城	-4321
再来	-4322
军已	-4323
军粮	-4324
切宜	-4325
别来	-4326
前有	-4327
功名	-4328
助我	-4329
劳苦	-4330
势穷	-4331
十倍	-4332
千秋	-4333
华夏	-4334
单搦	-4335
即唤	-4336
却又	-4337
去也	-4338
去时	-4339
又与	-4340
又于	-4341
又何	-4342
取川	-4343
取路	-4344
受诏	-4345
受降	-4346
口称	-4347
只今	-4348
可获	-4349
史涣	-4350
右军	-4351
同盟	-4352
名不	-4353
名士	-4354
吕公	-4355
君之	-4356
君命	-4357
听了	-4358
吾为	-4359
吾心	-4360
吾所	-4361
告之	-4362
咨曰	-4363
哭声	-4364
哭曰	-4365
唤出	-4366
四起	-4367
回城	-4368
回答	-4369
因问	-4370
图矣	-4371
圣旨	-4372
士民	-4373
声如	-4374
外合	-4375
大悟	-4376
大权	-4377
大赦	-4378
大醉	-4379
天意	-4380
头功	-4381
奋勇	-4382
奏知	-4383
如山	-4384
妖人	-4385
妻曰	-4386
子明	-4387
孔秀	-4388
字德	-4389
宁曰	-4390
宇宙	-4391
守护	-4392
安抚	-4393
安葬	-4394
宜速	-4395
实欲	-4396
宠曰	-4397
宣召	-4398
害民	-4399
宴罢	-4400
家兄	-4401
宽心	-4402
宾主	-4403
密谓	-4404
寻见	-4405
将及	-4406
尚容	-4407
尽行	-4408
屈身	-4409
屏山	-4410
山峪	-4411
岂敢	-4412
崎岖	-4413
左军	-4414
已回	-4415
师曰	-4416
帝王	-4417
平定	-4418
并马	-4419
广陵	-4420
弃甲	-4421
张悌	-4422
张曰	-4423
张邈	-4424
张顗	-4425
彼兵	-4426
彼此	-4427
待劳	-4428
待吾	-4429
御史	-4430
心下	-4431
心如	-4432
心怀	-4433
必是	-4434
必矣	-4435
必能	-4436
快船	-4437
怒目	-4438
急待	-4439
急来	-4440
性急	-4441
恰待	-4442
想起	-4443
愿借	-4444
懊悔	-4445
成矣	-4446
我乃	-4447
截断	-4448
打听	-4449
执下	-4450
执迷	-4451
扯住	-4452
抄在	-4453
把关	-4454
报与	-4455
报效	-4456
拒住	-4457
拖刀	-4458
招降	-4459
拜受	-4460
择日	-4461
拽起	-4462
持刀	-4463
挺矛	-4464
掣剑	-4465
掷杯	-4466
提剑	-4467
操以	-4468
操怒	-4469
收了	-4470
攻其	-4471
放下	-4472
放出	-4473
放汝	-4474
故主	-4475
故令	-4476
救军	-4477
救火	-4478
教你	-4479
敬服	-4480
料吾	-4481
方苏	-4482
方退	-4483
无名	-4484
无端	-4485
既定	-4486
既至	-4487
显圣	-4488
晋王	-4489
暂退	-4490
曲阿	-4491
曹营	-4492
月余	-4493
有余	-4494
有神	-4495
朕意	-4496
朝中	-4497
未信	-4498
未到	-4499
未能	-4500
本无	-4501
朱灵	-4502
杀害	-4503
杀气	-4504
杀汝	-4505
杂在	-4506
李异	-4507
杜琼	-4508
束手	-4509
来劫	-4510
来相	-4511
来至	-4512
杨修	-4513
杨锋	-4514
树林	-4515
桓阶	-4516
桥边	-4517
檀溪	-4518
欢喜	-4519
欲往	-4520
欲行	-4521
欲见	-4522
欺我	-4523
歆曰	-4524
正南	-4525
正好	-4526
正盛	-4527
此信	-4528
武都	-4529
死无	-4530
毫无	-4531
永结	-4532
汉升	-4533
汉家	-4534
汝主	-4535
汝弟	-4536
汝当	-4537
汝言	-4538
江油	-4539
沉重	-4540
河东	-4541
泪下	-4542
流言	-4543
淮曰	-4544
渡水	-4545
渡过	-4546
渭滨	-4547
灭其	-4548
灯火	-4549
焚烧	-4550
然也	-4551
燕王	-4552
父兄	-4553
牛渚	-4554
率众	-4555
琦曰	-4556
由是	-4557
留于	-4558
疑忌	-4559
疾病	-4560
痛恨	-4561
百日	-4562
百骑	-4563
皆封	-4564
皆退	-4565
盛德	-4566
盟好	-4567
直言	-4568
相争	-4569
相似	-4570
相别	-4571
相劝	-4572
相觑	-4573
知道	-4574
破了	-4575
祭之	-4576
祭毕	-4577
祭酒	-4578
秣陵	-4579
突围	-4580
突火	-4581
筑坛	-4582
筵前	-4583
管辂	-4584
紧守	-4585
紧要	-4586
纳降	-4587
纵然	-4588
终是	-4589
结营	-4590
统兵	-4591
而上	-4592
而复	-4593
而有	-4594
肝脑	-4595
背义	-4596
胜之	-4597
能言	-4598
臣闻	-4599
自守	-4600
至夜	-4601
至矣	-4602
苏飞	-4603
若使	-4604
若知	-4605
若肯	-4606
董厥	-4607
蔡阳	-4608
虚张	-4609
衡曰	-4610
襄江	-4611
见帝	-4612
话间	-4613
诱敌	-4614
说出	-4615
请降	-4616
读书	-4617
败于	-4618
败回	-4619
败残	-4620
贫道	-4621
贺曰	-4622
赐爵	-4623
走入	-4624
赵昂	-4625
赵累	-4626
足备	-4627
足矣	-4628
车中	-4629
轻进	-4630
达曰	-4631
远涉	-4632
远近	-4633
连人	-4634
迟疑	-4635
退之	-4636
退后	-4637
退敌	-4638
适来	-4639
逃生	-4640
遂拜	-4641
道上	-4642
道口	-4643
遗书	-4644
都到	-4645
重伤	-4646
重兵	-4647
金旋	-4648
金疮	-4649
金盔	-4650
金祎	-4651
金银	-4652
铁桶	-4653
银铠	-4654
陆抗	-4655
陇上	-4656
陇右	-4657
陈说	-4658
隆中	-4659
难保	-4660
雄兵	-4661
震动	-4662
霍峻	-4663
霸曰	-4664
面面	-4665
韩德	-4666
韩馥	-4667
韬略	-4668
顺水	-4669
须用	-4670
马到	-4671
马延	-4672
骑马	-4673
高明	-4674
鲍信	-4675
鹿角	-4676
麴义	-4677
黄金	-4678
▁二人	-4679
一声响	-4680
下马来	-4681
不可久	-4682
中取事	-4683
为丞相	-4684
为国家	-4685
之道也	-4686
乱军中	-4687
了一遍	-4688
于城外	-4689
于马前	-4690
五千军	-4691
今丞相	-4692
令左右	-4693
以手指	-4694
以言挑	-4695
何足为	-4696
你如何	-4697
使者曰	-4698
先令人	-4699
入汉中	-4700
决雌雄	-4701
分三路	-4702
刘晔曰	-4703
刺斜里	-4704
南将军	-4705
变色曰	-4706
只有一	-4707
叱之曰	-4708
吾今日	-4709
喝左右	-4710
四十余	-4711
回报说	-4712
回本寨	-4713
回江东	-4714
大事可	-4715
天水郡	-4716
如何肯	-4717
孔明见	-4718
孔明遂	-4719
孙将军	-4720
孟获曰	-4721
守荆州	-4722
将下来	-4723
将军马	-4724
小主人	-4725
应天顺	-4726
庞士元	-4727
张让等	-4728
当此任	-4729
心腹将	-4730
必不敢	-4731
必不肯	-4732
忽哨马	-4733
懿奏曰	-4734
我二人	-4735
按军法	-4736
操问曰	-4737
数十万	-4738
曹操也	-4739
有一人	-4740
望丞相	-4741
欲杀之	-4742
正议间	-4743
永安宫	-4744
泣告曰	-4745
淳于琼	-4746
火之物	-4747
火光中	-4748
献计曰	-4749
皆死于	-4750
直赶到	-4751
知中计	-4752
祁山寨	-4753
者立斩	-4754
肝脑涂	-4755
自思曰	-4756
自领兵	-4757
董太后	-4758
衣带诏	-4759
袁本初	-4760
袁绍曰	-4761
西凉兵	-4762
诸葛瞻	-4763
还荆州	-4764
遂不听	-4765
邓二人	-4766
问孔明	-4767
馆驿中	-4768
高叫曰	-4769
高阜处	-4770
▁第二十	-4771
一万五千	-4772
一人出曰	-4773
一人应声	-4774
三十余里	-4775
三更时分	-4776
不可轻动	-4777
不能相顾	-4778
为大司马	-4779
乘势追杀	-4780
仰观天文	-4781
何故如此	-4782
使者回报	-4783
倘有疏虞	-4784
公子刘琦	-4785
唤入问之	-4786
城下叫门	-4787
大杀一阵	-4788
大赦天下	-4789
孔明视之	-4790
引兵出城	-4791
引兵杀出	-4792
心中大喜	-4793
必为后患	-4794
忽见一人	-4795
报知曹操	-4796
昏绝于地	-4797
更不打话	-4798
桃园结义	-4799
玄德从之	-4800
玄德闻言	-4801
结为兄弟	-4802
背后一人	-4803
誓同生死	-4804
设宴款待	-4805
诈败而走	-4806
闭门不出	-4807
面面相觑	-4808
▁却说周瑜	-4809
▁却说张飞	-4810
▁却说邓艾	-4811
为前部先锋	-4812
交马只一合	-4813
孔明大笑曰	-4814
城上乱箭射下	-4815
忽然喊声大震	-4816
?!	-4817
▁是	-4818
》。	-4819
一向	-4820
一女	-4821
一寸	-4822
一座	-4823
一朝	-4824
一物	-4825
一跃	-4826
一身	-4827
一遍	-4828
一马	-4829
七路	-4830
万一	-4831
万岁	-4832
万民	-4833
万里	-4834
三事	-4835
三回	-4836
三条	-4837
三顾	-4838
下坛	-4839
下殿	-4840
下泪	-4841
下落	-4842
不决	-4843
不发	-4844
不就	-4845
不尽	-4846
不愿	-4847
不死	-4848
不浅	-4849
不由	-4850
不留	-4851
不省	-4852
不称	-4853
不等	-4854
不至	-4855
不要	-4856
不避	-4857
不问	-4858
与众	-4859
与你	-4860
与公	-4861
与敌	-4862
与某	-4863
中国	-4864
丹阳	-4865
为友	-4866
为合	-4867
乃一	-4868
乃将	-4869
乃聚	-4870
之剑	-4871
之女	-4872
之孙	-4873
之急	-4874
之恨	-4875
乌桓	-4876
九月	-4877
九锡	-4878
争先	-4879
二吕	-4880
于中	-4881
于吴	-4882
五月	-4883
些小	-4884
亦当	-4885
亦无	-4886
亦能	-4887
人多	-4888
仁慈	-4889
今且	-4890
今何	-4891
今彼	-4892
今果	-4893
今被	-4894
从何	-4895
仗义	-4896
代之	-4897
令弟	-4898
以上	-4899
以后	-4900
以实	-4901
以表	-4902
件事	-4903
伊尹	-4904
伏罪	-4905
休教	-4906
伞盖	-4907
传说	-4908
传谕	-4909
伯父	-4910
低言	-4911
何晏	-4912
何来	-4913
何谓	-4914
余党	-4915
你可	-4916
佩剑	-4917
使往	-4918
供给	-4919
依令	-4920
便出	-4921
俱在	-4922
借兵	-4923
健将	-4924
先于	-4925
先引	-4926
先退	-4927
光禄	-4928
入无	-4929
八万	-4930
公且	-4931
公文	-4932
关内	-4933
关口	-4934
关外	-4935
关羽	-4936
兴霸	-4937
兵临	-4938
兵于	-4939
兵精	-4940
其众	-4941
其便	-4942
其尸	-4943
其弟	-4944
其文	-4945
其谋	-4946
其锋	-4947
其面	-4948
再战	-4949
再欲	-4950
冒烟	-4951
写了	-4952
军机	-4953
几时	-4954
凭高	-4955
出一	-4956
出问	-4957
出降	-4958
分墨	-4959
列于	-4960
利刃	-4961
别作	-4962
到家	-4963
到时	-4964
刺死	-4965
前赴	-4966
动手	-4967
动问	-4968
势危	-4969
势甚	-4970
勇力	-4971
勿以	-4972
化曰	-4973
北岸	-4974
千古	-4975
午时	-4976
半月	-4977
半途	-4978
卞喜	-4979
卞氏	-4980
即今	-4981
即以	-4982
即将	-4983
却才	-4984
压惊	-4985
去后	-4986
又命	-4987
又遇	-4988
反欲	-4989
反覆	-4990
发喊	-4991
取回	-4992
受困	-4993
受死	-4994
只剩	-4995
只带	-4996
只须	-4997
右臂	-4998
号哭	-4999
司空	-5000
各寨	-5001
后必	-5002
后曰	-5003
后来	-5004
吐血	-5005
向日	-5006
君子	-5007
吴太	-5008
吾命	-5009
吾誓	-5010
告免	-5011
喏喏	-5012
嘉曰	-5013
嘱付	-5014
四时	-5015
四队	-5016
回走	-5017
图曰	-5018
在侧	-5019
在西	-5020
坐下	-5021
坚执	-5022
坛上	-5023
坛下	-5024
城南	-5025
堂中	-5026
境界	-5027
复有	-5028
夜梦	-5029
夤夜	-5030
大任	-5031
大妙	-5032
大恩	-5033
大雾	-5034
大驱	-5035
天使	-5036
天荡	-5037
天降	-5038
太白	-5039
头山	-5040
头盔	-5041
奇功	-5042
奸臣	-5043
好人	-5044
威名	-5045
孤意	-5046
安众	-5047
宋忠	-5048
宋谦	-5049
密奏	-5050
对答	-5051
封赏	-5052
将到	-5053
将头	-5054
小校	-5055
小觑	-5056
少时	-5057
尚自	-5058
尸横	-5059
尽诛	-5060
尽降	-5061
山脚	-5062
州事	-5063
已去	-5064
已成	-5065
布告	-5066
帝位	-5067
年方	-5068
并起	-5069
庆童	-5070
庐江	-5071
应付	-5072
应弦	-5073
府君	-5074
废立	-5075
开船	-5076
开言	-5077
弃枪	-5078
弓手	-5079
弓马	-5080
引入	-5081
弟兄	-5082
张约	-5083
归家	-5084
当复	-5085
形容	-5086
征之	-5087
径至	-5088
待人	-5089
待他	-5090
徐图	-5091
徐荣	-5092
得之	-5093
得令	-5094
御之	-5095
心事	-5096
心惊	-5097
必先	-5098
怎敢	-5099
恨之	-5100
恰好	-5101
惊得	-5102
惧色	-5103
惶恐	-5104
慰劳	-5105
成败	-5106
我于	-5107
我却	-5108
我去	-5109
战有	-5110
所为	-5111
所害	-5112
投魏	-5113
折将	-5114
抢夺	-5115
拈着	-5116
招飐	-5117
择吉	-5118
挥泪	-5119
捉下	-5120
探视	-5121
提戟	-5122
撞见	-5123
撤兵	-5124
操在	-5125
操引	-5126
擒了	-5127
放过	-5128
故也	-5129
敌之	-5130
救起	-5131
教取	-5132
数杯	-5133
斩汝	-5134
方到	-5135
方天	-5136
无有	-5137
日行	-5138
旧将	-5139
明主	-5140
春秋	-5141
昱曰	-5142
晋兵	-5143
智谋	-5144
月明	-5145
有误	-5146
望东	-5147
望乞	-5148
望前	-5149
望后	-5150
望曰	-5151
木鹿	-5152
杀吾	-5153
杀条	-5154
杀贼	-5155
李恢	-5156
来刺	-5157
杨欣	-5158
枪刀	-5159
某闻	-5160
染病	-5161
桃花	-5162
桥头	-5163
欠身	-5164
欲去	-5165
欲立	-5166
止之	-5167
正曰	-5168
正色	-5169
正见	-5170
正逢	-5171
此心	-5172
此皆	-5173
此行	-5174
气数	-5175
求之	-5176
汉相	-5177
汝之	-5178
汝今	-5179
汝却	-5180
汝来	-5181
汝欲	-5182
江湖	-5183
河上	-5184
法度	-5185
洪曰	-5186
洪福	-5187
济矣	-5188
涿郡	-5189
深信	-5190
深得	-5191
漫山	-5192
漳河	-5193
火烧	-5194
火焰	-5195
炮石	-5196
点兵	-5197
烧着	-5198
牙将	-5199
牙旗	-5200
牵出	-5201
犯境	-5202
献了	-5203
瓒曰	-5204
瓦口	-5205
瓦解	-5206
甄氏	-5207
甚多	-5208
用刀	-5209
用武	-5210
界首	-5211
的卢	-5212
皆无	-5213
皆来	-5214
皇天	-5215
盘蛇	-5216
盟主	-5217
直出	-5218
相告	-5219
相离	-5220
相送	-5221
看我	-5222
真心	-5223
睡着	-5224
禁曰	-5225
穆顺	-5226
空回	-5227
等物	-5228
算定	-5229
粮少	-5230
紧急	-5231
累次	-5232
红日	-5233
纳之	-5234
纳士	-5235
纸笔	-5236
绳索	-5237
羽翼	-5238
老弱	-5239
而卧	-5240
而取	-5241
而投	-5242
而望	-5243
而过	-5244
而还	-5245
耻笑	-5246
胜败	-5247
腾曰	-5248
自缚	-5249
自若	-5250
至于	-5251
致祭	-5252
舍命	-5253
舞剑	-5254
船筏	-5255
苟安	-5256
茶罢	-5257
荥阳	-5258
董允	-5259
薛兰	-5260
虎牢	-5261
虎豹	-5262
血路	-5263
行了	-5264
行事	-5265
行坐	-5266
被围	-5267
被害	-5268
袭之	-5269
裨将	-5270
见其	-5271
见是	-5272
解赴	-5273
言毕	-5274
讨逆	-5275
训练	-5276
设一	-5277
诈也	-5278
诏曰	-5279
说与	-5280
调拨	-5281
谋臣	-5282
谏议	-5283
谨守	-5284
谨慎	-5285
责骂	-5286
贵妃	-5287
费观	-5288
费诗	-5289
贺喜	-5290
贿赂	-5291
走石	-5292
足智	-5293
跌足	-5294
路逢	-5295
轻动	-5296
轻敌	-5297
辅之	-5298
辛评	-5299
辞曰	-5300
过江	-5301
远去	-5302
违令	-5303
迷当	-5304
追到	-5305
退时	-5306
送出	-5307
送行	-5308
送还	-5309
遂入	-5310
遂留	-5311
遂遣	-5312
遍观	-5313
遥见	-5314
邓飏	-5315
那将	-5316
邹靖	-5317
鄂焕	-5318
配曰	-5319
酒色	-5320
里应	-5321
重待	-5322
金甲	-5323
銮驾	-5324
铜人	-5325
门首	-5326
除害	-5327
隐居	-5328
霎时	-5329
非为	-5330
面君	-5331
面长	-5332
韩猛	-5333
项城	-5334
顿足	-5335
领计	-5336
饱食	-5337
骁将	-5338
骇然	-5339
高山	-5340
鬼神	-5341
麴山	-5342
麾军	-5343
龙凤	-5344
龙骧	-5345
▁云长	-5346
▁当日	-5347
▁忽报	-5348
▁此时	-5349
一骑马	-5350
万夫不	-5351
三十合	-5352
三百军	-5353
下战书	-5354
不能言	-5355
与姜维	-5356
与诸将	-5357
中常侍	-5358
为太子	-5359
为左右	-5360
为汉臣	-5361
为都督	-5362
主公若	-5363
之兆也	-5364
之罪也	-5365
于地下	-5366
五千人	-5367
以利害	-5368
以目视	-5369
何不早	-5370
使命至	-5371
侍立于	-5372
入洛阳	-5373
兵法云	-5374
分宾主	-5375
到长安	-5376
北将军	-5377
卧龙冈	-5378
司马氏	-5379
吾正欲	-5380
吾素知	-5381
周都督	-5382
四十万	-5383
土人曰	-5384
在徐州	-5385
夏侯德	-5386
天下者	-5387
天色已	-5388
如之何	-5389
姜伯约	-5390
威将军	-5391
子服曰	-5392
孔明唤	-5393
孙权曰	-5394
孟获等	-5395
将关公	-5396
将计就	-5397
小将军	-5398
尚书令	-5399
就马上	-5400
岂可复	-5401
引一枝	-5402
引二千	-5403
引五百	-5404
引兵至	-5405
引数千	-5406
引败军	-5407
当之勇	-5408
当用何	-5409
怀二心	-5410
急回马	-5411
我哥哥	-5412
投曹操	-5413
拆视之	-5414
操闻之	-5415
无一人	-5416
无忧矣	-5417
早望见	-5418
是何人	-5419
是曹操	-5420
曹操所	-5421
曹操曰	-5422
权从之	-5423
来接应	-5424
正迎着	-5425
武乡侯	-5426
毫无犯	-5427
渡泸水	-5428
牛头山	-5429
百余合	-5430
直杀到	-5431
立于船	-5432
糜竺曰	-5433
维笑曰	-5434
而哭曰	-5435
见主公	-5436
见云长	-5437
认得是	-5438
请主公	-5439
诸葛均	-5440
进言曰	-5441
遂下令	-5442
遂引兵	-5443
遂引军	-5444
遂遣使	-5445
那里去	-5446
部将曰	-5447
闻将军	-5448
闻曹操	-5449
闻玄德	-5450
随后便	-5451
领一军	-5452
领徐州	-5453
驾小舟	-5454
魏延曰	-5455
魏阵中	-5456
....	-5457
▁第八十	-5458
▁第四十	-5459
一彪人马	-5460
万死不辞	-5461
三十余人	-5462
三十余合	-5463
三路军马	-5464
不知何处	-5465
不能前进	-5466
不见一人	-5467
与夏侯霸	-5468
东吴孙权	-5469
两军混战	-5470
为之奈何	-5471
为首一将	-5472
二人受计	-5473
二十余人	-5474
五十余里	-5475
今日之事	-5476
以逸待劳	-5477
仰天叹曰	-5478
伏刀斧手	-5479
修书一封	-5480
兄弟三人	-5481
八十一州	-5482
冒烟突火	-5483
出榜安民	-5484
出班奏曰	-5485
分拨已定	-5486
列成阵势	-5487
别来无恙	-5488
前面一军	-5489
卧龙先生	-5490
只见一人	-5491
喊声起处	-5492
回头视之	-5493
天下英雄	-5494
安敢如此	-5495
布成阵势	-5496
带来洞主	-5497
应天顺人	-5498
引兵五万	-5499
引十数骑	-5500
征西将军	-5501
得胜之兵	-5502
心中疑惑	-5503
忠义之士	-5504
慌忙下马	-5505
拔剑在手	-5506
拜伏于地	-5507
操大怒曰	-5508
有万夫不	-5509
木鹿大王	-5510
本部人马	-5511
杀了一阵	-5512
来见孔明	-5513
来见曹操	-5514
来见玄德	-5515
正商议间	-5516
正走之间	-5517
此人是谁	-5518
此计大妙	-5519
汉寿亭侯	-5520
灭其三族	-5521
甘夫人曰	-5522
祝融夫人	-5523
秋毫无犯	-5524
纶巾羽扇	-5525
细作探知	-5526
细言其事	-5527
老将黄忠	-5528
肝脑涂地	-5529
自引一军	-5530
蛮王孟获	-5531
蜀兵大败	-5532
行不数里	-5533
诸葛孔明	-5534
足智多谋	-5535
退兵之策	-5536
里应外合	-5537
问其姓名	-5538
领三千兵	-5539
魏主曹芳	-5540
黄昏时分	-5541
▁却说关公	-5542
一彪军杀到	-5543
三十里下寨	-5544
拜伏于地曰	-5545
常山赵子龙也	-5546
死于乱军之中	-5547
有万夫不当之勇	-5548
8)	-5549
’,	-5550
▁曹	-5551
一事	-5552
一切	-5553
一匹	-5554
一大	-5555
一篇	-5556
一首	-5557
七回	-5558
七年	-5559
丈余	-5560
三世	-5561
三国	-5562
三次	-5563
三者	-5564
三通	-5565
上有	-5566
下拜	-5567
下流	-5568
不入	-5569
不好	-5570
不宁	-5571
不当	-5572
不忠	-5573
不息	-5574
不放	-5575
不整	-5576
不说	-5577
不负	-5578
不还	-5579
不进	-5580
不闻	-5581
不难	-5582
不食	-5583
与弟	-5584
且回	-5585
两处	-5586
两日	-5587
中了	-5588
中伤	-5589
为文	-5590
为质	-5591
为食	-5592
乃先	-5593
乃出	-5594
乃遣	-5595
义释	-5596
之业	-5597
之侧	-5598
之妹	-5599
之常	-5600
之疾	-5601
之舌	-5602
之说	-5603
乌程	-5604
乏粮	-5605
乘夜	-5606
九尺	-5607
乡人	-5608
书名	-5609
书至	-5610
乱窜	-5611
乾象	-5612
事势	-5613
事故	-5614
事耳	-5615
二主	-5616
二位	-5617
二军	-5618
二郡	-5619
于其	-5620
于朝	-5621
五队	-5622
亦在	-5623
京兆	-5624
亮曰	-5625
亲到	-5626
亲随	-5627
人到	-5628
人头	-5629
今年	-5630
今得	-5631
今观	-5632
他意	-5633
付与	-5634
令先	-5635
以一	-5636
以助	-5637
以成	-5638
以礼	-5639
以臣	-5640
任他	-5641
伏波	-5642
伏龙	-5643
会意	-5644
会集	-5645
传报	-5646
但看	-5647
何仪	-5648
何地	-5649
何太	-5650
何愁	-5651
作贺	-5652
依允	-5653
依法	-5654
侵我	-5655
便就	-5656
便差	-5657
便要	-5658
保着	-5659
信义	-5660
倒戈	-5661
傍边	-5662
催船	-5663
元龙	-5664
先出	-5665
先进	-5666
入去	-5667
入蜀	-5668
八面	-5669
公以	-5670
公有	-5671
六月	-5672
兵家	-5673
兵强	-5674
兵微	-5675
其书	-5676
其志	-5677
其祸	-5678
其身	-5679
内侍	-5680
再回	-5681
军务	-5682
军官	-5683
冲阵	-5684
冷笑	-5685
准信	-5686
凡事	-5687
凤凰	-5688
出内	-5689
出军	-5690
出府	-5691
出此	-5692
刀箭	-5693
创业	-5694
到日	-5695
力战	-5696
功劳	-5697
势如	-5698
北征	-5699
升赏	-5700
卑衍	-5701
卓命	-5702
卓问	-5703
单骑	-5704
占了	-5705
卧于	-5706
即位	-5707
即引	-5708
即死	-5709
却不	-5710
厅上	-5711
去守	-5712
去袭	-5713
县中	-5714
又出	-5715
又至	-5716
反情	-5717
发丧	-5718
发付	-5719
发落	-5720
叔叔	-5721
取得	-5722
取齐	-5723
受刑	-5724
变矣	-5725
古城	-5726
叩头	-5727
召回	-5728
可乎	-5729
可去	-5730
可就	-5731
可往	-5732
可胜	-5733
可解	-5734
右手	-5735
号火	-5736
号炮	-5737
司隶	-5738
各为	-5739
各官	-5740
各门	-5741
吉兆	-5742
吊君	-5743
后嗣	-5744
后悔	-5745
后槽	-5746
吴使	-5747
吹折	-5748
吾何	-5749
吾宁	-5750
吾寨	-5751
吾岂	-5752
吾得	-5753
吾恨	-5754
吾愿	-5755
吾者	-5756
吾虽	-5757
告说	-5758
呜呼	-5759
周公	-5760
哀痛	-5761
唾手	-5762
喝退	-5763
四个	-5764
四州	-5765
四百	-5766
回吴	-5767
回避	-5768
围绕	-5769
国富	-5770
国谯	-5771
圆处	-5772
圆睁	-5773
土地	-5774
土木	-5775
在内	-5776
在蜀	-5777
坠地	-5778
堂下	-5779
堂堂	-5780
堆积	-5781
备说	-5782
备马	-5783
夜间	-5784
大举	-5785
大位	-5786
大喊	-5787
大志	-5788
大悦	-5789
大获	-5790
天之	-5791
天威	-5792
天道	-5793
太仆	-5794
太过	-5795
失事	-5796
失措	-5797
失散	-5798
夺之	-5799
奋死	-5800
奏准	-5801
奸党	-5802
奸细	-5803
奸贼	-5804
奸邪	-5805
好生	-5806
如雷	-5807
妄杀	-5808
妫览	-5809
姓刘	-5810
姓张	-5811
娘娘	-5812
字旗	-5813
存亡	-5814
安知	-5815
定计	-5816
宫人	-5817
宫殿	-5818
家僮	-5819
容易	-5820
密布	-5821
对手	-5822
对面	-5823
射住	-5824
将兵	-5825
将息	-5826
将次	-5827
小人	-5828
小辈	-5829
少帝	-5830
尘土	-5831
尹奉	-5832
尺寸	-5833
尽出	-5834
尽退	-5835
屏后	-5836
屏风	-5837
屡败	-5838
山口	-5839
山林	-5840
岂知	-5841
岘山	-5842
左侧	-5843
已破	-5844
巴郡	-5845
布军	-5846
带伤	-5847
带甲	-5848
带马	-5849
席间	-5850
平蛮	-5851
并吞	-5852
府前	-5853
庸才	-5854
建功	-5855
建宁	-5856
开了	-5857
弃寨	-5858
弄权	-5859
张勋	-5860
张布	-5861
张燕	-5862
张缉	-5863
张著	-5864
归命	-5865
当与	-5866
当道	-5867
彧曰	-5868
往复	-5869
往救	-5870
征西	-5871
征讨	-5872
得出	-5873
得我	-5874
必中	-5875
必遭	-5876
怎生	-5877
急取	-5878
急命	-5879
急走	-5880
总领	-5881
恐其	-5882
恕之	-5883
恩德	-5884
惊倒	-5885
惊动	-5886
惊骇	-5887
慌乱	-5888
戏耳	-5889
成事	-5890
成济	-5891
我亦	-5892
我已	-5893
战死	-5894
战者	-5895
所领	-5896
手曰	-5897
打发	-5898
打着	-5899
扫清	-5900
承彦	-5901
把守	-5902
报丧	-5903
招贤	-5904
拦截	-5905
持枪	-5906
据住	-5907
搜出	-5908
摆列	-5909
操之	-5910
操命	-5911
擒矣	-5912
擒获	-5913
攸曰	-5914
改容	-5915
故以	-5916
故尔	-5917
敌也	-5918
救主	-5919
救驾	-5920
教之	-5921
教休	-5922
敢来	-5923
敬之	-5924
数次	-5925
斩关	-5926
无学	-5927
无异	-5928
无故	-5929
无虞	-5930
既得	-5931
早图	-5932
早已	-5933
昭烈	-5934
是其	-5935
晃曰	-5936
曹家	-5937
曹嵩	-5938
曹性	-5939
曹掾	-5940
曹瞒	-5941
曹遵	-5942
有事	-5943
有异	-5944
有胆	-5945
望南	-5946
本州	-5947
本洞	-5948
杀回	-5949
杀开	-5950
来献	-5951
林中	-5952
果是	-5953
枭雄	-5954
某亦	-5955
桓帝	-5956
槛车	-5957
樊建	-5958
欲谋	-5959
歃血	-5960
歇马	-5961
正待	-5962
此二	-5963
此意	-5964
步骘	-5965
武陵	-5966
死后	-5967
殿上	-5968
水深	-5969
水面	-5970
永昌	-5971
汉上	-5972
汗流	-5973
汝家	-5974
江上	-5975
江岸	-5976
江左	-5977
江水	-5978
江汉	-5979
沐浴	-5980
浑身	-5981
深感	-5982
深明	-5983
深知	-5984
深通	-5985
添兵	-5986
滕胤	-5987
滚下	-5988
滚鞍	-5989
火炮	-5990
灵曰	-5991
烧毁	-5992
烽火	-5993
燕人	-5994
父老	-5995
猛然	-5996
王位	-5997
王刘	-5998
王含	-5999
王植	-6000
王楷	-6001
班部	-6002
理事	-6003
甘泉	-6004
田氏	-6005
画成	-6006
留兵	-6007
留在	-6008
疑之	-6009
疑是	-6010
登舟	-6011
白袍	-6012
皂衣	-6013
皆为	-6014
皆感	-6015
皆至	-6016
盛贮	-6017
目前	-6018
直奔	-6019
相从	-6020
相害	-6021
相欺	-6022
相聚	-6023
相连	-6024
看他	-6025
瞒过	-6026
知己	-6027
矫诏	-6028
短刀	-6029
石头	-6030
破贼	-6031
神人	-6032
神仙	-6033
禅位	-6034
福曰	-6035
离了	-6036
离此	-6037
离间	-6038
秋雨	-6039
秦琪	-6040
称臣	-6041
移于	-6042
突入	-6043
章武	-6044
竺曰	-6045
等辈	-6046
策乃	-6047
管待	-6048
箭头	-6049
籍曰	-6050
精锐	-6051
约行	-6052
约退	-6053
纵使	-6054
绑缚	-6055
结亲	-6056
绝其	-6057
绣旗	-6058
罪恶	-6059
美女	-6060
美髯	-6061
老叟	-6062
而倒	-6063
而往	-6064
而笑	-6065
而见	-6066
而迎	-6067
耒阳	-6068
背主	-6069
自外	-6070
自家	-6071
自当	-6072
自提	-6073
至孝	-6074
舌辩	-6075
船到	-6076
芳曰	-6077
苍天	-6078
若杀	-6079
若见	-6080
苦告	-6081
茂盛	-6082
落地	-6083
董亭	-6084
董贼	-6085
蒋斌	-6086
蛇矛	-6087
蜀营	-6088
蜀郡	-6089
表文	-6090
被杀	-6091
裴秀	-6092
要行	-6093
见布	-6094
解和	-6095
计也	-6096
议论	-6097
讲和	-6098
许汜	-6099
话下	-6100
误中	-6101
诱之	-6102
请曰	-6103
诸处	-6104
调度	-6105
调练	-6106
谈笑	-6107
谢罪	-6108
负朕	-6109
责之	-6110
贼势	-6111
贾华	-6112
赤帻	-6113
越曰	-6114
趱程	-6115
路上	-6116
路昭	-6117
踪迹	-6118
蹇硕	-6119
车马	-6120
轻出	-6121
辞出	-6122
辞回	-6123
辞归	-6124
辰时	-6125
还都	-6126
这厮	-6127
远出	-6128
连天	-6129
迸裂	-6130
退回	-6131
送了	-6132
送到	-6133
适间	-6134
逃回	-6135
遂立	-6136
道理	-6137
遣之	-6138
遥指	-6139
邹氏	-6140
郡守	-6141
部卒	-6142
部曲	-6143
部领	-6144
都被	-6145
酒行	-6146
金宝	-6147
金环	-6148
铁甲	-6149
铠甲	-6150
银坑	-6151
长城	-6152
问了	-6153
阎圃	-6154
阳安	-6155
陈琳	-6156
险阻	-6157
难容	-6158
雄才	-6159
雷薄	-6160
青囊	-6161
青釭	-6162
面门	-6163
韦康	-6164
韩忠	-6165
音信	-6166
顷刻	-6167
顺流	-6168
驰檄	-6169
骁勇	-6170
高士	-6171
魂不	-6172
麦熟	-6173
黄钺	-6174
龙体	-6175
▁姜维	-6176
▁孙权	-6177
。——	-6178
一字儿	-6179
一少年	-6180
一枝兵	-6181
万无一	-6182
丈夫也	-6183
三十年	-6184
不从者	-6185
不可以	-6186
不敢正	-6187
不远矣	-6188
丞相若	-6189
中山靖	-6190
为上宾	-6191
为前队	-6192
为合后	-6193
为后应	-6194
举一人	-6195
乃关兴	-6196
之事乎	-6197
之人乎	-6198
之力也	-6199
之法也	-6200
之计矣	-6201
了一阵	-6202
二人各	-6203
二将曰	-6204
于地上	-6205
于堂上	-6206
五十万	-6207
人之境	-6208
今孔明	-6209
今曹兵	-6210
今蜀兵	-6211
令魏延	-6212
伏皇后	-6213
伐中原	-6214
众军皆	-6215
何惧哉	-6216
使人去	-6217
使人往	-6218
入中军	-6219
入见曰	-6220
其略曰	-6221
再拜曰	-6222
冒矢石	-6223
决死战	-6224
出城来	-6225
前下马	-6226
前将军	-6227
十二回	-6228
十五回	-6229
华容道	-6230
厚葬之	-6231
原来是	-6232
去东吴	-6233
又令人	-6234
又有诗	-6235
可令人	-6236
可破也	-6237
吊桥边	-6238
吕布曰	-6239
吴国太	-6240
吾兄弟	-6241
呈上书	-6242
四下里	-6243
回洛阳	-6244
圣人云	-6245
在江夏	-6246
声大震	-6247
夏侯玄	-6248
大都督	-6249
天下人	-6250
天荡山	-6251
太后曰	-6252
太常卿	-6253
奏天子	-6254
如何得	-6255
如何瞒	-6256
如入无	-6257
如此之	-6258
姜维在	-6259
孔分墨	-6260
张辽曰	-6261
归馆舍	-6262
往投之	-6263
往江夏	-6264
徐元直	-6265
心久矣	-6266
恐不能	-6267
惊问曰	-6268
愿先生	-6269
愿将军	-6270
操从之	-6271
操怒曰	-6272
操自领	-6273
擒孟获	-6274
故有此	-6275
数十里	-6276
斗阵法	-6277
暗使人	-6278
曹仁曰	-6279
曹操在	-6280
有人报	-6281
望将军	-6282
望汉中	-6283
来劫寨	-6284
欲兴兵	-6285
正奔走	-6286
正说间	-6287
此机会	-6288
死而已	-6289
汜水关	-6290
汝等皆	-6291
江而死	-6292
然其说	-6293
玄德亦	-6294
玄德引	-6295
玄德闻	-6296
生不能	-6297
用之物	-6298
皆不能	-6299
益州牧	-6300
知其意	-6301
秋七月	-6302
立功名	-6303
维大惊	-6304
耒阳县	-6305
自以为	-6306
至城下	-6307
至帐下	-6308
至江边	-6309
致书于	-6310
苞二人	-6311
英雄也	-6312
董承等	-6313
藤甲军	-6314
被云长	-6315
见周瑜	-6316
见魏延	-6317
许褚曰	-6318
误大事	-6319
请二嫂	-6320
请将军	-6321
读兵书	-6322
貂蝉曰	-6323
起大兵	-6324
还洛阳	-6325
遣人往	-6326
遣人送	-6327
遣大将	-6328
那条路	-6329
释其缚	-6330
非等闲	-6331
骑都尉	-6332
▁关云长	-6333
一彪军出	-6334
一枪刺死	-6335
万无一失	-6336
不在话下	-6337
不得已而	-6338
不敢追赶	-6339
东南角上	-6340
东南风起	-6341
为偏将军	-6342
为首蜀将	-6343
乃孔明也	-6344
之言甚善	-6345
乘势击之	-6346
二十余合	-6347
于是孔明	-6348
侍立于侧	-6349
内外夹攻	-6350
再作良图	-6351
出城迎接	-6352
势不可当	-6353
却说玄德	-6354
又唤关兴	-6355
召入问之	-6356
叱退左右	-6357
司隶校尉	-6358
司马懿也	-6359
各引一万	-6360
吴主孙休	-6361
吴太夫人	-6362
吾意已决	-6363
吾料孔明	-6364
哨马报说	-6365
善能用兵	-6366
喊声又起	-6367
回到寨中	-6368
围在垓心	-6369
国家大事	-6370
土人问之	-6371
大赏三军	-6372
奏后主曰	-6373
将军何不	-6374
尸横遍野	-6375
引三千兵	-6376
引兵十万	-6377
引兵去了	-6378
引兵杀到	-6379
引兵追赶	-6380
引军赶来	-6381
引数百骑	-6382
引火之物	-6383
张飞大怒	-6384
当夜二更	-6385
当阳长坂	-6386
御驾亲征	-6387
心中暗喜	-6388
忽流星马	-6389
忽然背后	-6390
恐有埋伏	-6391
恢复中原	-6392
战不十合	-6393
折兵大半	-6394
披发仗剑	-6395
挺身出曰	-6396
搬运粮草	-6397
操大喜曰	-6398
文官武将	-6399
料敌不过	-6400
断其归路	-6401
无心恋战	-6402
有何不可	-6403
未知其计	-6404
朵思大王	-6405
杀入重围	-6406
杀出重围	-6407
权从其言	-6408
某虽不才	-6409
桃花渡口	-6410
死战得脱	-6411
永结盟好	-6412
滚鞍下马	-6413
然后进兵	-6414
玄德与关	-6415
王子服等	-6416
皆是魏兵	-6417
真神人也	-6418
祁山大寨	-6419
立于阵前	-6420
精兵五千	-6421
纵马向前	-6422
绰枪上马	-6423
置酒相待	-6424
聚众商议	-6425
自领大军	-6426
若司马懿	-6427
观其动静	-6428
谓众官曰	-6429
谓众将曰	-6430
赤壁鏖兵	-6431
连人带马	-6432
酒行数巡	-6433
铁桶相似	-6434
陈珪父子	-6435
领命而去	-6436
飞身上马	-6437
驱兵大进	-6438
驱兵掩杀	-6439
黄门侍郎	-6440
默然无语	-6441
▁却说袁绍	-6442
为车骑将军	-6443
为首大将乃	-6444
乃关云长也	-6445
仰天长叹曰	-6446
却说司马懿	-6447
玄德与孔明	-6448
玄德大惊曰	-6449
用好言抚慰	-6450
立马于桥上	-6451
一刀斩于马下	-6452
为首一员大将	-6453
似此如之奈何	-6454
如入无人之境	-6455
左右推出斩之	-6456
忽然一声炮响	-6457
!“	-6458
:”	-6459
?“	-6460
▁卓	-6461
▁肃	-6462
▁话	-6463
一叶	-6464
一子	-6465
一干	-6466
一是	-6467
一望	-6468
一统	-6469
一臂	-6470
丁仪	-6471
七万	-6472
七人	-6473
万安	-6474
三五	-6475
上帐	-6476
下水	-6477
下营	-6478
不亦	-6479
不作	-6480
不允	-6481
不加	-6482
不劳	-6483
不多	-6484
不待	-6485
不敌	-6486
不敷	-6487
不料	-6488
不烂	-6489
不自	-6490
不薄	-6491
不遇	-6492
不遵	-6493
不顺	-6494
与人	-6495
与兄	-6496
且玻	-6497
东兴	-6498
东方	-6499
东莱	-6500
东都	-6501
两员	-6502
两次	-6503
两队	-6504
严整	-6505
为妻	-6506
为平	-6507
为期	-6508
为正	-6509
为此	-6510
为祸	-6511
为贼	-6512
主何	-6513
举杯	-6514
乃义	-6515
乃汉	-6516
乃自	-6517
乃魏	-6518
久住	-6519
久必	-6520
之亲	-6521
之好	-6522
之威	-6523
之家	-6524
之忧	-6525
之次	-6526
之火	-6527
之甚	-6528
之病	-6529
之胄	-6530
之至	-6531
之路	-6532
乐毅	-6533
乘之	-6534
乘机	-6535
乘舟	-6536
乘风	-6537
九江	-6538
乡中	-6539
乡里	-6540
书呈	-6541
乱国	-6542
二乔	-6543
于上	-6544
于军	-6545
于壁	-6546
于太	-6547
于西	-6548
于诠	-6549
五色	-6550
亲笔	-6551
亲至	-6552
人情	-6553
人若	-6554
仁曰	-6555
今上	-6556
今与	-6557
今为	-6558
今吾	-6559
今宜	-6560
今将	-6561
今知	-6562
仍令	-6563
从其	-6564
从头	-6565
从骑	-6566
他事	-6567
他却	-6568
他去	-6569
他处	-6570
令兄	-6571
令军	-6572
令某	-6573
令汝	-6574
以候	-6575
以吾	-6576
以目	-6577
以谢	-6578
以避	-6579
以酒	-6580
仪亭	-6581
仪表	-6582
伏几	-6583
传下	-6584
传檄	-6585
但闻	-6586
住扎	-6587
何平	-6588
何异	-6589
何忧	-6590
何由	-6591
何职	-6592
何言	-6593
作乱	-6594
作速	-6595
佯作	-6596
使曰	-6597
侍奉	-6598
便砍	-6599
倒退	-6600
倘若	-6601
借我	-6602
借粮	-6603
倾国	-6604
偷过	-6605
傕曰	-6606
元绍	-6607
先差	-6608
先教	-6609
先断	-6610
先来	-6611
入席	-6612
入骨	-6613
全端	-6614
全装	-6615
八百	-6616
八门	-6617
公事	-6618
公今	-6619
六岁	-6620
关西	-6621
兵将	-6622
兵革	-6623
其兄	-6624
其勇	-6625
其大	-6626
其宜	-6627
其实	-6628
其所	-6629
再有	-6630
再议	-6631
军在	-6632
军情	-6633
冯礼	-6634
冲开	-6635
决策	-6636
决计	-6637
况今	-6638
冷箭	-6639
凉州	-6640
凌操	-6641
几乎	-6642
几番	-6643
出殿	-6644
出首	-6645
刀割	-6646
分明	-6647
则是	-6648
初到	-6649
利于	-6650
利在	-6651
别了	-6652
别人	-6653
到庄	-6654
制造	-6655
刺中	-6656
刺之	-6657
刺杀	-6658
剿灭	-6659
勇将	-6660
匆匆	-6661
北地	-6662
北有	-6663
十矢	-6664
千金	-6665
南人	-6666
即同	-6667
即欲	-6668
即请	-6669
去其	-6670
参见	-6671
又复	-6672
又引	-6673
又得	-6674
又败	-6675
及至	-6676
反掌	-6677
发掘	-6678
取柑	-6679
取箭	-6680
受敌	-6681
受此	-6682
变化	-6683
口内	-6684
古今	-6685
句安	-6686
只令	-6687
只管	-6688
只闻	-6689
可保	-6690
可再	-6691
可取	-6692
可尽	-6693
可敌	-6694
可暂	-6695
可比	-6696
可知	-6697
可走	-6698
各依	-6699
各军	-6700
各分	-6701
各回	-6702
各宜	-6703
各洞	-6704
同守	-6705
后因	-6706
后路	-6707
后随	-6708
吕常	-6709
君言	-6710
听吾	-6711
吾在	-6712
吾必	-6713
吾父	-6714
吾素	-6715
周听	-6716
哂笑	-6717
哭告	-6718
唐咨	-6719
善保	-6720
四万	-6721
四世	-6722
四冢	-6723
四回	-6724
四寸	-6725
回朝	-6726
回覆	-6727
回言	-6728
围了	-6729
国人	-6730
国恩	-6731
国有	-6732
在小	-6733
在朝	-6734
地势	-6735
地曰	-6736
均曰	-6737
坚壁	-6738
坚辞	-6739
坞中	-6740
坟墓	-6741
坠马	-6742
堕泪	-6743
复出	-6744
复夺	-6745
复生	-6746
多病	-6747
大人	-6748
大敌	-6749
大目	-6750
大破	-6751
大礼	-6752
大祸	-6753
大设	-6754
大风	-6755
天书	-6756
奇之	-6757
奏请	-6758
好歹	-6759
好酒	-6760
如无	-6761
如神	-6762
妾身	-6763
姓吕	-6764
姓李	-6765
子云	-6766
字季	-6767
存恤	-6768
孙氏	-6769
孙观	-6770
孙静	-6771
孝廉	-6772
孤亦	-6773
孤身	-6774
安乐	-6775
安出	-6776
安居	-6777
安置	-6778
定陶	-6779
宜早	-6780
宝贝	-6781
宣谕	-6782
家奴	-6783
宽仁	-6784
宾客	-6785
密告	-6786
密唤	-6787
寝食	-6788
寨边	-6789
对众	-6790
对山	-6791
封曰	-6792
封谞	-6793
将吏	-6794
小军	-6795
小弟	-6796
尚与	-6797
尽烧	-6798
尽驱	-6799
山城	-6800
山边	-6801
山野	-6802
岸口	-6803
崔禹	-6804
巡警	-6805
工部	-6806
左臂	-6807
巨雷	-6808
巩志	-6809
已出	-6810
已在	-6811
巾帼	-6812
布合	-6813
帝前	-6814
帝号	-6815
帝室	-6816
带箭	-6817
席上	-6818
幕宾	-6819
幕府	-6820
年之	-6821
年纪	-6822
并将	-6823
幼子	-6824
庙堂	-6825
府库	-6826
废主	-6827
废长	-6828
度之	-6829
庶人	-6830
庶民	-6831
廷尉	-6832
开读	-6833
异日	-6834
弃于	-6835
弃官	-6836
弃此	-6837
引见	-6838
张弓	-6839
张武	-6840
张达	-6841
弩箭	-6842
归到	-6843
归去	-6844
当初	-6845
当面	-6846
形貌	-6847
得见	-6848
得过	-6849
御营	-6850
微明	-6851
德者	-6852
徽曰	-6853
心实	-6854
心神	-6855
必从	-6856
必以	-6857
必取	-6858
怀恨	-6859
怀疑	-6860
怕死	-6861
怜之	-6862
思曰	-6863
急忙	-6864
急战	-6865
怨言	-6866
总摄	-6867
恐非	-6868
恢曰	-6869
息怒	-6870
惧哉	-6871
惧怕	-6872
惧怯	-6873
惶惶	-6874
感叹	-6875
愿也	-6876
愿以	-6877
慷慨	-6878
懈怠	-6879
成了	-6880
成疾	-6881
我不	-6882
我主	-6883
我看	-6884
我耶	-6885
战栗	-6886
战袍	-6887
截其	-6888
所作	-6889
所归	-6890
所骑	-6891
手书	-6892
手摇	-6893
打探	-6894
打死	-6895
托疾	-6896
扯碎	-6897
扶病	-6898
折其	-6899
报道	-6900
押过	-6901
担土	-6902
拆断	-6903
招募	-6904
招谕	-6905
持戟	-6906
指望	-6907
挟住	-6908
挡住	-6909
挫动	-6910
挺戟	-6911
捐生	-6912
损兵	-6913
授与	-6914
接见	-6915
掳掠	-6916
揪住	-6917
搭起	-6918
摇旗	-6919
摩柯	-6920
操又	-6921
操指	-6922
操有	-6923
擒来	-6924
收住	-6925
收艾	-6926
改为	-6927
放去	-6928
放归	-6929
故事	-6930
效力	-6931
效死	-6932
敌住	-6933
救我	-6934
救醒	-6935
教且	-6936
敢有	-6937
敬礼	-6938
整兵	-6939
整衣	-6940
文章	-6941
断吾	-6942
新君	-6943
方丈	-6944
方信	-6945
方定	-6946
族弟	-6947
无仇	-6948
无君	-6949
无患	-6950
无才	-6951
无疑	-6952
日后	-6953
早出	-6954
易州	-6955
春香	-6956
暗伏	-6957
暗弱	-6958
更换	-6959
曹奂	-6960
曹彰	-6961
曾见	-6962
曾闻	-6963
最善	-6964
月色	-6965
有兵	-6966
有勇	-6967
有旧	-6968
有甚	-6969
服其	-6970
朕欲	-6971
朕自	-6972
木匣	-6973
木门	-6974
未息	-6975
未痊	-6976
未肯	-6977
未醒	-6978
本处	-6979
朱光	-6980
朱桓	-6981
朱褒	-6982
朱赞	-6983
杀尽	-6984
杀此	-6985
杀牛	-6986
权问	-6987
李意	-6988
李福	-6989
李辅	-6990
村夫	-6991
杜袭	-6992
来也	-6993
来了	-6994
来助	-6995
来袭	-6996
某与	-6997
桓范	-6998
桥蕤	-6999
梦中	-7000
棺椁	-7001
模样	-7002
横截	-7003
横矛	-7004
欣喜	-7005
欲为	-7006
欲回	-7007
欲报	-7008
欲求	-7009
歇定	-7010
正东	-7011
此水	-7012
武扬	-7013
武王	-7014
残害	-7015
残暴	-7016
殿中	-7017
母子	-7018
比试	-7019
毛后	-7020
民间	-7021
求和	-7022
汉将	-7023
汉川	-7024
汉津	-7025
汉祚	-7026
汝兄	-7027
汲水	-7028
沛城	-7029
河边	-7030
油柜	-7031
治中	-7032
治国	-7033
泰曰	-7034
活命	-7035
济北	-7036
涂炭	-7037
深恨	-7038
渤海	-7039
溪边	-7040
满地	-7041
潸然	-7042
灭族	-7043
灭魏	-7044
灵前	-7045
照耀	-7046
爵禄	-7047
父仇	-7048
片甲	-7049
片言	-7050
特遣	-7051
犹然	-7052
猎于	-7053
王威	-7054
王累	-7055
王霸	-7056
现居	-7057
理合	-7058
琮曰	-7059
甘当	-7060
甚妙	-7061
甚密	-7062
生疑	-7063
用为	-7064
用心	-7065
田楷	-7066
甲子	-7067
疼痛	-7068
登岸	-7069
白旄	-7070
皆不	-7071
皆到	-7072
皆同	-7073
皆呼	-7074
皆散	-7075
皆随	-7076
皓曰	-7077
目下	-7078
相并	-7079
相父	-7080
相让	-7081
相请	-7082
看吾	-7083
瞑目	-7084
石阵	-7085
破我	-7086
硬弩	-7087
碌碌	-7088
祈祷	-7089
祖茂	-7090
神兵	-7091
神威	-7092
神机	-7093
神武	-7094
祭文	-7095
禁兵	-7096
离寨	-7097
禽兽	-7098
秘书	-7099
称奇	-7100
空中	-7101
空城	-7102
空寨	-7103
立业	-7104
立了	-7105
立幼	-7106
立杀	-7107
竖子	-7108
竖起	-7109
端的	-7110
答之	-7111
筵席	-7112
算也	-7113
篡位	-7114
素与	-7115
红光	-7116
织席	-7117
经过	-7118
绕城	-7119
继母	-7120
罔上	-7121
美人	-7122
者皆	-7123
而事	-7124
而作	-7125
而反	-7126
而奔	-7127
而拜	-7128
而散	-7129
聚于	-7130
肉计	-7131
肯降	-7132
肺腑	-7133
胆裂	-7134
背之	-7135
胡烈	-7136
胸中	-7137
脑袋	-7138
臣已	-7139
臣料	-7140
自立	-7141
至近	-7142
致使	-7143
致意	-7144
舟中	-7145
船已	-7146
芒砀	-7147
苗泽	-7148
苞曰	-7149
若彼	-7150
若是	-7151
若此	-7152
若要	-7153
苦劝	-7154
范疆	-7155
荀顗	-7156
草芥	-7157
荒淫	-7158
荡荡	-7159
莫测	-7160
莫若	-7161
营前	-7162
落水	-7163
董后	-7164
蒙头	-7165
蒯良	-7166
蔡琰	-7167
蔽日	-7168
藏于	-7169
虎视	-7170
虎须	-7171
虽众	-7172
虽死	-7173
蛟龙	-7174
蛮人	-7175
蜀有	-7176
蜀道	-7177
袁隗	-7178
袍袖	-7179
被云	-7180
被吾	-7181
被我	-7182
裁处	-7183
见他	-7184
见山	-7185
见疑	-7186
见罪	-7187
观书	-7188
解去	-7189
言也	-7190
誓不	-7191
计将	-7192
计较	-7193
议郎	-7194
许以	-7195
识吾	-7196
诚心	-7197
详之	-7198
误事	-7199
请自	-7200
诸官	-7201
诸营	-7202
调治	-7203
谋之	-7204
谐矣	-7205
谢之	-7206
谢旌	-7207
谥父	-7208
豺狼	-7209
败绩	-7210
贼臣	-7211
赍捧	-7212
赐酒	-7213
赦之	-7214
赴席	-7215
赴敌	-7216
起曰	-7217
起来	-7218
越岭	-7219
足以	-7220
跪于	-7221
车骑	-7222
迎入	-7223
还有	-7224
还营	-7225
这条	-7226
这等	-7227
进攻	-7228
远志	-7229
远接	-7230
连珠	-7231
连绵	-7232
迟则	-7233
迟延	-7234
退了	-7235
送之	-7236
送去	-7237
逃走	-7238
遁甲	-7239
遂召	-7240
遂弃	-7241
遂得	-7242
遂斩	-7243
遂问	-7244
道号	-7245
道袍	-7246
遮拦	-7247
郃又	-7248
郗虑	-7249
郿城	-7250
鄄城	-7251
酒酣	-7252
重权	-7253
重枣	-7254
量一	-7255
金冠	-7256
金雁	-7257
长者	-7258
长蛇	-7259
门前	-7260
问于	-7261
闻操	-7262
阳平	-7263
阴风	-7264
阿瞒	-7265
附体	-7266
陈兰	-7267
陈骞	-7268
降之	-7269
降吴	-7270
降旨	-7271
降蜀	-7272
除非	-7273
隆冬	-7274
随身	-7275
隐讳	-7276
雪恨	-7277
青史	-7278
青旗	-7279
非我	-7280
项羽	-7281
顺风	-7282
须发	-7283
须要	-7284
领众	-7285
领此	-7286
颜色	-7287
风雪	-7288
风雷	-7289
飞出	-7290
饮至	-7291
饶你	-7292
饶汝	-7293
马嘶	-7294
马蹄	-7295
驱驰	-7296
驻扎	-7297
骏马	-7298
骑坐	-7299
高冈	-7300
高叫	-7301
高坐	-7302
鹰扬	-7303
麦田	-7304
麾盖	-7305
黑气	-7306
齐备	-7307
齐明	-7308
▁原来	-7309
▁周瑜	-7310
▁当下	-7311
▁曹丕	-7312
▁赵云	-7313
一霎时	-7314
一面令	-7315
三十骑	-7316
三千人	-7317
上流头	-7318
下关来	-7319
下山来	-7320
不敢出	-7321
不绝口	-7322
不能下	-7323
不能救	-7324
不足虑	-7325
与丞相	-7326
与庞德	-7327
与邓艾	-7328
与陈宫	-7329
世所罕	-7330
丞相钧	-7331
严白虎	-7332
为司徒	-7333
为外应	-7334
为平原	-7335
主公且	-7336
乃下马	-7337
乃曹操	-7338
之主也	-7339
之谋也	-7340
二人至	-7341
二子曰	-7342
二百里	-7343
于城上	-7344
于水中	-7345
于渭水	-7346
于酒色	-7347
五十人	-7348
人报曰	-7349
今云长	-7350
今天下	-7351
今天子	-7352
从大路	-7353
从者曰	-7354
令诸侯	-7355
以死报	-7356
作说客	-7357
你二人	-7358
使刘备	-7359
依山傍	-7360
倒在地	-7361
借荆州	-7362
假节钺	-7363
入后园	-7364
入后宫	-7365
入宫中	-7366
全装惯	-7367
公将军	-7368
关内侯	-7369
其人曰	-7370
其锐气	-7371
军大乱	-7372
冬十月	-7373
决胜负	-7374
凤仪亭	-7375
凭三寸	-7376
出奇兵	-7377
出茅庐	-7378
则荆州	-7379
到荆州	-7380
前至一	-7381
前面是	-7382
加九锡	-7383
十一月	-7384
十数人	-7385
南屏山	-7386
即传令	-7387
即遣人	-7388
去劫寨	-7389
又一军	-7390
又不见	-7391
取汉中	-7392
受禅坛	-7393
可速去	-7394
司马孚	-7395
后人有	-7396
吕布乃	-7397
吕布于	-7398
吾已知	-7399
吾有一	-7400
商议欲	-7401
四十九	-7402
回许昌	-7403
国之贼	-7404
在一处	-7405
在后园	-7406
在狱中	-7407
在长安	-7408
夏侯威	-7409
夏侯惠	-7410
夏四月	-7411
天地间	-7412
天子诏	-7413
太尉王	-7414
夹山峪	-7415
奉天子	-7416
子邓忠	-7417
孔明先	-7418
孔明将	-7419
孔明问	-7420
孙仲谋	-7421
孙权在	-7422
实不知	-7423
将军之	-7424
屏风后	-7425
差人赍	-7426
弓箭手	-7427
引兵入	-7428
引兵到	-7429
引兵望	-7430
引军来	-7431
张任曰	-7432
张昭等	-7433
弩齐发	-7434
往汝南	-7435
得一人	-7436
得玄德	-7437
忠臣也	-7438
忽又报	-7439
急令人	-7440
急切难	-7441
急拨马	-7442
急退时	-7443
惟将军	-7444
懿笑曰	-7445
成大功	-7446
我自有	-7447
所知也	-7448
报曹操	-7449
拒曹操	-7450
拜伏于	-7451
挡不住	-7452
挺丈八	-7453
收兵回	-7454
方天戟	-7455
施礼曰	-7456
无人敢	-7457
无言可	-7458
既如此	-7459
早晚必	-7460
星夜往	-7461
星夜至	-7462
是东吴	-7463
普净曰	-7464
曹操已	-7465
有何难	-7466
有机密	-7467
杀此贼	-7468
杀牛宰	-7469
柴桑郡	-7470
正撞着	-7471
正踌躇	-7472
此四人	-7473
此必是	-7474
武城山	-7475
汉丞相	-7476
汉高祖	-7477
汝何敢	-7478
沙摩柯	-7479
沛国谯	-7480
泣拜曰	-7481
活捉了	-7482
烽火台	-7483
然后可	-7484
熟思之	-7485
犒三军	-7486
狄道城	-7487
玄德急	-7488
玄德等	-7489
王之后	-7490
班部中	-7491
瑜大喜	-7492
瓦口关	-7493
生一计	-7494
略唬骸	-7495
皆归于	-7496
皇太后	-7497
皇子协	-7498
盘蛇谷	-7499
睿大惊	-7500
知是计	-7501
破黄巾	-7502
礼相待	-7503
秋八月	-7504
笑而不	-7505
绍大怒	-7506
结东吴	-7507
而杀之	-7508
而答曰	-7509
而骂曰	-7510
船头上	-7511
若魏兵	-7512
苦肉计	-7513
董太师	-7514
血流成	-7515
被赵云	-7516
西平关	-7517
要出战	-7518
见其人	-7519
请关公	-7520
请陛下	-7521
诸葛靓	-7522
贾充曰	-7523
赍金珠	-7524
赵云也	-7525
辞而去	-7526
还东吴	-7527
这条路	-7528
连环计	-7529
遂传令	-7530
遂拔剑	-7531
遣使赍	-7532
郭图曰	-7533
金雁桥	-7534
长坂桥	-7535
长安来	-7536
闻丞相	-7537
阳安关	-7538
陈元龙	-7539
韩遂曰	-7540
饮酒间	-7541
马超曰	-7542
魏延也	-7543
黄忠曰	-7544
(18)	-7545
▁司马懿	-7546
一彪军到	-7547
一簇人马	-7548
一面使人	-7549
一面遣人	-7550
三百余人	-7551
不知其意	-7552
不知其数	-7553
不能得脱	-7554
不能抵当	-7555
与司马懿	-7556
与小主人	-7557
且说曹操	-7558
东吴陆逊	-7559
东大将军	-7560
主何吉凶	-7561
主公勿忧	-7562
乃关兴也	-7563
九泉之下	-7564
于中取事	-7565
于吉立于	-7566
五百余人	-7567
以为久计	-7568
以为何如	-7569
以绝后患	-7570
先生之言	-7571
八路诸侯	-7572
关公大怒	-7573
关公父子	-7574
兵精粮足	-7575
军师何故	-7576
分兵一半	-7577
前后夹攻	-7578
前部先锋	-7579
半晌方苏	-7580
又唤魏延	-7581
只宜坚守	-7582
只见前面	-7583
只见孔明	-7584
只见魏兵	-7585
后主从之	-7586
吾死之后	-7587
哭拜于地	-7588
商议已定	-7589
喏喏连声	-7590
四下无路	-7591
回头看时	-7592
回见吴侯	-7593
回见孔明	-7594
回见曹操	-7595
夏侯霸曰	-7596
大事济矣	-7597
大小将士	-7598
太尉杨彪	-7599
夺路走脱	-7600
如此无礼	-7601
威震天下	-7602
威风凛凛	-7603
孔明之言	-7604
孙夫人曰	-7605
屏退左右	-7606
并无一人	-7607
应声而出	-7608
废长立幼	-7609
弃寨而走	-7610
引三千军	-7611
引兵接应	-7612
引军前进	-7613
引本部兵	-7614
引本部军	-7615
当先出马	-7616
当复如何	-7617
当如之何	-7618
待之甚厚	-7619
徐徐而退	-7620
心中忧闷	-7621
所佩之剑	-7622
托病不出	-7623
抖擞精神	-7624
护送车仗	-7625
拆开视之	-7626
拜谢而去	-7627
排成阵势	-7628
探听虚实	-7629
操从其言	-7630
操然其言	-7631
放汝回去	-7632
放火为号	-7633
暗暗称奇	-7634
未可轻敌	-7635
未知孔明	-7636
本部军马	-7637
树木丛杂	-7638
正说之间	-7639
比及天明	-7640
汉中王曰	-7641
满面羞惭	-7642
狂风骤起	-7643
皆封列侯	-7644
等候多时	-7645
纵横天下	-7646
细作报知	-7647
缓缓而行	-7648
背后魏兵	-7649
舌辩之士	-7650
荆州之事	-7651
虚张声势	-7652
计将安出	-7653
说知此事	-7654
诸葛武侯	-7655
输了一阵	-7656
这个消息	-7657
重加赏赐	-7658
金城太守	-7659
长江之险	-7660
长沙太守	-7661
门旗开处	-7662
附耳低言	-7663
雍州刺史	-7664
面如重枣	-7665
馆驿安歇	-7666
骂不绝口	-7667
魏延引兵	-7668
▁且说曹操	-7669
▁却说钟会	-7670
一辆四轮车	-7671
不得已而降	-7672
两路兵杀来	-7673
为掎角之势	-7674
为骠骑将军	-7675
以利害说之	-7676
以言挑之曰	-7677
回顾众将曰	-7678
回顾左右曰	-7679
得铁桶相似	-7680
忽近臣奏曰	-7681
先帝托孤之重	-7682
忽然狂风大作	-7683
抱头鼠窜而去	-7684
早有细作报知	-7685
是夜二更时分	-7686
!’	-7687
?1	-7688
▁懿	-7689
▁至	-7690
。《	-7691
一也	-7692
一体	-7693
一剑	-7694
一发	-7695
一城	-7696
一尺	-7697
一往	-7698
一指	-7699
一旅	-7700
一梦	-7701
一番	-7702
一通	-7703
一门	-7704
丁廙	-7705
万全	-7706
万幸	-7707
万政	-7708
三月	-7709
三结	-7710
上一	-7711
上岭	-7712
上疏	-7713
上箭	-7714
上雨	-7715
下单	-7716
下城	-7717
下堂	-7718
下曰	-7719
下阶	-7720
不习	-7721
不似	-7722
不共	-7723
不喜	-7724
不小	-7725
不干	-7726
不往	-7727
不愧	-7728
不早	-7729
不理	-7730
不甚	-7731
不着	-7732
不继	-7733
不臣	-7734
不轻	-7735
与孤	-7736
与彼	-7737
专望	-7738
且住	-7739
且曰	-7740
且权	-7741
世居	-7742
丘建	-7743
丛中	-7744
东征	-7745
东海	-7746
东风	-7747
两翼	-7748
严寒	-7749
丧事	-7750
中兴	-7751
中途	-7752
中道	-7753
临敌	-7754
临江	-7755
为义	-7756
为公	-7757
为备	-7758
为媒	-7759
为害	-7760
为家	-7761
为本	-7762
为第	-7763
为肉	-7764
举止	-7765
乃复	-7766
乃天	-7767
乃暗	-7768
乃至	-7769
久守	-7770
义士	-7771
义气	-7772
义状	-7773
之东	-7774
之也	-7775
之乱	-7776
之位	-7777
之使	-7778
之叔	-7779
之多	-7780
之寨	-7781
之母	-7782
之灵	-7783
之福	-7784
之耳	-7785
之表	-7786
之败	-7787
之难	-7788
乔瑁	-7789
九岁	-7790
九州	-7791
九族	-7792
买马	-7793
乱石	-7794
乱箭	-7795
争衡	-7796
事可	-7797
事在	-7798
事定	-7799
事必	-7800
事成	-7801
事泄	-7802
事者	-7803
二也	-7804
二回	-7805
二国	-7806
二字	-7807
于天	-7808
于理	-7809
于魏	-7810
云雾	-7811
五关	-7812
五回	-7813
五子	-7814
井中	-7815
些少	-7816
亦为	-7817
亦皆	-7818
享祭	-7819
亮自	-7820
亲信	-7821
人事	-7822
人尽	-7823
人曰	-7824
人望	-7825
人生	-7826
今却	-7827
今弃	-7828
今愿	-7829
今早	-7830
今王	-7831
今遇	-7832
介意	-7833
从容	-7834
仓亭	-7835
代汉	-7836
令将	-7837
令明	-7838
以书	-7839
以公	-7840
以养	-7841
以当	-7842
以慰	-7843
以献	-7844
以继	-7845
以资	-7846
以达	-7847
以通	-7848
伏惟	-7849
休动	-7850
休去	-7851
休听	-7852
众议	-7853
伤其	-7854
伯道	-7855
但今	-7856
但以	-7857
何其	-7858
何劳	-7859
何及	-7860
何反	-7861
何后	-7862
何所	-7863
何曾	-7864
何烧	-7865
何罪	-7866
何虑	-7867
何迟	-7868
余军	-7869
作乐	-7870
作色	-7871
你我	-7872
佯输	-7873
侯河	-7874
便倒	-7875
俊杰	-7876
俊焙	-7877
保之	-7878
保奏	-7879
倍加	-7880
偃城	-7881
偃旗	-7882
偃月	-7883
傲慢	-7884
儿愿	-7885
元宵	-7886
先入	-7887
先至	-7888
光芒	-7889
克复	-7890
兜鍪	-7891
入山	-7892
入怀	-7893
入拜	-7894
入来	-7895
入营	-7896
入阵	-7897
全然	-7898
八字	-7899
八方	-7900
公与	-7901
公台	-7902
公见	-7903
六甲	-7904
共攻	-7905
共诛	-7906
关东	-7907
兵无	-7908
兵贵	-7909
其上	-7910
其军	-7911
其前	-7912
其名	-7913
其女	-7914
其害	-7915
其忠	-7916
其能	-7917
具道	-7918
典曰	-7919
养老	-7920
内变	-7921
再休	-7922
再出	-7923
再整	-7924
冒渎	-7925
写着	-7926
军无	-7927
军至	-7928
军退	-7929
几日	-7930
出了	-7931
出哨	-7932
出外	-7933
出身	-7934
出门	-7935
刀枪	-7936
分开	-7937
分散	-7938
刘巴	-7939
刘度	-7940
则吾	-7941
利刀	-7942
别事	-7943
别图	-7944
制之	-7945
割地	-7946
割麦	-7947
力乏	-7948
力劝	-7949
力尽	-7950
力穷	-7951
功盖	-7952
功绩	-7953
功臣	-7954
加之	-7955
动摇	-7956
动止	-7957
劫去	-7958
勿使	-7959
北斗	-7960
区区	-7961
区处	-7962
十六	-7963
午谷	-7964
协力	-7965
卓膺	-7966
卖主	-7967
南北	-7968
南山	-7969
南皮	-7970
南面	-7971
南顿	-7972
占据	-7973
卧内	-7974
即与	-7975
即赐	-7976
却之	-7977
却只	-7978
却在	-7979
却待	-7980
却见	-7981
却都	-7982
卿可	-7983
历数	-7984
厚待	-7985
厚赏	-7986
原是	-7987
去向	-7988
去寻	-7989
去投	-7990
县尉	-7991
又去	-7992
又报	-7993
又表	-7994
又走	-7995
又鸣	-7996
叉手	-7997
及也	-7998
双全	-7999
反叛	-8000
取乐	-8001
取汝	-8002
取蜀	-8003
取酒	-8004
受惊	-8005
受缚	-8006
受苦	-8007
只好	-8008
只怕	-8009
只船	-8010
召之	-8011
可与	-8012
可即	-8013
可命	-8014
可复	-8015
可差	-8016
可成	-8017
可灭	-8018
可谓	-8019
可问	-8020
号泣	-8021
司农	-8022
合当	-8023
同入	-8024
同力	-8025
同回	-8026
同年	-8027
名爵	-8028
后土	-8029
后堂	-8030
后心	-8031
启奏	-8032
吴国	-8033
吴硕	-8034
吾于	-8035
吾前	-8036
吾师	-8037
吾想	-8038
吾方	-8039
吾既	-8040
吾爱	-8041
告以	-8042
告我	-8043
告退	-8044
周旨	-8045
和你	-8046
哀告	-8047
哭泣	-8048
唯唯	-8049
啼哭	-8050
嗟怨	-8051
四千	-8052
四字	-8053
回告	-8054
回府	-8055
回救	-8056
回音	-8057
因指	-8058
因而	-8059
因谓	-8060
围困	-8061
国书	-8062
国寺	-8063
国王	-8064
国难	-8065
土坑	-8066
土崩	-8067
土色	-8068
圣朝	-8069
圣驾	-8070
在位	-8071
在吾	-8072
在意	-8073
地上	-8074
地利	-8075
地名	-8076
地方	-8077
坐守	-8078
坐视	-8079
坑之	-8080
坡前	-8081
城北	-8082
城垣	-8083
填塞	-8084
处世	-8085
备当	-8086
备述	-8087
复仇	-8088
复何	-8089
外应	-8090
外甥	-8091
多半	-8092
多带	-8093
夜则	-8094
夜行	-8095
大势	-8096
大国	-8097
大恸	-8098
大振	-8099
大溃	-8100
大耳	-8101
大难	-8102
天有	-8103
天赐	-8104
太祖	-8105
夫耳	-8106
奇才	-8107
女儿	-8108
好学	-8109
好结	-8110
好马	-8111
如今	-8112
如是	-8113
妻女	-8114
委用	-8115
威权	-8116
威镇	-8117
嫉妒	-8118
子也	-8119
子伯	-8120
子侄	-8121
子兰	-8122
子牙	-8123
字样	-8124
字正	-8125
孙休	-8126
孙郎	-8127
孟坦	-8128
孟节	-8129
孤城	-8130
孤穷	-8131
孩儿	-8132
安国	-8133
安心	-8134
宓曰	-8135
宗预	-8136
定要	-8137
客商	-8138
容我	-8139
宽恕	-8140
宿于	-8141
宿卫	-8142
寨子	-8143
寸功	-8144
对坐	-8145
对证	-8146
寻问	-8147
封爵	-8148
射猎	-8149
射箭	-8150
尊父	-8151
小侄	-8152
小子	-8153
小径	-8154
小臣	-8155
就坐	-8156
就彼	-8157
就里	-8158
尽发	-8159
尽杀	-8160
居丧	-8161
居住	-8162
居右	-8163
居左	-8164
屈膝	-8165
山河	-8166
岂非	-8167
岑昏	-8168
州平	-8169
巢穴	-8170
已属	-8171
已平	-8172
已退	-8173
巴蜀	-8174
布于	-8175
布列	-8176
布袋	-8177
师婆	-8178
帐后	-8179
帝乃	-8180
带着	-8181
带领	-8182
常曰	-8183
常言	-8184
平坦	-8185
平复	-8186
并辔	-8187
幼常	-8188
广宗	-8189
庆功	-8190
异人	-8191
异常	-8192
异度	-8193
弃却	-8194
弈棋	-8195
引二	-8196
引进	-8197
张仪	-8198
张冀	-8199
张良	-8200
强盛	-8201
强要	-8202
归府	-8203
当往	-8204
当晚	-8205
彼将	-8206
往前	-8207
征南	-8208
待来	-8209
得免	-8210
御敌	-8211
心怯	-8212
必获	-8213
忘之	-8214
忘却	-8215
忘恩	-8216
忠孝	-8217
忠言	-8218
忧也	-8219
忧矣	-8220
急出	-8221
急矣	-8222
性刚	-8223
性起	-8224
怨望	-8225
怪异	-8226
恐是	-8227
恨者	-8228
恩义	-8229
恩于	-8230
恩命	-8231
息鼓	-8232
患病	-8233
惊惶	-8234
惊问	-8235
惜哉	-8236
惧也	-8237
惭愧	-8238
愁云	-8239
愿乞	-8240
愿将	-8241
愿得	-8242
愿随	-8243
慌令	-8244
慎之	-8245
戈定	-8246
成何	-8247
我心	-8248
我是	-8249
或用	-8250
战败	-8251
截出	-8252
房屋	-8253
所乘	-8254
所守	-8255
所能	-8256
所赐	-8257
扎营	-8258
打城	-8259
托名	-8260
扶柩	-8261
抗曰	-8262
折伤	-8263
抚民	-8264
抛戈	-8265
护车	-8266
报到	-8267
报称	-8268
披甲	-8269
抵赖	-8270
拍手	-8271
拍案	-8272
拒守	-8273
拔出	-8274
拔刀	-8275
拘执	-8276
招呼	-8277
拜迎	-8278
拥入	-8279
挂印	-8280
按辔	-8281
捉了	-8282
捉得	-8283
捶胸	-8284
授以	-8285
掌中	-8286
排开	-8287
探看	-8288
接住	-8289
接得	-8290
接济	-8291
推下	-8292
推倒	-8293
推病	-8294
掩心	-8295
提头	-8296
援兵	-8297
摇动	-8298
擂木	-8299
操先	-8300
操因	-8301
操封	-8302
操方	-8303
操知	-8304
操练	-8305
操谓	-8306
擒下	-8307
支吾	-8308
收得	-8309
故先	-8310
敌楼	-8311
救得	-8312
救灭	-8313
教人	-8314
教场	-8315
教诲	-8316
散关	-8317
散骑	-8318
数年	-8319
数枪	-8320
数骑	-8321
整点	-8322
整齐	-8323
文凭	-8324
文台	-8325
文帝	-8326
斟酌	-8327
断绝	-8328
新书	-8329
方悟	-8330
方敢	-8331
方止	-8332
方醒	-8333
无信	-8334
无功	-8335
无德	-8336
无措	-8337
无水	-8338
无限	-8339
既以	-8340
既杀	-8341
日中	-8342
日已	-8343
日磾	-8344
旧交	-8345
时为	-8346
时人	-8347
时务	-8348
时当	-8349
时辰	-8350
时魏	-8351
旺气	-8352
明也	-8353
明帝	-8354
是时	-8355
晔曰	-8356
景帝	-8357
景耀	-8358
暗号	-8359
曹昂	-8360
最为	-8361
有三	-8362
有仇	-8363
有名	-8364
有法	-8365
有罪	-8366
有诏	-8367
有违	-8368
朋友	-8369
服之	-8370
朕躬	-8371
朕闻	-8372
朝夕	-8373
朝贺	-8374
木石	-8375
木筏	-8376
未为	-8377
未了	-8378
本是	-8379
本营	-8380
杀戮	-8381
杀过	-8382
来探	-8383
来时	-8384
来求	-8385
来的	-8386
来路	-8387
杨秋	-8388
杨龄	-8389
极善	-8390
极广	-8391
枭首	-8392
某已	-8393
栋梁	-8394
梁绪	-8395
梁虔	-8396
梆子	-8397
梓潼	-8398
楙曰	-8399
樊口	-8400
次曰	-8401
欲出	-8402
欲反	-8403
欲寻	-8404
欲归	-8405
欺吾	-8406
止留	-8407
正北	-8408
正坐	-8409
正应	-8410
正西	-8411
此一	-8412
此为	-8413
此亦	-8414
此日	-8415
此法	-8416
此祸	-8417
此谋	-8418
此道	-8419
此难	-8420
步卒	-8421
死罪	-8422
殄灭	-8423
残兵	-8424
段谷	-8425
殿宇	-8426
每夜	-8427
民兵	-8428
水口	-8429
汉军	-8430
汉城	-8431
汉末	-8432
汉祀	-8433
汉禄	-8434
汉贼	-8435
汉阳	-8436
汝将	-8437
汝必	-8438
汝能	-8439
池中	-8440
沂都	-8441
沔阳	-8442
沙口	-8443
沙土	-8444
沙漠	-8445
河南	-8446
河西	-8447
治之	-8448
治罪	-8449
沿途	-8450
波涛	-8451
泪流	-8452
洒泪	-8453
洞兵	-8454
流芳	-8455
浩大	-8456
浩浩	-8457
涕泣	-8458
涪水	-8459
深为	-8460
渐近	-8461
温曰	-8462
渭北	-8463
湖口	-8464
滚滚	-8465
漏泄	-8466
潜地	-8467
灌之	-8468
火急	-8469
火船	-8470
灯烛	-8471
烈火	-8472
烟火	-8473
烟起	-8474
焉能	-8475
熟娴	-8476
牵弘	-8477
特请	-8478
犒军	-8479
犹自	-8480
独战	-8481
独有	-8482
独生	-8483
独自	-8484
猛省	-8485
猛虎	-8486
献功	-8487
献门	-8488
玄武	-8489
玉龙	-8490
王业	-8491
王化	-8492
王命	-8493
环绕	-8494
珪曰	-8495
瑜令	-8496
甚于	-8497
甚当	-8498
甚紧	-8499
生门	-8500
用手	-8501
田续	-8502
男子	-8503
畅饮	-8504
畏惧	-8505
留此	-8506
略无	-8507
疑有	-8508
病体	-8509
病势	-8510
痊可	-8511
痛饮	-8512
白发	-8513
白河	-8514
皂旗	-8515
皂绦	-8516
皆因	-8517
皆平	-8518
皆得	-8519
皆曰	-8520
皆降	-8521
皮肉	-8522
监下	-8523
监督	-8524
监禁	-8525
盖因	-8526
盗贼	-8527
相传	-8528
相同	-8529
相对	-8530
相应	-8531
相探	-8532
相攻	-8533
相问	-8534
睁目	-8535
督军	-8536
瞒我	-8537
知操	-8538
知觉	-8539
石壁	-8540
砍倒	-8541
砍去	-8542
破城	-8543
破绽	-8544
示众	-8545
礼贤	-8546
祖父	-8547
祜曰	-8548
祝曰	-8549
神亭	-8550
神思	-8551
神速	-8552
祸福	-8553
禀曰	-8554
秀曰	-8555
秉烛	-8556
种辑	-8557
秦良	-8558
称为	-8559
移兵	-8560
移时	-8561
移营	-8562
穿了	-8563
立一	-8564
竖儒	-8565
童谣	-8566
笑之	-8567
笮融	-8568
等他	-8569
等守	-8570
等曰	-8571
策怒	-8572
筵会	-8573
筵宴	-8574
粮广	-8575
紫虚	-8576
紫髯	-8577
累及	-8578
约期	-8579
纵火	-8580
细奏	-8581
终非	-8582
绍汉	-8583
结束	-8584
给与	-8585
维令	-8586
绿袍	-8587
缘故	-8588
罾口	-8589
美玉	-8590
群贼	-8591
翟元	-8592
老臣	-8593
者曰	-8594
而废	-8595
而得	-8596
而操	-8597
而自	-8598
耳目	-8599
耿武	-8600
聚会	-8601
肝胆	-8602
股肱	-8603
脱去	-8604
臣之	-8605
臣死	-8606
自为	-8607
自在	-8608
自料	-8609
自缢	-8610
自行	-8611
自解	-8612
自送	-8613
至第	-8614
船出	-8615
良贱	-8616
良辰	-8617
苏秦	-8618
苗裔	-8619
若无	-8620
若来	-8621
若用	-8622
英杰	-8623
茅草	-8624
荆棘	-8625
草堆	-8626
草木	-8627
莫大	-8628
萧怀	-8629
落后	-8630
落荒	-8631
蒋奇	-8632
虎威	-8633
虎贲	-8634
虚传	-8635
蛮洞	-8636
蝉曰	-8637
行兵	-8638
行刺	-8639
行动	-8640
街市	-8641
衣中	-8642
衣襟	-8643
衣食	-8644
表章	-8645
袍带	-8646
袍铠	-8647
被他	-8648
被伤	-8649
被困	-8650
袭我	-8651
要斩	-8652
要见	-8653
见卓	-8654
见有	-8655
言于	-8656
计会	-8657
计点	-8658
议欲	-8659
许贡	-8660
识破	-8661
诈谋	-8662
诏书	-8663
诚实	-8664
说了	-8665
说词	-8666
说话	-8667
请公	-8668
请帝	-8669
调理	-8670
谢别	-8671
谦曰	-8672
豫章	-8673
费力	-8674
贼党	-8675
贾范	-8676
赐与	-8677
赤儿	-8678
走回	-8679
走时	-8680
走至	-8681
赵咨	-8682
赵忠	-8683
赶出	-8684
赶杀	-8685
起一	-8686
起军	-8687
路口	-8688
路途	-8689
踊跃	-8690
蹋顿	-8691
身先	-8692
身带	-8693
身无	-8694
身虽	-8695
身被	-8696
身边	-8697
车辆	-8698
转运	-8699
辄入	-8700
辈僭	-8701
过此	-8702
运筹	-8703
还我	-8704
进酒	-8705
连和	-8706
连弩	-8707
连络	-8708
追寻	-8709
退矣	-8710
逆不	-8711
逆天	-8712
逍遥	-8713
逐出	-8714
途中	-8715
通报	-8716
速战	-8717
逼近	-8718
遂加	-8719
遂点	-8720
遂罢	-8721
遂请	-8722
遂起	-8723
遍竖	-8724
遍行	-8725
遍视	-8726
道傍	-8727
道士	-8728
遗表	-8729
遗言	-8730
遗诏	-8731
遣一	-8732
遮道	-8733
避席	-8734
避祸	-8735
邢贞	-8736
邵悌	-8737
郡人	-8738
部兵	-8739
鄢陵	-8740
鄱阳	-8741
重事	-8742
重叠	-8743
量汝	-8744
金玉	-8745
金锁	-8746
钢刀	-8747
锦衣	-8748
长久	-8749
长二	-8750
长揖	-8751
问他	-8752
问候	-8753
闻公	-8754
阁下	-8755
阴阳	-8756
阵亡	-8757
阵否	-8758
阵脚	-8759
阵角	-8760
阻住	-8761
陈兵	-8762
陈纪	-8763
降了	-8764
陵迟	-8765
陷坑	-8766
随将	-8767
隐匿	-8768
雄壮	-8769
雍曰	-8770
零落	-8771
震曰	-8772
霸王	-8773
霹雳	-8774
非公	-8775
非可	-8776
非比	-8777
靳祥	-8778
韩信	-8779
韩瑶	-8780
音耗	-8781
项事	-8782
颇知	-8783
风雨	-8784
飘然	-8785
飞来	-8786
飞棹	-8787
饮了	-8788
马头	-8789
马邈	-8790
驰骋	-8791
驾幸	-8792
骆谷	-8793
骠骑	-8794
高下	-8795
高平	-8796
鲈鱼	-8797
鲍隆	-8798
鲜血	-8799
鸣鼓	-8800
麒麟	-8801
黄劭	-8802
黄龙	-8803
鼓罢	-8804
齑粉	-8805
龙舟	-8806
龙驹	-8807
▁张飞	-8808
▁时值	-8809
▁是年	-8810
▁是日	-8811
▁第七	-8812
▁第十	-8813
▁鲁肃	-8814
▁黄忠	-8815
一刀斩	-8816
一干人	-8817
一把火	-8818
一时之	-8819
一条路	-8820
一百人	-8821
七百里	-8822
万余人	-8823
三江口	-8824
三江城	-8825
三百人	-8826
上山来	-8827
下令曰	-8828
下营寨	-8829
不义也	-8830
不及也	-8831
不可复	-8832
不可行	-8833
不如也	-8834
不如意	-8835
不数日	-8836
不能保	-8837
不能报	-8838
不能答	-8839
不足与	-8840
不足以	-8841
与主公	-8842
与众官	-8843
与刘璋	-8844
与张郃	-8845
与张飞	-8846
与曹军	-8847
与法正	-8848
与蜀兵	-8849
与赵云	-8850
与都督	-8851
丕大喜	-8852
丞相大	-8853
丞相有	-8854
丞相欲	-8855
严颜曰	-8856
中取出	-8857
中大夫	-8858
临淄侯	-8859
为上将	-8860
为从事	-8861
为侍中	-8862
为前驱	-8863
为参谋	-8864
为天子	-8865
为太尉	-8866
为魏王	-8867
举孝廉	-8868
之兵也	-8869
之名将	-8870
之基业	-8871
之患也	-8872
乐嘉城	-8873
乘小车	-8874
乞陛下	-8875
书院中	-8876
事不决	-8877
事不密	-8878
事不成	-8879
二人曰	-8880
二十日	-8881
二百余	-8882
于军中	-8883
于山僻	-8884
于曹操	-8885
于此处	-8886
于襄阳	-8887
于车上	-8888
于邺郡	-8889
于阵前	-8890
些人马	-8891
亦骂曰	-8892
享富贵	-8893
今何故	-8894
今大王	-8895
今都督	-8896
今陛下	-8897
他人所	-8898
令云长	-8899
令人送	-8900
令赵云	-8901
令黄忠	-8902
以上宾	-8903
以丞相	-8904
以安民	-8905
以酒食	-8906
传号令	-8907
传国玺	-8908
何以知	-8909
何烧戈	-8910
作一书	-8911
你两个	-8912
你两家	-8913
使人请	-8914
使人送	-8915
倘魏兵	-8916
兄弟也	-8917
先遣人	-8918
免其死	-8919
入城见	-8920
入府中	-8921
公大怒	-8922
兴汉室	-8923
兵大乱	-8924
兵来取	-8925
其不从	-8926
其不备	-8927
其中有	-8928
其必出	-8929
其文曰	-8930
其首级	-8931
军马于	-8932
出怨言	-8933
出西门	-8934
出迎之	-8935
出马于	-8936
刀在手	-8937
分一半	-8938
刘备也	-8939
刘表曰	-8940
到大寨	-8941
到帐下	-8942
到汉中	-8943
勿多言	-8944
十七回	-8945
十三回	-8946
十二月	-8947
十余次	-8948
十四回	-8949
又不知	-8950
又有一	-8951
取徐州	-8952
只道是	-8953
可使人	-8954
可分兵	-8955
可得也	-8956
可胜也	-8957
司马公	-8958
吴主皓	-8959
吴懿曰	-8960
吾亦欲	-8961
吾夜梦	-8962
吾当先	-8963
吾来日	-8964
吾若不	-8965
吾随后	-8966
员大将	-8967
唤左右	-8968
唤诸将	-8969
四路兵	-8970
回徐州	-8971
在军中	-8972
在城外	-8973
在船上	-8974
在船中	-8975
在营中	-8976
在西方	-8977
在许昌	-8978
在许都	-8979
坚守勿	-8980
夏侯和	-8981
大军至	-8982
大司马	-8983
天下之	-8984
天降大	-8985
太子孙	-8986
夫人去	-8987
头一个	-8988
奋然曰	-8989
如不胜	-8990
如草芥	-8991
子午谷	-8992
孔明以	-8993
孔明回	-8994
孔明真	-8995
孙权令	-8996
寻不见	-8997
将军与	-8998
将军也	-8999
将在外	-9000
屯小沛	-9001
山小路	-9002
岂不可	-9003
左右将	-9004
平生所	-9005
廖化曰	-9006
引一队	-9007
引二万	-9008
引军至	-9009
引精兵	-9010
引轻骑	-9011
张翼也	-9012
张翼曰	-9013
张辽也	-9014
张郃守	-9015
当世之	-9016
往徐州	-9017
往江东	-9018
忽一日	-9019
忽探马	-9020
忽见一	-9021
急勒马	-9022
慰平生	-9023
战吕布	-9024
手执长	-9025
扶社稷	-9026
投袁绍	-9027
拜伏曰	-9028
挟天子	-9029
掌大权	-9030
掘地道	-9031
探听得	-9032
提大兵	-9033
操使人	-9034
操叹曰	-9035
操然之	-9036
操闻言	-9037
擒刘备	-9038
救兵到	-9039
散流言	-9040
斩来使	-9041
斩颜良	-9042
无可为	-9043
无路可	-9044
时建安	-9045
星夜投	-9046
曹将军	-9047
曹操亦	-9048
有一泉	-9049
有多少	-9050
望陛下	-9051
本部军	-9052
李儒曰	-9053
杜工部	-9054
来使曰	-9055
来助战	-9056
来此何	-9057
杨仪曰	-9058
杨大将	-9059
校刀手	-9060
欲令我	-9061
欲报仇	-9062
欲自刎	-9063
止有一	-9064
正慌急	-9065
正话间	-9066
此吾之	-9067
武将军	-9068
武扬威	-9069
母至孝	-9070
汝何人	-9071
汝有何	-9072
江面上	-9073
沮授曰	-9074
濡须口	-9075
玄德公	-9076
玄德教	-9077
玄德正	-9078
琅琊王	-9079
甘露寺	-9080
生异心	-9081
百余日	-9082
直杀入	-9083
相见毕	-9084
看书毕	-9085
睿大喜	-9086
破蜀兵	-9087
礼待之	-9088
离洛阳	-9089
程普曰	-9090
程远志	-9091
索荆州	-9092
练水军	-9093
统大兵	-9094
者无数	-9095
而击之	-9096
而无谋	-9097
而谢曰	-9098
聚众官	-9099
自号为	-9100
自己却	-9101
自退矣	-9102
至面前	-9103
若云长	-9104
蒙丞相	-9105
蒯良曰	-9106
虎牢关	-9107
蜀兵又	-9108
蜀兵尽	-9109
袭荆州	-9110
西凉州	-9111
西南上	-9112
见吕布	-9113
见马超	-9114
解其缚	-9115
言未绝	-9116
诈降书	-9117
诗一首	-9118
请丞相	-9119
请天子	-9120
请夫人	-9121
谁敢去	-9122
谓操曰	-9123
豫州牧	-9124
贤弟可	-9125
费祎曰	-9126
赵云等	-9127
辕门射	-9128
这条计	-9129
远将军	-9130
连夜投	-9131
透重围	-9132
通姓名	-9133
遂不复	-9134
遣使至	-9135
那少年	-9136
那里肯	-9137
郭夫人	-9138
钟会曰	-9139
镇国寺	-9140
陆伯言	-9141
陛下也	-9142
隐隐有	-9143
青囊书	-9144
非汝等	-9145
顿足曰	-9146
领大军	-9147
马孟起	-9148
马岱曰	-9149
马步兵	-9150
魏都督	-9151
黄汉升	-9152
▁第七十	-9153
▁第九十	-9154
▁第六十	-9155
一刀斩之	-9156
一旅之师	-9157
一队军马	-9158
一面令人	-9159
三十余万	-9160
三十余年	-9161
三路夹攻	-9162
上雨下单	-9163
下马受降	-9164
不可不防	-9165
不可不除	-9166
不可失也	-9167
不可造次	-9168
不如坚守	-9169
不就此时	-9170
不得已也	-9171
不必多言	-9172
不敢恋战	-9173
不敢正视	-9174
不烂之舌	-9175
不省人事	-9176
不肯发兵	-9177
不能取胜	-9178
与众商议	-9179
世所罕有	-9180
丞相临终	-9181
中诸葛亮	-9182
举止失措	-9183
乃为上策	-9184
乃是魏延	-9185
义释严颜	-9186
之意若何	-9187
乘势追赶	-9188
乱箭射死	-9189
事定之后	-9190
二十余万	-9191
二十四人	-9192
于军不利	-9193
亲冒矢石	-9194
亲统大军	-9195
今司马懿	-9196
今在何处	-9197
以报陛下	-9198
以谢天下	-9199
以鞭指曰	-9200
伏兵四起	-9201
伏兵齐出	-9202
众官告免	-9203
众皆大惊	-9204
众皆失色	-9205
众视其人	-9206
众谋士曰	-9207
优礼相待	-9208
传下号令	-9209
伤感不已	-9210
低头不语	-9211
何足为奇	-9212
俄何烧戈	-9213
偃旗息鼓	-9214
先引一军	-9215
光禄大夫	-9216
入帐告曰	-9217
入见后主	-9218
全装惯带	-9219
六出祁山	-9220
兵临城下	-9221
兵分三路	-9222
兵败将亡	-9223
兵贵神速	-9224
具言其事	-9225
具言前事	-9226
再三推辞	-9227
军器粮草	-9228
出帐上马	-9229
分兵五路	-9230
分拨已毕	-9231
初更时分	-9232
别无他意	-9233
努力向前	-9234
匡扶汉室	-9235
升帐而坐	-9236
反贼休走	-9237
受计而去	-9238
只待蜀兵	-9239
只得下马	-9240
只见张飞	-9241
司马师曰	-9242
司马懿见	-9243
各为其主	-9244
各处隘口	-9245
各自收兵	-9246
君命有所	-9247
吴主孙权	-9248
吴兵大败	-9249
吾有一计	-9250
咬牙切齿	-9251
哭声不绝	-9252
唾手可得	-9253
喊声大举	-9254
四五十合	-9255
四更时分	-9256
四面围合	-9257
回到本寨	-9258
回见周瑜	-9259
回见玄德	-9260
坚辞不受	-9261
夜观天象	-9262
大会文武	-9263
大会诸将	-9264
大惊失色	-9265
大汉皇叔	-9266
大江之中	-9267
大败而回	-9268
大驱士马	-9269
天下之事	-9270
天色已晚	-9271
太守张杨	-9272
如其不然	-9273
姜维引兵	-9274
孔明从之	-9275
孔明问曰	-9276
将军之言	-9277
屯兵城外	-9278
屯粮之所	-9279
山路而走	-9280
布告天下	-9281
布大怒曰	-9282
平地水深	-9283
应弦落马	-9284
开了城门	-9285
弓弦响处	-9286
弓弩齐发	-9287
弓马熟娴	-9288
引兵五千	-9289
引兵前进	-9290
引兵来迎	-9291
引数十人	-9292
引百余骑	-9293
张鲁大喜	-9294
当用何策	-9295
御史大夫	-9296
心神恍惚	-9297
必有准备	-9298
必有埋伏	-9299
忽报曹操	-9300
忽然一阵	-9301
总督军马	-9302
悔之不及	-9303
悔之无及	-9304
惊问其故	-9305
折了许多	-9306
折其大半	-9307
报入洛阳	-9308
报知孔明	-9309
报知玄德	-9310
拍马挺枪	-9311
拍马来迎	-9312
招贤纳士	-9313
拽起吊桥	-9314
挥刀纵马	-9315
挺枪直取	-9316
损兵折将	-9317
提青龙刀	-9318
擂木炮石	-9319
擂鼓呐喊	-9320
攻打不下	-9321
方今天下	-9322
无不下泪	-9323
无不惊骇	-9324
无不骇然	-9325
早有探马	-9326
昭烈皇帝	-9327
曹兵大败	-9328
曹操大喜	-9329
有人报知	-9330
有机密事	-9331
有诗叹曰	-9332
未知玄德	-9333
杀条血路	-9334
杀至天明	-9335
来此何干	-9336
来者何人	-9337
来见孙权	-9338
欺君罔上	-9339
正在帐中	-9340
正奔走间	-9341
正踌躇间	-9342
此何人也	-9343
死于此地	-9344
水军都督	-9345
江东孙权	-9346
深入重地	-9347
漫山遍野	-9348
潸然泪下	-9349
火把齐明	-9350
父亲何故	-9351
献于麾下	-9352
玄德再三	-9353
玄德叱曰	-9354
玄德叹曰	-9355
玄德拜谢	-9356
玄德方才	-9357
玄德称谢	-9358
玄德背后	-9359
玄德闻之	-9360
甘当军令	-9361
生擒过去	-9362
申奏朝廷	-9363
疑惑不定	-9364
登高望之	-9365
益州刘璋	-9366
监军卫瓘	-9367
破曹之后	-9368
祁山寨中	-9369
细作回报	-9370
臣有一计	-9371
自刎而死	-9372
荆州已被	-9373
荆州有失	-9374
荆襄九郡	-9375
蛮兵大败	-9376
蜀兵势大	-9377
行坐不安	-9378
西凉太守	-9379
计会已定	-9380
设宴庆贺	-9381
谏议大夫	-9382
谓云长曰	-9383
赐酒压惊	-9384
起兵十万	-9385
越吉元帅	-9386
身披鹤氅	-9387
身长九尺	-9388
转过山坡	-9389
迁延日久	-9390
过了数日	-9391
进退不得	-9392
进退无路	-9393
追之不及	-9394
遣使赍诏	-9395
金环三结	-9396
镇西将军	-9397
长叹一声	-9398
门旗之下	-9399
问其来意	-9400
闻之大怒	-9401
阶下一人	-9402
陆续进发	-9403
面如土色	-9404
领兵五万	-9405
饶汝性命	-9406
首尾不能	-9407
魂不附体	-9408
魏主曹髦	-9409
魏王曹丕	-9410
鼎足之势	-9411
▁却说先主	-9412
▁却说张郃	-9413
▁却说曹真	-9414
▁却说鲁肃	-9415
▁却说黄忠	-9416
▁第一百十	-9417
一彪军拦住	-9418
一彪军杀来	-9419
为荆州之主	-9420
分宾主而坐	-9421
厉声大叫曰	-9422
各引五千兵	-9423
孔明端坐于	-9424
并不见一人	-9425
施犬马之劳	-9426
时建安二十	-9427
虽肝脑涂地	-9428
行不到十里	-9429
行不到数里	-9430
驱木牛流马	-9431
一刀砍于马下	-9432
与众谋士商议	-9433
受计引兵而去	-9434
君命有所不受	-9435
听得这个消息	-9436
未知其计如何	-9437
死者不计其数	-9438
玄德问孔明曰	-9439
王子服等四人	-9440
追杀二十余里	-9441
凭三寸不烂之舌	-9442
后人有诗叹之曰	-9443
后人有诗赞之曰	-9444
喝令左右推出斩之	-9445
,“	-9446
.?	-9447
1.	-9448
4)	-9449
ii	-9450
”;	-9451
▁吕	-9452
▁干	-9453
▁权	-9454
▁瑜	-9455
▁瑾	-9456
▁绍	-9457
▁维	-9458
▁谭	-9459
。“	-9460
一书	-9461
一勇	-9462
一宵	-9463
一小	-9464
一样	-9465
一派	-9466
一生	-9467
一矛	-9468
一程	-9469
一纸	-9470
一营	-9471
丁谧	-9472
七尺	-9473
七岁	-9474
七日	-9475
七面	-9476
万户	-9477
三也	-9478
三声	-9479
三箭	-9480
三罪	-9481
三门	-9482
三马	-9483
上写	-9484
上国	-9485
上寿	-9486
上报	-9487
上至	-9488
上言	-9489
上首	-9490
下士	-9491
下将	-9492
下毒	-9493
下的	-9494
下首	-9495
不争	-9496
不使	-9497
不克	-9498
不助	-9499
不即	-9500
不大	-9501
不差	-9502
不开	-9503
不怯	-9504
不改	-9505
不救	-9506
不日	-9507
不济	-9508
不满	-9509
不看	-9510
不离	-9511
不致	-9512
不解	-9513
不迟	-9514
不饮	-9515
与君	-9516
与吴	-9517
与父	-9518
与策	-9519
与蜀	-9520
且当	-9521
世食	-9522
丙寅	-9523
东华	-9524
东市	-9525
东行	-9526
东阿	-9527
两京	-9528
两口	-9529
两山	-9530
两廊	-9531
两弟	-9532
两手	-9533
两难	-9534
严舆	-9535
中堂	-9536
中年	-9537
中毒	-9538
中藏	-9539
中贵	-9540
丰足	-9541
临于	-9542
临沮	-9543
为东	-9544
为也	-9545
为先	-9546
为副	-9547
为右	-9548
为官	-9549
为左	-9550
为应	-9551
为援	-9552
为盟	-9553
举兵	-9554
举目	-9555
乃于	-9556
乃作	-9557
乃分	-9558
乃反	-9559
乃同	-9560
久乎	-9561
久在	-9562
久慕	-9563
久持	-9564
久远	-9565
之乐	-9566
之兄	-9567
之则	-9568
之卒	-9569
之去	-9570
之妙	-9571
之害	-9572
之形	-9573
之数	-9574
之期	-9575
之术	-9576
之爵	-9577
之父	-9578
之盟	-9579
之相	-9580
之私	-9581
之色	-9582
之苦	-9583
之行	-9584
之议	-9585
之论	-9586
乐城	-9587
乘乱	-9588
乘车	-9589
乘醉	-9590
九寨	-9591
乡公	-9592
书一	-9593
书于	-9594
书云	-9595
乱棒	-9596
乾坤	-9597
了也	-9598
了字	-9599
了马	-9600
争功	-9601
争斗	-9602
事务	-9603
二叔	-9604
二寨	-9605
二次	-9606
二虎	-9607
于事	-9608
于国	-9609
于曲	-9610
于王	-9611
云游	-9612
五方	-9613
五虎	-9614
亡年	-9615
亦与	-9616
亦到	-9617
亦可	-9618
亦曰	-9619
亦知	-9620
亦至	-9621
亭长	-9622
亲临	-9623
亲送	-9624
人以	-9625
人伦	-9626
人伴	-9627
人杰	-9628
人氏	-9629
人矣	-9630
人至	-9631
今从	-9632
今以	-9633
今只	-9634
今忽	-9635
今朝	-9636
今特	-9637
今遣	-9638
从天	-9639
从山	-9640
从征	-9641
从贼	-9642
仓山	-9643
仓廪	-9644
他来	-9645
令众	-9646
令去	-9647
以全	-9648
以头	-9649
以女	-9650
以收	-9651
以明	-9652
以求	-9653
以药	-9654
以辅	-9655
仰望	-9656
任从	-9657
任其	-9658
伏军	-9659
伏诛	-9660
休咎	-9661
休要	-9662
休道	-9663
休问	-9664
众兵	-9665
会众	-9666
传示	-9667
传至	-9668
伯宁	-9669
但须	-9670
何乃	-9671
何又	-9672
何安	-9673
何尚	-9674
何物	-9675
何苗	-9676
何须	-9677
作别	-9678
作诗	-9679
你便	-9680
你却	-9681
你来	-9682
你等	-9683
你道	-9684
使其	-9685
使彼	-9686
侯爵	-9687
便于	-9688
便刺	-9689
便叫	-9690
便喝	-9691
便得	-9692
便杀	-9693
便能	-9694
便见	-9695
便还	-9696
保重	-9697
保障	-9698
俱被	-9699
倒于	-9700
倒撞	-9701
倘彼	-9702
偏殿	-9703
偏裨	-9704
做了	-9705
傅婴	-9706
催粮	-9707
儁曰	-9708
元恶	-9709
兄在	-9710
先兄	-9711
先拨	-9712
先曾	-9713
先此	-9714
先王	-9715
先知	-9716
先说	-9717
先遣	-9718
先饮	-9719
光景	-9720
免生	-9721
免致	-9722
党均	-9723
入关	-9724
入其	-9725
入境	-9726
入报	-9727
入曰	-9728
全身	-9729
八年	-9730
公为	-9731
公廨	-9732
公自	-9733
六丁	-9734
六万	-9735
六将	-9736
共戮	-9737
共论	-9738
关张	-9739
兴矣	-9740
兵卒	-9741
兵威	-9742
其党	-9743
其口	-9744
其头	-9745
其情	-9746
其生	-9747
其背	-9748
其首	-9749
具礼	-9750
养成	-9751
冀县	-9752
内无	-9753
内藏	-9754
册立	-9755
再与	-9756
再令	-9757
再容	-9758
再得	-9759
再问	-9760
写毕	-9761
军事	-9762
军力	-9763
军势	-9764
军回	-9765
军威	-9766
军少	-9767
军旅	-9768
军资	-9769
军需	-9770
冠玉	-9771
冢中	-9772
冲击	-9773
冲将	-9774
几个	-9775
几人	-9776
几何	-9777
凡遇	-9778
凭栏	-9779
凯歌	-9780
凶暴	-9781
出于	-9782
出力	-9783
出屯	-9784
出拜	-9785
出朝	-9786
出鬼	-9787
击剑	-9788
分列	-9789
分别	-9790
分屯	-9791
分路	-9792
列阵	-9793
刘安	-9794
刘延	-9795
刘弘	-9796
刘循	-9797
刘琰	-9798
则同	-9799
则生	-9800
初至	-9801
到任	-9802
到得	-9803
前功	-9804
前因	-9805
前路	-9806
前遮	-9807
剑砍	-9808
剩得	-9809
割下	-9810
割据	-9811
剿戮	-9812
力大	-9813
劝吾	-9814
劝酒	-9815
功业	-9816
功勋	-9817
功成	-9818
加兵	-9819
动也	-9820
助也	-9821
劫粮	-9822
劫驾	-9823
势必	-9824
勇士	-9825
勇猛	-9826
勉之	-9827
勒甲	-9828
勤劳	-9829
勿听	-9830
勿复	-9831
勿惊	-9832
勿轻	-9833
北伐	-9834
北面	-9835
北风	-9836
医人	-9837
十伤	-9838
十八	-9839
千人	-9840
半日	-9841
半渡	-9842
半点	-9843
华阴	-9844
卓怒	-9845
单枪	-9846
单道	-9847
卖个	-9848
南阙	-9849
博陵	-9850
卜之	-9851
卜者	-9852
占住	-9853
卢逊	-9854
卧蚕	-9855
卫弘	-9856
即发	-9857
即取	-9858
即愈	-9859
即至	-9860
却从	-9861
却再	-9862
却反	-9863
卷起	-9864
卿言	-9865
历城	-9866
历年	-9867
厚意	-9868
厚礼	-9869
厚葬	-9870
去就	-9871
去得	-9872
县吏	-9873
又值	-9874
又战	-9875
又拨	-9876
又斗	-9877
又立	-9878
又荐	-9879
又赶	-9880
及诸	-9881
双刀	-9882
双股	-9883
反助	-9884
反复	-9885
反耶	-9886
发檄	-9887
发遣	-9888
叔侄	-9889
叔明	-9890
取水	-9891
取白	-9892
受害	-9893
受魏	-9894
变法	-9895
口吐	-9896
口虽	-9897
古之	-9898
古风	-9899
叩门	-9900
叩首	-9901
只做	-9902
只将	-9903
只就	-9904
只消	-9905
只疑	-9906
叫骂	-9907
可于	-9908
可任	-9909
可便	-9910
可密	-9911
可教	-9912
可斩	-9913
可立	-9914
可退	-9915
叹服	-9916
各将	-9917
各持	-9918
各藏	-9919
各郡	-9920
各部	-9921
各领	-9922
同伴	-9923
同槽	-9924
名字	-9925
后为	-9926
后会	-9927
后园	-9928
后拥	-9929
向西	-9930
吕建	-9931
吕据	-9932
君父	-9933
吞吴	-9934
听从	-9935
听教	-9936
吴会	-9937
吴景	-9938
吴有	-9939
吴氏	-9940
吴臣	-9941
吾也	-9942
吾事	-9943
吾即	-9944
吾去	-9945
吾取	-9946
吾固	-9947
吾妹	-9948
吾甚	-9949
吾笑	-9950
吾耶	-9951
告示	-9952
告辞	-9953
周鲂	-9954
命之	-9955
命吾	-9956
咸阳	-9957
哀哉	-9958
唇若	-9959
唐妃	-9960
唤曰	-9961
唤集	-9962
唾骂	-9963
善事	-9964
喜得	-9965
喜悦	-9966
喜色	-9967
喝采	-9968
嗣位	-9969
器具	-9970
器皿	-9971
囚于	-9972
四壁	-9973
四边	-9974
回京	-9975
回奏	-9976
回宫	-9977
回船	-9978
回车	-9979
回都	-9980
围城	-9981
国事	-9982
国政	-9983
土墙	-9984
土阜	-9985
在中	-9986
在于	-9987
在北	-9988
在府	-9989
在座	-9990
在边	-9991
地雷	-9992
坐镇	-9993
坚固	-9994
坠于	-9995
垒断	-9996
埋怨	-9997
城东	-9998
填胸	-9999
增灶	-10000
士载	-10001
声喏	-10002
复见	-10003
外无	-10004
多年	-10005
多设	-10006
多降	-10007
夜半	-10008
夜战	-10009
夜来	-10010
大张	-10011
大略	-10012
大言	-10013
天心	-10014
天日	-10015
天神	-10016
天纬	-10017
太急	-10018
太极	-10019
失守	-10020
失此	-10021
头已	-10022
头来	-10023
头目	-10024
头风	-10025
夺回	-10026
奉献	-10027
奉驾	-10028
奋威	-10029
奋怒	-10030
奏帝	-10031
奏称	-10032
奔丧	-10033
女也	-10034
如同	-10035
如流	-10036
如白	-10037
如虎	-10038
如见	-10039
妄言	-10040
妇女	-10041
妖术	-10042
妙策	-10043
妨主	-10044
妻弟	-10045
妾已	-10046
始皇	-10047
姓周	-10048
姓孙	-10049
委以	-10050
威福	-10051
嫁之	-10052
子建	-10053
孔去	-10054
字彦	-10055
孙仲	-10056
孙歆	-10057
孙翊	-10058
孙资	-10059
孙高	-10060
孝景	-10061
学士	-10062
宁王	-10063
守其	-10064
守此	-10065
安堵	-10066
安邦	-10067
宗兄	-10068
宗室	-10069
宗派	-10070
官民	-10071
官职	-10072
官至	-10073
定护	-10074
定然	-10075
宜迟	-10076
宜都	-10077
宠幸	-10078
客人	-10079
宫女	-10080
害了	-10081
家事	-10082
家嫂	-10083
家客	-10084
家有	-10085
家资	-10086
容纳	-10087
容貌	-10088
密遣	-10089
寻兄	-10090
封金	-10091
射来	-10092
将也	-10093
将出	-10094
将危	-10095
将寡	-10096
将尽	-10097
将死	-10098
将终	-10099
将酒	-10100
小县	-10101
小桥	-10102
尘埃	-10103
尚且	-10104
尚可	-10105
尚存	-10106
尚欲	-10107
尚然	-10108
就命	-10109
就在	-10110
就寝	-10111
就教	-10112
尹楷	-10113
尽将	-10114
尽心	-10115
尽收	-10116
尽放	-10117
尽教	-10118
尽数	-10119
尽是	-10120
尽着	-10121
尽落	-10122
居外	-10123
山来	-10124
山西	-10125
山贼	-10126
岂容	-10127
岑威	-10128
崔毅	-10129
崔琰	-10130
崩地	-10131
州衙	-10132
左出	-10133
差失	-10134
差官	-10135
差某	-10136
差错	-10137
已丧	-10138
已后	-10139
已投	-10140
已断	-10141
已是	-10142
已极	-10143
已终	-10144
已绝	-10145
已自	-10146
已败	-10147
已走	-10148
已过	-10149
已近	-10150
已降	-10151
市曹	-10152
布怒	-10153
帐外	-10154
帝业	-10155
帝泣	-10156
帝问	-10157
带了	-10158
带刀	-10159
常以	-10160
常怀	-10161
常理	-10162
常自	-10163
常雕	-10164
干系	-10165
平分	-10166
年迈	-10167
幼时	-10168
广元	-10169
庄上	-10170
庄主	-10171
庄院	-10172
庆赏	-10173
床前	-10174
应命	-10175
废也	-10176
废帝	-10177
庵中	-10178
开关	-10179
开其	-10180
开山	-10181
开弓	-10182
异姓	-10183
弃世	-10184
弃剑	-10185
弃营	-10186
引出	-10187
引颈	-10188
张纯	-10189
张超	-10190
张音	-10191
强弓	-10192
归之	-10193
当于	-10194
当即	-10195
当立	-10196
形势	-10197
彤云	-10198
彭城	-10199
往助	-10200
往日	-10201
往者	-10202
往说	-10203
径望	-10204
径袭	-10205
径路	-10206
得也	-10207
得水	-10208
得罪	-10209
徘徊	-10210
循环	-10211
德操	-10212
德曰	-10213
德薄	-10214
心变	-10215
心安	-10216
心慌	-10217
心服	-10218
心耳	-10219
必令	-10220
必擒	-10221
必疑	-10222
必立	-10223
必走	-10224
必非	-10225
忖曰	-10226
忠勇	-10227
忠君	-10228
忠贞	-10229
忧乎	-10230
忧国	-10231
思归	-10232
思报	-10233
急奔	-10234
急问	-10235
恐人	-10236
恐伤	-10237
恐惧	-10238
恐操	-10239
恨力	-10240
恩相	-10241
恪曰	-10242
悄悄	-10243
悚然	-10244
悠悠	-10245
患者	-10246
患难	-10247
悬头	-10248
悲切	-10249
情也	-10250
情知	-10251
惊走	-10252
意也	-10253
意甚	-10254
愿同	-10255
愿效	-10256
愿求	-10257
慌入	-10258
慌请	-10259
懿自	-10260
成亲	-10261
成倅	-10262
成宜	-10263
成病	-10264
成章	-10265
我乎	-10266
我以	-10267
我们	-10268
我待	-10269
我意	-10270
我本	-10271
我耳	-10272
我闻	-10273
戒之	-10274
战国	-10275
战将	-10276
战百	-10277
戴员	-10278
戴天	-10279
户口	-10280
房中	-10281
所倚	-10282
所宜	-10283
所料	-10284
所有	-10285
所积	-10286
所管	-10287
扁舟	-10288
手持	-10289
手指	-10290
才名	-10291
扑地	-10292
打出	-10293
执缚	-10294
扫平	-10295
扫除	-10296
扶出	-10297
扶危	-10298
扶风	-10299
承露	-10300
抄出	-10301
把枪	-10302
把门	-10303
投宿	-10304
投明	-10305
抗拒	-10306
折一	-10307
折冲	-10308
折箭	-10309
抢关	-10310
护驾	-10311
抱病	-10312
押送	-10313
拜别	-10314
拜毕	-10315
拜请	-10316
拜贺	-10317
拜降	-10318
指教	-10319
捉拿	-10320
捷音	-10321
探子	-10322
接诏	-10323
推托	-10324
推调	-10325
推阻	-10326
掩之	-10327
掩至	-10328
掷之	-10329
掷剑	-10330
摩陂	-10331
擅自	-10332
操亲	-10333
操召	-10334
操唤	-10335
操得	-10336
操执	-10337
操营	-10338
操虽	-10339
擐甲	-10340
收功	-10341
收取	-10342
收回	-10343
收泪	-10344
攻围	-10345
攻杀	-10346
放之	-10347
放他	-10348
放炮	-10349
放行	-10350
政事	-10351
故作	-10352
故借	-10353
故旧	-10354
故留	-10355
敌兵	-10356
救你	-10357
救回	-10358
教去	-10359
敢去	-10360
敢烦	-10361
敢问	-10362
数声	-10363
数处	-10364
数步	-10365
数番	-10366
数阵	-10367
整肃	-10368
斗间	-10369
料我	-10370
斟酒	-10371
斩使	-10372
斩蛇	-10373
断桥	-10374
方休	-10375
方出	-10376
方圆	-10377
旋风	-10378
无亲	-10379
无以	-10380
无地	-10381
无好	-10382
无情	-10383
无穷	-10384
既为	-10385
既受	-10386
既无	-10387
既是	-10388
既然	-10389
既知	-10390
既破	-10391
日暮	-10392
日甚	-10393
日间	-10394
旧路	-10395
早回	-10396
时也	-10397
时候	-10398
昆仲	-10399
明珠	-10400
明言	-10401
昏暗	-10402
易取	-10403
春暖	-10404
是山	-10405
是非	-10406
晓夜	-10407
暂且	-10408
暂住	-10409
暗取	-10410
暗合	-10411
暗地	-10412
暗藏	-10413
暮類	-10414
暴虐	-10415
曩者	-10416
更以	-10417
更无	-10418
曹熊	-10419
曹羲	-10420
曹节	-10421
曾有	-10422
曾言	-10423
有五	-10424
有先	-10425
有十	-10426
有司	-10427
有疾	-10428
有角	-10429
有负	-10430
有难	-10431
服众	-10432
服罪	-10433
朝臣	-10434
未也	-10435
未几	-10436
未回	-10437
未安	-10438
未晚	-10439
未立	-10440
未至	-10441
未获	-10442
未识	-10443
未遇	-10444
未闻	-10445
本当	-10446
术曰	-10447
朱治	-10448
杀于	-10449
杀父	-10450
杀身	-10451
李封	-10452
李暹	-10453
李鹏	-10454
村中	-10455
杜远	-10456
束发	-10457
束草	-10458
来召	-10459
来归	-10460
来往	-10461
来接	-10462
来敌	-10463
来问	-10464
杨琦	-10465
杨祚	-10466
极易	-10467
极是	-10468
极有	-10469
枉驾	-10470
果能	-10471
枝箭	-10472
枪法	-10473
枯渴	-10474
枷锁	-10475
某去	-10476
某自	-10477
某虽	-10478
某非	-10479
柴堆	-10480
柴薪	-10481
根本	-10482
桓灵	-10483
桥梁	-10484
梁畿	-10485
梦见	-10486
检看	-10487
植曰	-10488
榜文	-10489
榻上	-10490
横枪	-10491
樵夫	-10492
欲图	-10493
欲用	-10494
欲要	-10495
欲诛	-10496
欲还	-10497
歌声	-10498
歌舞	-10499
正位	-10500
正可	-10501
正思	-10502
正赶	-10503
此名	-10504
此因	-10505
此山	-10506
此易	-10507
此正	-10508
此老	-10509
此论	-10510
步入	-10511
武功	-10512
武卫	-10513
武略	-10514
死也	-10515
死亡	-10516
死亦	-10517
死命	-10518
死守	-10519
死据	-10520
死生	-10521
残军	-10522
段煨	-10523
殿前	-10524
殿门	-10525
毁书	-10526
毒蛇	-10527
比能	-10528
毕轨	-10529
民强	-10530
民望	-10531
民皆	-10532
气概	-10533
气象	-10534
水上	-10535
水不	-10536
水之	-10537
水兵	-10538
水手	-10539
水淹	-10540
水火	-10541
水镜	-10542
永为	-10543
求亲	-10544
求免	-10545
求其	-10546
求贤	-10547
求问	-10548
汉之	-10549
汜妻	-10550
汝且	-10551
汝亦	-10552
汝以	-10553
汝耶	-10554
汝虽	-10555
汝要	-10556
汝试	-10557
汝辈	-10558
汹涌	-10559
沈莹	-10560
沟壑	-10561
河间	-10562
法令	-10563
泣而	-10564
泾县	-10565
洞口	-10566
洮西	-10567
洱河	-10568
流泪	-10569
流落	-10570
消遣	-10571
涪江	-10572
深处	-10573
深责	-10574
混杀	-10575
清平	-10576
渊曰	-10577
渐退	-10578
渡了	-10579
渭桥	-10580
滔天	-10581
满城	-10582
满天	-10583
满座	-10584
潘浚	-10585
潜入	-10586
火德	-10587
火攻	-10588
灭楚	-10589
炎曰	-10590
炎热	-10591
点视	-10592
点钢	-10593
烈焰	-10594
烧绝	-10595
焰硝	-10596
煮酒	-10597
爱民	-10598
爵赏	-10599
父之	-10600
父曰	-10601
爽曰	-10602
牌印	-10603
牙门	-10604
牛酒	-10605
物件	-10606
特以	-10607
特命	-10608
犒劳	-10609
犯之	-10610
犯界	-10611
狭处	-10612
狼心	-10613
狼狈	-10614
猖狂	-10615
猪羊	-10616
献捷	-10617
献首	-10618
猿臂	-10619
玄孙	-10620
玉泉	-10621
王侯	-10622
王则	-10623
王匡	-10624
王昶	-10625
王真	-10626
王者	-10627
王莽	-10628
现有	-10629
理宜	-10630
琪曰	-10631
瑜命	-10632
瓘曰	-10633
甘心	-10634
甚严	-10635
甚好	-10636
生于	-10637
生矣	-10638
用命	-10639
用智	-10640
用药	-10641
用铁	-10642
用长	-10643
田畴	-10644
画字	-10645
留住	-10646
略战	-10647
畿曰	-10648
疆土	-10649
疆场	-10650
疏失	-10651
疑心	-10652
疮口	-10653
病亡	-10654
病人	-10655
病已	-10656
病笃	-10657
病者	-10658
痛哉	-10659
痛打	-10660
瘴气	-10661
白日	-10662
白浪	-10663
白衣	-10664
百般	-10665
的是	-10666
皆以	-10667
皆听	-10668
皆惊	-10669
皆欲	-10670
皆由	-10671
皆知	-10672
盔缨	-10673
盖地	-10674
目不	-10675
盱眙	-10676
直杀	-10677
直来	-10678
直赶	-10679
相合	-10680
相抱	-10681
相接	-10682
相敌	-10683
相敬	-10684
相济	-10685
相约	-10686
相继	-10687
相访	-10688
相辅	-10689
相辞	-10690
相通	-10691
相逢	-10692
省亲	-10693
看见	-10694
真个	-10695
真实	-10696
着一	-10697
着慌	-10698
睁圆	-10699
知彼	-10700
知有	-10701
知遇	-10702
石上	-10703
石子	-10704
石苞	-10705
砍开	-10706
破也	-10707
破指	-10708
破矣	-10709
硫黄	-10710
碑文	-10711
磐河	-10712
示之	-10713
祈禳	-10714
祝毕	-10715
神算	-10716
神色	-10717
祭旗	-10718
祭物	-10719
禁军	-10720
禁止	-10721
私书	-10722
私宅	-10723
秋月	-10724
秦宓	-10725
秦晋	-10726
称善	-10727
称羡	-10728
程秉	-10729
稍有	-10730
窃闻	-10731
窥之	-10732
立在	-10733
竹帛	-10734
笨酌	-10735
第六	-10736
筑城	-10737
筵上	-10738
管宁	-10739
箭上	-10740
篡夺	-10741
篡窃	-10742
精熟	-10743
素著	-10744
紧随	-10745
累世	-10746
繇曰	-10747
约于	-10748
约战	-10749
纪曰	-10750
纳下	-10751
纵令	-10752
纵兵	-10753
纵有	-10754
线缝	-10755
细述	-10756
绍以	-10757
绍喜	-10758
绍魏	-10759
结怨	-10760
绕河	-10761
绝无	-10762
绣曰	-10763
缄口	-10764
罡星	-10765
罪也	-10766
羌王	-10767
美事	-10768
美而	-10769
羕曰	-10770
群下	-10771
群凶	-10772
老迈	-10773
而为	-10774
而从	-10775
而又	-10776
而就	-10777
而成	-10778
而接	-10779
而攻	-10780
而欲	-10781
而止	-10782
而视	-10783
耳畔	-10784
耳边	-10785
肃乃	-10786
肯从	-10787
胆寒	-10788
背上	-10789
背水	-10790
胜于	-10791
胜则	-10792
胜曰	-10793
胡济	-10794
胡轸	-10795
胤曰	-10796
能也	-10797
脱下	-10798
腐儒	-10799
腰悬	-10800
臣亮	-10801
臣今	-10802
臣敢	-10803
臣有	-10804
臣父	-10805
臣请	-10806
臣非	-10807
自代	-10808
自安	-10809
自投	-10810
自杀	-10811
自起	-10812
自降	-10813
至尊	-10814
至急	-10815
至晓	-10816
致令	-10817
芳林	-10818
苍龙	-10819
苏顒	-10820
若令	-10821
若到	-10822
若待	-10823
若破	-10824
英俊	-10825
范蠡	-10826
茅塞	-10827
茫茫	-10828
荀恺	-10829
荆楚	-10830
草庐	-10831
草诏	-10832
荐之	-10833
荐书	-10834
莫不	-10835
落凤	-10836
董妃	-10837
董重	-10838
蒋济	-10839
薛礼	-10840
藏吏	-10841
虎体	-10842
虎侯	-10843
虎添	-10844
虎狼	-10845
虎穴	-10846
虑哉	-10847
虚作	-10848
虚名	-10849
虚拽	-10850
虚立	-10851
虬髯	-10852
虽多	-10853
虽能	-10854
蚁聚	-10855
蛮将	-10856
蜀军	-10857
蜀地	-10858
血刃	-10859
血气	-10860
行人	-10861
行李	-10862
行走	-10863
衔枚	-10864
衣之	-10865
衣袍	-10866
表到	-10867
被维	-10868
被诛	-10869
袭取	-10870
袭吾	-10871
裁之	-10872
裴绪	-10873
裸衣	-10874
褚曰	-10875
西羌	-10876
要与	-10877
要他	-10878
要我	-10879
覆姓	-10880
见于	-10881
见公	-10882
见势	-10883
见教	-10884
见权	-10885
见母	-10886
见者	-10887
见识	-10888
见说	-10889
见责	-10890
观毕	-10891
视事	-10892
解投	-10893
解甲	-10894
解衣	-10895
解闷	-10896
言不	-10897
誓曰	-10898
计曰	-10899
计穷	-10900
讨汝	-10901
让等	-10902
议立	-10903
许田	-10904
许诸	-10905
许诺	-10906
诈言	-10907
诉与	-10908
试之	-10909
诚为	-10910
诚恐	-10911
话来	-10912
诞曰	-10913
误我	-10914
说我	-10915
说犹	-10916
诸子	-10917
诸臣	-10918
读毕	-10919
谁为	-10920
谁肯	-10921
谄佞	-10922
谋也	-10923
谗言	-10924
谦让	-10925
谮曰	-10926
负所	-10927
败阵	-10928
贱妾	-10929
贼寇	-10930
贾逵	-10931
赌赛	-10932
赏军	-10933
赚我	-10934
走到	-10935
走得	-10936
走的	-10937
走路	-10938
走马	-10939
赴任	-10940
赵弘	-10941
赶入	-10942
起义	-10943
跋扈	-10944
跟着	-10945
路径	-10946
躁暴	-10947
身一	-10948
身亡	-10949
轩昂	-10950
轻恕	-10951
辅国	-10952
辞帝	-10953
边洪	-10954
过失	-10955
过尽	-10956
运石	-10957
运赴	-10958
近城	-10959
还吴	-10960
这番	-10961
这般	-10962
进军	-10963
进贡	-10964
远望	-10965
远虑	-10966
远行	-10967
连叫	-10968
连输	-10969
连锁	-10970
迟缓	-10971
追急	-10972
退出	-10973
退步	-10974
送于	-10975
送回	-10976
送女	-10977
送归	-10978
逃奔	-10979
选一	-10980
逊谢	-10981
逐一	-10982
递与	-10983
通红	-10984
速去	-10985
速回	-10986
速速	-10987
造成	-10988
遂出	-10989
遂取	-10990
遂回	-10991
遂投	-10992
遂拨	-10993
遂放	-10994
遂教	-10995
遂曰	-10996
遂自	-10997
遇见	-10998
道中	-10999
遗嘱	-11000
遣子	-11001
遣将	-11002
避于	-11003
那个	-11004
邯郸	-11005
郁闷	-11006
郑伦	-11007
郑玄	-11008
郡主	-11009
部军	-11010
酌酒	-11011
酒后	-11012
酒醉	-11013
醉卧	-11014
钟提	-11015
钧命	-11016
铁戟	-11017
铁索	-11018
铁锤	-11019
销金	-11020
镇南	-11021
长大	-11022
长星	-11023
长曰	-11024
长水	-11025
长短	-11026
门上	-11027
门内	-11028
闲住	-11029
闻令	-11030
闻奏	-11031
闻得	-11032
闻者	-11033
闻说	-11034
阜曰	-11035
队里	-11036
阳人	-11037
阳侯	-11038
阳城	-11039
阵后	-11040
阵来	-11041
阵门	-11042
阻挡	-11043
阿多	-11044
阿附	-11045
陆地	-11046
陈孙	-11047
陈就	-11048
陈矫	-11049
降卒	-11050
降旗	-11051
降贼	-11052
陷了	-11053
随征	-11054
随我	-11055
随着	-11056
隔岸	-11057
隔江	-11058
难与	-11059
难逃	-11060
雄师	-11061
雄略	-11062
雒县	-11063
雕弓	-11064
雪地	-11065
雾散	-11066
青罗	-11067
青衣	-11068
非吾	-11069
面皮	-11070
鞍辔	-11071
鞭挞	-11072
韦曰	-11073
韩嵩	-11074
项下	-11075
顺天	-11076
顺曰	-11077
顿开	-11078
预曰	-11079
额曰	-11080
风吹	-11081
风起	-11082
飘荡	-11083
飞去	-11084
飞天	-11085
飞砂	-11086
食禄	-11087
饥色	-11088
饿死	-11089
香花	-11090
香饵	-11091
马亦	-11092
马休	-11093
马尽	-11094
马至	-11095
驰骤	-11096
驱驾	-11097
驾舟	-11098
驾船	-11099
高枕	-11100
高贤	-11101
高陵	-11102
髦曰	-11103
魏武	-11104
鱼入	-11105
鲜明	-11106
黄琬	-11107
黑夜	-11108
齐到	-11109
齐起	-11110
,——	-11111
▁丁奉	-11112
▁先主	-11113
▁操见	-11114
▁数日	-11115
▁正说	-11116
▁武侯	-11117
▁袁绍	-11118
▁钟会	-11119
一个个	-11120
一个是	-11121
一人乃	-11122
一人去	-11123
一十二	-11124
一手执	-11125
一枝军	-11126
一枪搠	-11127
一路取	-11128
一面将	-11129
一面教	-11130
丁奉曰	-11131
三个月	-11132
三四十	-11133
三日内	-11134
三百六	-11135
三百里	-11136
下书人	-11137
不一时	-11138
不十合	-11139
不可去	-11140
不可追	-11141
不在此	-11142
不多时	-11143
不如去	-11144
不容诛	-11145
不尽言	-11146
不必多	-11147
不战而	-11148
不敢动	-11149
不敢言	-11150
不敢近	-11151
不数里	-11152
不杀之	-11153
不杀汝	-11154
不知其	-11155
不知所	-11156
不移时	-11157
不能出	-11158
不能容	-11159
不能进	-11160
不若且	-11161
与东吴	-11162
与二将	-11163
与吾有	-11164
与夫人	-11165
与张辽	-11166
与马超	-11167
与魏延	-11168
且勿言	-11169
且玻徊	-11170
丞相令	-11171
丞相府	-11172
个寨栅	-11173
中军帐	-11174
中计矣	-11175
临行时	-11176
为上计	-11177
为世子	-11178
为参军	-11179
为司空	-11180
为太傅	-11181
为将者	-11182
为庶人	-11183
为疑兵	-11184
为皇后	-11185
为相国	-11186
为肉泥	-11187
为谋士	-11188
为长史	-11189
主公宜	-11190
举大事	-11191
乃东吴	-11192
乃作书	-11193
乃兵家	-11194
乃姜维	-11195
乃孙权	-11196
乃张飞	-11197
乃问曰	-11198
久后必	-11199
久必为	-11200
之上坐	-11201
之功也	-11202
之大患	-11203
之族弟	-11204
之策也	-11205
之过也	-11206
乌桓触	-11207
乌程侯	-11208
乘此时	-11209
了一程	-11210
了半晌	-11211
了玄德	-11212
事急矣	-11213
事陛下	-11214
二人入	-11215
二人出	-11216
二十人	-11217
二小将	-11218
于后堂	-11219
于将军	-11220
于山林	-11221
于山顶	-11222
于府中	-11223
于此地	-11224
于禁曰	-11225
于禁见	-11226
于袁绍	-11227
于长安	-11228
于阶下	-11229
互相争	-11230
五六十	-11231
五百骑	-11232
人报入	-11233
人皆言	-11234
今主上	-11235
今何不	-11236
今吴侯	-11237
今孙权	-11238
今幸得	-11239
今玄德	-11240
今皇叔	-11241
今马超	-11242
今魏兵	-11243
今魏王	-11244
从旱路	-11245
令人于	-11246
令人往	-11247
令众军	-11248
令关兴	-11249
令军马	-11250
令刘备	-11251
令庞德	-11252
令曹仁	-11253
令武士	-11254
以实告	-11255
以愚意	-11256
以金帛	-11257
伏两军	-11258
伏兵于	-11259
伏路军	-11260
伐刘表	-11261
众人曰	-11262
众军士	-11263
众皆曰	-11264
会猎于	-11265
伤不已	-11266
但不知	-11267
何不速	-11268
何故欲	-11269
作准备	-11270
使云长	-11271
使人来	-11272
使张辽	-11273
使张飞	-11274
便传令	-11275
便差人	-11276
俊焙庠	-11277
倘吴兵	-11278
倘曹兵	-11279
倘曹操	-11280
元绍曰	-11281
入冀州	-11282
入相府	-11283
八十余	-11284
八阵图	-11285
公何不	-11286
公可速	-11287
关公乃	-11288
关公急	-11289
关某也	-11290
兴仁义	-11291
兵不至	-11292
其余各	-11293
其大如	-11294
冀州牧	-11295
再拜而	-11296
写书与	-11297
军三千	-11298
军士多	-11299
军士曰	-11300
凉等处	-11301
出南门	-11302
出汉中	-11303
出箕谷	-11304
出迎接	-11305
出马曰	-11306
分两头	-11307
刘将军	-11308
刘璋曰	-11309
刘璝曰	-11310
则东吴	-11311
到半路	-11312
到城下	-11313
到徐州	-11314
到江边	-11315
前有一	-11316
副都督	-11317
动三军	-11318
动干戈	-11319
勿忧虑	-11320
北门外	-11321
十七岁	-11322
十万兵	-11323
十二年	-11324
十五阵	-11325
十余丈	-11326
卓笑曰	-11327
卖主求	-11328
南彝陵	-11329
博望城	-11330
卧不安	-11331
卧榻前	-11332
即下令	-11333
即下诏	-11334
即使人	-11335
即差人	-11336
即降诏	-11337
却不知	-11338
去救应	-11339
又一日	-11340
又使人	-11341
又奏曰	-11342
双股剑	-11343
反不如	-11344
反为所	-11345
反受其	-11346
取桂阳	-11347
取纸笔	-11348
取襄阳	-11349
取长安	-11350
取雍州	-11351
取雒城	-11352
只三合	-11353
只不出	-11354
只得将	-11355
只恐有	-11356
只见一	-11357
可乘其	-11358
可以保	-11359
可兴矣	-11360
可图也	-11361
可定也	-11362
可引兵	-11363
可破矣	-11364
名正言	-11365
吕布来	-11366
吕范曰	-11367
听其言	-11368
吴子兰	-11369
吾不能	-11370
吾令汝	-11371
吾军心	-11372
吾固知	-11373
吾在此	-11374
吾宁死	-11375
吾明日	-11376
吾欲令	-11377
吾父子	-11378
吾自幼	-11379
告布曰	-11380
周泰曰	-11381
命左右	-11382
哭告曰	-11383
哭拜于	-11384
哭拜曰	-11385
唤王平	-11386
嘱之曰	-11387
嘱付曰	-11388
四员将	-11389
四百余	-11390
四面皆	-11391
回新野	-11392
回汉中	-11393
在关上	-11394
在城内	-11395
在此处	-11396
在河北	-11397
在淮南	-11398
地之才	-11399
坐而待	-11400
城中兵	-11401
城中有	-11402
城亭侯	-11403
城门外	-11404
处而走	-11405
备一身	-11406
复引兵	-11407
多时矣	-11408
大王可	-11409
奇才也	-11410
奉二嫂	-11411
如反掌	-11412
如雨发	-11413
如飞蝗	-11414
如骤雨	-11415
姜维引	-11416
嫁刘备	-11417
子子孙	-11418
孔明又	-11419
孔明急	-11420
孔明请	-11421
孔融曰	-11422
守江夏	-11423
守祁山	-11424
安天下	-11425
寇将军	-11426
寡不敌	-11427
封孙权	-11428
将于吉	-11429
将何策	-11430
将军却	-11431
将军既	-11432
将孟获	-11433
将才也	-11434
小霸王	-11435
尚书事	-11436
山坡后	-11437
山头上	-11438
山脚下	-11439
山越岭	-11440
山顶上	-11441
岂可以	-11442
岂可因	-11443
崔州平	-11444
州平曰	-11445
差人去	-11446
布大喜	-11447
帅字旗	-11448
带多少	-11449
常有杀	-11450
应声曰	-11451
引三百	-11452
引从者	-11453
引兵于	-11454
引兵去	-11455
引兵往	-11456
引兵攻	-11457
引兵救	-11458
引军到	-11459
张二公	-11460
张二弟	-11461
张将军	-11462
张绣曰	-11463
张苞也	-11464
张飞便	-11465
归新野	-11466
往东吴	-11467
往河北	-11468
待蜀兵	-11469
徐公明	-11470
徐州来	-11471
徐州牧	-11472
徐盛曰	-11473
得一计	-11474
得性命	-11475
心不足	-11476
必乘虚	-11477
必杀之	-11478
必死于	-11479
忽听的	-11480
忽报有	-11481
忽曹操	-11482
恐玄德	-11483
惊视之	-11484
惊讶曰	-11485
惟明公	-11486
愕然曰	-11487
愿明公	-11488
慢军心	-11489
我和你	-11490
我等是	-11491
战不利	-11492
战不到	-11493
战百胜	-11494
战马超	-11495
所擒矣	-11496
托之重	-11497
承父兄	-11498
承露盘	-11499
抄小路	-11500
投袁术	-11501
护卫使	-11502
报孙权	-11503
报玄德	-11504
押了字	-11505
拥而来	-11506
排銮驾	-11507
探消息	-11508
提大军	-11509
插旌旗	-11510
搭上箭	-11511
操亲自	-11512
操引军	-11513
收军回	-11514
攻冀州	-11515
攻吕布	-11516
放冷箭	-11517
救火者	-11518
数人皆	-11519
数十员	-11520
数千辆	-11521
斩魏延	-11522
施礼毕	-11523
无不胜	-11524
无及矣	-11525
无数里	-11526
时邓艾	-11527
是何意	-11528
是如何	-11529
曹孟德	-11530
曹操于	-11531
曹操必	-11532
有一女	-11533
有一妹	-11534
有一将	-11535
有何不	-11536
有天下	-11537
有此意	-11538
有此败	-11539
有细作	-11540
有诗曰	-11541
有谋略	-11542
望南安	-11543
望子敬	-11544
未可伐	-11545
未尝不	-11546
未知其	-11547
杀出城	-11548
杀吕布	-11549
杀连天	-11550
权闻言	-11551
李典曰	-11552
条大路	-11553
来人曰	-11554
来搦战	-11555
来相见	-11556
来见操	-11557
杨仪等	-11558
杨松曰	-11559
松大喜	-11560
果不出	-11561
果然是	-11562
某二人	-11563
某有一	-11564
某素知	-11565
某自有	-11566
欲起兵	-11567
正可乘	-11568
正斗间	-11569
此一路	-11570
此人也	-11571
此人曾	-11572
此何人	-11573
此所谓	-11574
武皇帝	-11575
死无恨	-11576
水寨中	-11577
汉将军	-11578
汝东吴	-11579
汝父子	-11580
油柜车	-11581
法正为	-11582
洪福也	-11583
流涕曰	-11584
涪水关	-11585
濡须坞	-11586
点钢矛	-11587
然后图	-11588
然而起	-11589
玄德到	-11590
玄德留	-11591
玄德请	-11592
率大兵	-11593
率大军	-11594
王司徒	-11595
王甫曰	-11596
瑜笑曰	-11597
用其言	-11598
用反间	-11599
用此计	-11600
皇甫郦	-11601
直如此	-11602
瞒不过	-11603
知其诈	-11604
知曹操	-11605
知玄德	-11606
石头城	-11607
破袁绍	-11608
破马超	-11609
秘书郎	-11610
称帝号	-11611
称谢曰	-11612
程普等	-11613
立一人	-11614
立大功	-11615
笨酌髟	-11616
第一个	-11617
第一功	-11618
第一屯	-11619
第二个	-11620
第二队	-11621
等商议	-11622
等诸将	-11623
策大喜	-11624
米仓山	-11625
绍怒曰	-11626
经天纬	-11627
统笑曰	-11628
维大喜	-11629
维大怒	-11630
罾口川	-11631
老人曰	-11632
而不可	-11633
而叹曰	-11634
而擒之	-11635
而问之	-11636
自乱矣	-11637
自成都	-11638
至二更	-11639
至半夜	-11640
至江夏	-11641
艾笑曰	-11642
若不还	-11643
若丞相	-11644
若其不	-11645
若蜀兵	-11646
荆州兵	-11647
荆州牧	-11648
落马下	-11649
蔡瑁曰	-11650
蜀兵已	-11651
蜀兵必	-11652
蜀兵来	-11653
蜀兵皆	-11654
蜀寨时	-11655
蜀阵中	-11656
行参军	-11657
行此计	-11658
被吕布	-11659
被魏兵	-11660
被魏延	-11661
裹黄巾	-11662
襄阳人	-11663
西凉军	-11664
西曹掾	-11665
西洱河	-11666
要去处	-11667
见先主	-11668
见刘璋	-11669
见后主	-11670
见城上	-11671
见将军	-11672
言不可	-11673
言未讫	-11674
许多时	-11675
设宴于	-11676
误了我	-11677
说孔明	-11678
说曹操	-11679
诸葛尚	-11680
赍印绶	-11681
赍诏至	-11682
赞军机	-11683
赵累曰	-11684
起兵攻	-11685
起谢曰	-11686
身之地	-11687
轲比能	-11688
边杀来	-11689
迎玄德	-11690
运粮草	-11691
还许都	-11692
进兵攻	-11693
退入城	-11694
逃回见	-11695
逆不道	-11696
逊笑曰	-11697
逍遥津	-11698
遂分兵	-11699
遂叱退	-11700
遂连夜	-11701
道荣曰	-11702
遣人去	-11703
遣副将	-11704
遥望见	-11705
郭二人	-11706
郭太后	-11707
郭奉孝	-11708
都亭侯	-11709
鄢陵侯	-11710
长二尺	-11711
问计于	-11712
闻孔明	-11713
阵圆处	-11714
陆将军	-11715
陆逊曰	-11716
陛下圣	-11717
面目见	-11718
韩福曰	-11719
顿首曰	-11720
领兵到	-11721
风骤起	-11722
饮宴间	-11723
饮数杯	-11724
马谡曰	-11725
马超兵	-11726
骑校尉	-11727
骑白马	-11728
魏兵到	-11729
魏兵皆	-11730
魏延为	-11731
魏延在	-11732
魏延解	-11733
魏王宫	-11734
黄承彦	-11735
齑粉矣	-11736
????	-11737
▁忽一日	-11738
一声响亮	-11739
一声梆子	-11740
一家老小	-11741
一寸五分	-11742
一彪军从	-11743
一彪军马	-11744
一拥而入	-11745
一枝人马	-11746
一枪刺倒	-11747
一箭射死	-11748
一鼓而下	-11749
一齐拥出	-11750
一齐掩杀	-11751
万弩齐发	-11752
三分天下	-11753
三百余里	-11754
三通鼓罢	-11755
三马同槽	-11756
上马而去	-11757
下寨已毕	-11758
不习水战	-11759
不共戴天	-11760
不分胜败	-11761
不可久留	-11762
不可出战	-11763
不可胜数	-11764
不可轻出	-11765
不如且回	-11766
不战而退	-11767
不敢不从	-11768
不敢出战	-11769
不敢来追	-11770
不敢近前	-11771
不杀之恩	-11772
不知何往	-11773
不能下咽	-11774
不能得出	-11775
不能抵敌	-11776
不许入朝	-11777
不识地理	-11778
不足为虑	-11779
与夏侯惇	-11780
东吴遣使	-11781
东郡太守	-11782
丞相新亡	-11783
两军会于	-11784
两军齐出	-11785
两川之地	-11786
为他人所	-11787
为前将军	-11788
为国除害	-11789
为左将军	-11790
乃中山靖	-11791
乃张飞也	-11792
乃赵云也	-11793
久闻大名	-11794
乔国老曰	-11795
乘势攻击	-11796
乘势追之	-11797
乘间图之	-11798
书不尽言	-11799
事不宜迟	-11800
事已急矣	-11801
事已至此	-11802
事母至孝	-11803
二人大喜	-11804
二位夫人	-11805
二十余骑	-11806
二十只船	-11807
二夫人曰	-11808
二百余人	-11809
于壁衣中	-11810
于是二人	-11811
五十余合	-11812
五十余日	-11813
五千精兵	-11814
些少军士	-11815
今日如何	-11816
令人探之	-11817
令夏侯惇	-11818
以吾观之	-11819
以安民心	-11820
以退蜀兵	-11821
伏兵尽出	-11822
众将急救	-11823
众将领命	-11824
何足惧哉	-11825
使者先回	-11826
保护老小	-11827
倾国之兵	-11828
兄弟之情	-11829
先取荆州	-11830
克日兴师	-11831
入见玄德	-11832
八十三万	-11833
六丁六甲	-11834
共图大事	-11835
关公依言	-11836
关公怒曰	-11837
养成气力	-11838
再三劝解	-11839
再三相劝	-11840
再作商议	-11841
军士报知	-11842
军马钱粮	-11843
冲杀一阵	-11844
凤雏先生	-11845
出城投降	-11846
出寨迎接	-11847
出师伐魏	-11848
出马搦战	-11849
刘备敌手	-11850
刘玄德乃	-11851
利在急战	-11852
刺于马下	-11853
前来接应	-11854
劳军已毕	-11855
匹夫之勇	-11856
匹马单枪	-11857
十万枝箭	-11858
南郡太守	-11859
危在旦夕	-11860
即修书付	-11861
即时传令	-11862
却说赵云	-11863
原来周瑜	-11864
原来孔明	-11865
原来张飞	-11866
取了西川	-11867
受了计策	-11868
受计去了	-11869
古风一篇	-11870
只在旦夕	-11871
只得从之	-11872
只得弃了	-11873
只见城上	-11874
只见火光	-11875
只见蛮兵	-11876
只见蜀兵	-11877
可为英雄	-11878
可以埋伏	-11879
可速进兵	-11880
各自逃生	-11881
名不虚传	-11882
名正言顺	-11883
后主大喜	-11884
后杜工部	-11885
向导官曰	-11886
吾当亲往	-11887
吾无忧矣	-11888
吾自有计	-11889
呈上密书	-11890
告玄德曰	-11891
哭倒于地	-11892
唤诸将曰	-11893
商议此事	-11894
善保龙体	-11895
四世三公	-11896
四更造饭	-11897
四面八方	-11898
四面围住	-11899
回到大寨	-11900
回顾左右	-11901
因此大败	-11902
在敌楼上	-11903
坐于帐中	-11904
坠于马下	-11905
城中无粮	-11906
城中火起	-11907
复出祁山	-11908
夏侯惇曰	-11909
夏侯驸马	-11910
夜观乾象	-11911
夜观天文	-11912
大事去矣	-11913
大半皆是	-11914
大战一场	-11915
大犒三军	-11916
大队人马	-11917
天下幸甚	-11918
天子明诏	-11919
天降大雪	-11920
太史慈曰	-11921
太守牵弘	-11922
太守王颀	-11923
夫人所生	-11924
头一个汉	-11925
头戴纶巾	-11926
奋力冲突	-11927
奋力向前	-11928
奋力死战	-11929
奏准后主	-11930
奏知天子	-11931
如何对答	-11932
如其不从	-11933
如此行之	-11934
子子孙孙	-11935
孔明回到	-11936
孔明大惊	-11937
孔明接入	-11938
孔明答曰	-11939
孝景皇帝	-11940
孟德新书	-11941
孟获大喜	-11942
守门军士	-11943
安民已定	-11944
安民已毕	-11945
安营下寨	-11946
实为万幸	-11947
寨中火起	-11948
寻觅不见	-11949
寻路而走	-11950
将士之家	-11951
将计就计	-11952
小心在意	-11953
尘土冲天	-11954
尚与审配	-11955
尽皆升赏	-11956
尽皆挂孝	-11957
尽降其众	-11958
屯住军马	-11959
山谷之中	-11960
左右急救	-11961
差心腹人	-11962
布散流言	-11963
平北将军	-11964
年春二月	-11965
年春正月	-11966
并不出战	-11967
并力攻城	-11968
座上一人	-11969
开门投降	-11970
弃营而走	-11971
引一军从	-11972
引一千兵	-11973
引兵径到	-11974
引军出迎	-11975
引军来到	-11976
张飞赶来	-11977
强弓硬弩	-11978
当世英雄	-11979
录尚书事	-11980
径到城下	-11981
径取荆州	-11982
待为上宾	-11983
御林军马	-11984
心中大怒	-11985
心中大疑	-11986
心中甚喜	-11987
心中郁闷	-11988
心腹之人	-11989
必有伏兵	-11990
忠义之心	-11991
忽人报曰	-11992
忽报天子	-11993
忽然惊觉	-11994
思得一计	-11995
悔之何及	-11996
懿大惊曰	-11997
我死之后	-11998
我等皆是	-11999
截住厮杀	-12000
截其归路	-12001
截杀一阵	-12002
所骑之马	-12003
手摇羽扇	-12004
打将下来	-12005
扬州刺史	-12006
投华容道	-12007
折箭为誓	-12008
报入成都	-12009
披发跣足	-12010
抵当不住	-12011
拂袖而去	-12012
拆书视之	-12013
拍马向前	-12014
拍马赶来	-12015
招军买马	-12016
拜辞而去	-12017
拨回马走	-12018
拨马回走	-12019
拨马而回	-12020
拱手谢曰	-12021
挥刀来迎	-12022
挺枪来刺	-12023
挺枪骤马	-12024
授以密计	-12025
探听消息	-12026
推病不出	-12027
提刀上马	-12028
操令许褚	-12029
操大笑曰	-12030
操问其故	-12031
收兵回寨	-12032
收军回寨	-12033
收拾船只	-12034
收聚败兵	-12035
攻打樊城	-12036
散骑常侍	-12037
数万之众	-12038
数百余人	-12039
文武各官	-12040
文武商议	-12041
文武官员	-12042
斩蛇起义	-12043
斩首号令	-12044
旌旗蔽日	-12045
无可奈何	-12046
无名下将	-12047
无用之人	-12048
无谋之辈	-12049
昏倒于地	-12050
智勇足备	-12051
曹兵大乱	-12052
曹操奸计	-12053
有何良策	-12054
有勇无谋	-12055
有死而已	-12056
未得其人	-12057
未得其便	-12058
未敢轻动	-12059
未知胜负	-12060
杀上山来	-12061
杀下关来	-12062
杀之未迟	-12063
杀入城中	-12064
杀父之仇	-12065
杀牛宰马	-12066
来投曹操	-12067
来日决战	-12068
果有此事	-12069
桂阳三郡	-12070
歃血为盟	-12071
正在寨中	-12072
正赶之间	-12073
此是何人	-12074
死于马下	-12075
汝何人也	-12076
汝勿多言	-12077
江夏之兵	-12078
沓中屯田	-12079
沿江一带	-12080
活命之恩	-12081
浩浩荡荡	-12082
深有谋略	-12083
溺于酒色	-12084
火光大起	-12085
火起为号	-12086
烧绝栈道	-12087
父母妻子	-12088
片甲不回	-12089
特来投降	-12090
特来接应	-12091
献与丞相	-12092
玄德便教	-12093
玄德引关	-12094
玄德慌忙	-12095
玄德看了	-12096
玄德看毕	-12097
玄德视之	-12098
玄德问曰	-12099
玄德领命	-12100
生擒刘备	-12101
生死之交	-12102
用武之地	-12103
画成图本	-12104
白袍银铠	-12105
百万军中	-12106
百战百胜	-12107
皆斩于市	-12108
皇天后土	-12109
看了一遍	-12110
真当世之	-12111
砍为两段	-12112
祸不远矣	-12113
秋雨连绵	-12114
积草屯粮	-12115
立陈留王	-12116
立马阵前	-12117
端坐一人	-12118
笑而不答	-12119
筑起土城	-12120
箭如飞蝗	-12121
精兵五万	-12122
糜二夫人	-12123
紫虚上人	-12124
纵马挺枪	-12125
纵马提刀	-12126
细作报说	-12127
结连东吴	-12128
维大喜曰	-12129
罪不容诛	-12130
羞惭满面	-12131
耀武扬威	-12132
老母妻子	-12133
聚众谋士	-12134
背后有人	-12135
胜负不分	-12136
脚孔分墨	-12137
自取其祸	-12138
自回成都	-12139
自外而入	-12140
自相吞并	-12141
自相掩杀	-12142
自相残害	-12143
自统大军	-12144
苦谏不从	-12145
荀彧谏曰	-12146
荆州刺史	-12147
荆襄之众	-12148
荆襄之民	-12149
落荒而走	-12150
蜀主刘禅	-12151
蜀兵之后	-12152
蜀汉建兴	-12153
行军司马	-12154
行无数里	-12155
袁绍手下	-12156
西凉之兵	-12157
西凉军马	-12158
讨司马昭	-12159
诞大怒曰	-12160
诡计极多	-12161
说犹未了	-12162
诸将皆曰	-12163
诸葛亮之	-12164
诸葛子瑜	-12165
谁可为使	-12166
调练军马	-12167
谈笑自若	-12168
谓孔明曰	-12169
谓群臣曰	-12170
败军之将	-12171
贼势浩大	-12172
贼将休走	-12173
赏劳三军	-12174
赐以酒食	-12175
赚开城门	-12176
赵云出马	-12177
身带重伤	-12178
身长七尺	-12179
违令者斩	-12180
迤逦前进	-12181
退二十里	-12182
退后便走	-12183
送出城外	-12184
遮拦不住	-12185
邀入后堂	-12186
邓艾父子	-12187
郝昭病重	-12188
郭汜领兵	-12189
酒至数巡	-12190
重赏三军	-12191
金鼓齐鸣	-12192
镇东将军	-12193
长史杨仪	-12194
长子曹丕	-12195
长安去了	-12196
长水校尉	-12197
问众将曰	-12198
闻之大惊	-12199
阴云布合	-12200
阴平小路	-12201
陈仓道口	-12202
陈留王曰	-12203
陈说利害	-12204
降者无数	-12205
随后进发	-12206
雅丹丞相	-12207
青龙偃月	-12208
非丈夫也	-12209
非英雄也	-12210
面如冠玉	-12211
鞭挞士卒	-12212
顺流而下	-12213
须误了我	-12214
领了言语	-12215
领兵五千	-12216
领兵军官	-12217
领兵去了	-12218
领命去了	-12219
领计去了	-12220
飞奔前来	-12221
飞砂走石	-12222
马腾父子	-12223
马超英勇	-12224
骤马挺枪	-12225
高声大叫	-12226
魏主曹奂	-12227
魏兵方退	-12228
魏延领命	-12229
黄巾余党	-12230
鼓噪呐喊	-12231
龙骧将军	-12232
▁却说孟获	-12233
▁却说曹仁	-12234
▁却说李傕	-12235
▁却说袁术	-12236
▁却说郭淮	-12237
▁诸葛亮智	-12238
一彪军摆开	-12239
一彪军杀入	-12240
两路军杀出	-12241
两路军杀来	-12242
乃司马懿也	-12243
乃汉室宗亲	-12244
乃谓众将曰	-12245
乃魏之名将	-12246
于是司马懿	-12247
五百校刀手	-12248
以上宾之礼	-12249
伏于山谷中	-12250
传令教军士	-12251
公安傅士仁	-12252
刀斧手推出	-12253
勃然大怒曰	-12254
却说曹操在	-12255
厉声而言曰	-12256
孔明在山上	-12257
孔明大怒曰	-12258
孔明大惊曰	-12259
寻土人问之	-12260
引一千军去	-12261
战到三十合	-12262
折一人一骑	-12263
抚掌大笑曰	-12264
拥百万之众	-12265
更兼诸葛亮	-12266
有何面目见	-12267
望山路而走	-12268
次子司马昭	-12269
汉室可兴矣	-12270
燕人张翼德	-12271
王平分付曰	-12272
皆汉室宗亲	-12273
者不计其数	-12274
聚众将商议	-12275
聚文武商议	-12276
见魏兵势大	-12277
赵云引一军	-12278
长子司马师	-12279
顾谓众将曰	-12280
马岱分付曰	-12281
......	-12282
一枪刺落马下	-12283
不知何处兵来	-12284
不知何处去了	-12285
六郡八十一州	-12286
只宜深沟高垒	-12287
四面喊声大震	-12288
在此等候多时	-12289
天水太守王颀	-12290
孔明谓玄德曰	-12291
将计就计而行	-12292
张飞大喝一声	-12293
曹操性命如何	-12294
未知此人是谁	-12295
武士推出斩之	-12296
玄德急止之曰	-12297
经天纬地之才	-12298
背后喊声大震	-12299
西凉太守马腾	-12300
退三十里下寨	-12301
金城太守杨欣	-12302
陇西太守牵弘	-12303
首尾不能相顾	-12304
驱驾木牛流马	-12305
叱武士推出斩之	-12306
吾乃常山赵子龙也	-12307
!?	-12308
16	-12309
2)	-12310
7)	-12311
7.	-12312
8.	-12313
’。	-12314
▁会	-12315
▁公	-12316
▁帝	-12317
▁恪	-12318
▁战	-12319
▁方	-12320
▁昭	-12321
▁睿	-12322
▁破	-12323
▁策	-12324
】【	-12325
チ恕	-12326
一乘	-12327
一会	-12328
一停	-12329
一击	-12330
一副	-12331
一变	-12332
一国	-12333
一图	-12334
一境	-12335
一失	-12336
一婢	-12337
一宿	-12338
一寨	-12339
一屯	-12340
一山	-12341
一岁	-12342
一幅	-12343
一弩	-12344
一心	-12345
一木	-12346
一杯	-12347
一棒	-12348
一武	-12349
一盏	-12350
一盘	-12351
一目	-12352
一空	-12353
一笑	-12354
一览	-12355
一角	-12356
一课	-12357
一起	-12358
一遭	-12359
一醉	-12360
一龙	-12361
丁建	-12362
七分	-12363
七庙	-12364
七擒	-12365
七步	-12366
七盏	-12367
万勿	-12368
万匹	-12369
万望	-12370
三停	-12371
三卷	-12372
三四	-12373
三夜	-12374
三层	-12375
三弟	-12376
三思	-12377
三洞	-12378
三载	-12379
上作	-12380
上党	-12381
上厅	-12382
上合	-12383
上命	-12384
上坐	-12385
上坡	-12386
上建	-12387
上桥	-12388
上楼	-12389
上玉	-12390
上缚	-12391
上覆	-12392
下回	-12393
下定	-12394
下岭	-12395
下席	-12396
下得	-12397
下御	-12398
下桥	-12399
下用	-12400
下者	-12401
下视	-12402
下计	-12403
下辨	-12404
下问	-12405
不一	-12406
不亚	-12407
不会	-12408
不依	-12409
不保	-12410
不倦	-12411
不做	-12412
不免	-12413
不准	-12414
不妨	-12415
不守	-12416
不密	-12417
不尊	-12418
不建	-12419
不归	-12420
不忿	-12421
不惜	-12422
不拜	-12423
不断	-12424
不晓	-12425
不智	-12426
不有	-12427
不正	-12428
不毛	-12429
不求	-12430
不消	-12431
不生	-12432
不立	-12433
不竭	-12434
不纳	-12435
不肖	-12436
不背	-12437
不虞	-12438
不趋	-12439
不辱	-12440
不迭	-12441
不追	-12442
不间	-12443
与云	-12444
与儁	-12445
与布	-12446
与帝	-12447
与朕	-12448
与渊	-12449
与臣	-12450
与艾	-12451
与魏	-12452
专以	-12453
专制	-12454
专务	-12455
且到	-12456
且容	-12457
且教	-12458
且有	-12459
且歇	-12460
且请	-12461
世人	-12462
世矣	-12463
东下	-12464
东取	-12465
东有	-12466
丢下	-12467
两傍	-12468
两全	-12469
两兵	-12470
两国	-12471
两寨	-12472
两岸	-12473
两把	-12474
两月	-12475
两朝	-12476
两郡	-12477
两都	-12478
两骑	-12479
严兵	-12480
严纲	-12481
丧于	-12482
个字	-12483
中外	-12484
中平	-12485
中涓	-12486
中风	-12487
临亡	-12488
临难	-12489
丹凤	-12490
丹墀	-12491
为不	-12492
为中	-12493
为乐	-12494
为仇	-12495
为今	-12496
为儿	-12497
为兄	-12498
为助	-12499
为叔	-12500
为妙	-12501
为婿	-12502
为安	-12503
为宣	-12504
为幸	-12505
为次	-12506
为汝	-12507
为臣	-12508
为龙	-12509
主持	-12510
主灯	-12511
主见	-12512
举起	-12513
乃为	-12514
乃亲	-12515
乃叱	-12516
乃告	-12517
乃往	-12518
乃得	-12519
乃有	-12520
乃移	-12521
乃说	-12522
久不	-12523
久停	-12524
久后	-12525
久战	-12526
久留	-12527
久镇	-12528
义也	-12529
义渠	-12530
之一	-12531
之世	-12532
之会	-12533
之利	-12534
之北	-12535
之原	-12536
之变	-12537
之器	-12538
之固	-12539
之国	-12540
之夫	-12541
之学	-12542
之安	-12543
之弓	-12544
之强	-12545
之怒	-12546
之怨	-12547
之明	-12548
之服	-12549
之权	-12550
之欲	-12551
之死	-12552
之比	-12553
之瑞	-12554
之盛	-12555
之矣	-12556
之粮	-12557
之能	-12558
之节	-12559
之词	-12560
之象	-12561
之躯	-12562
之降	-12563
之风	-12564
乐宫	-12565
乐就	-12566
乘便	-12567
乘着	-12568
乘胜	-12569
九五	-12570
九里	-12571
乞命	-12572
也到	-12573
乡民	-12574
书到	-12575
书记	-12576
乱世	-12577
乱吾	-12578
乱射	-12579
乱矣	-12580
乱贼	-12581
争取	-12582
争战	-12583
事主	-12584
二兄	-12585
二客	-12586
二王	-12587
二罪	-12588
二里	-12589
二队	-12590
二颗	-12591
于世	-12592
于尊	-12593
于心	-12594
于怀	-12595
于水	-12596
于汉	-12597
于江	-12598
于糜	-12599
于道	-12600
亏得	-12601
云乃	-12602
云急	-12603
云谓	-12604
云集	-12605
五凤	-12606
五寨	-12607
五斗	-12608
五次	-12609
亡则	-12610
亡父	-12611
交付	-12612
交契	-12613
交情	-12614
交辉	-12615
交集	-12616
亦俱	-12617
亦出	-12618
亦各	-12619
亦将	-12620
亦自	-12621
京城	-12622
亭下	-12623
亮受	-12624
亮所	-12625
亲兄	-12626
亲去	-12627
亲女	-12628
亲捧	-12629
亲诣	-12630
人去	-12631
人夫	-12632
人将	-12633
人役	-12634
人所	-12635
人无	-12636
人耳	-12637
人语	-12638
人说	-12639
什物	-12640
仁者	-12641
今亦	-12642
今人	-12643
今先	-12644
今公	-12645
今反	-12646
今因	-12647
今天	-12648
今岁	-12649
今我	-12650
今朕	-12651
今某	-12652
今汝	-12653
今用	-12654
今绍	-12655
今蒙	-12656
仍前	-12657
仍回	-12658
仍复	-12659
从公	-12660
从地	-12661
从权	-12662
仓库	-12663
仓曰	-12664
他也	-12665
他往	-12666
他必	-12667
他是	-12668
付托	-12669
仙庄	-12670
代禀	-12671
令佗	-12672
令作	-12673
令刘	-12674
令取	-12675
令吴	-12676
令备	-12677
令守	-12678
令彼	-12679
令臣	-12680
以丧	-12681
以代	-12682
以刀	-12683
以制	-12684
以取	-12685
以定	-12686
以宾	-12687
以师	-12688
以弓	-12689
以愚	-12690
以擒	-12691
以敌	-12692
以显	-12693
以服	-12694
以杖	-12695
以枪	-12696
以某	-12697
以破	-12698
以私	-12699
以至	-12700
以讨	-12701
以赎	-12702
以遏	-12703
以金	-12704
以鸩	-12705
仰视	-12706
仲德	-12707
伍孚	-12708
伍延	-12709
伍琼	-12710
伏下	-12711
伏侍	-12712
伏剑	-12713
伏望	-12714
伏自	-12715
休慌	-12716
休言	-12717
休说	-12718
众位	-12719
会上	-12720
会接	-12721
会议	-12722
会饮	-12723
传与	-12724
传授	-12725
伤者	-12726
伦直	-12727
伯苗	-12728
伺隙	-12729
但备	-12730
但得	-12731
但是	-12732
但说	-12733
位极	-12734
低声	-12735
何可	-12736
何喜	-12737
何待	-12738
何曼	-12739
何独	-12740
何自	-12741
何至	-12742
何难	-12743
何颜	-12744
余兵	-12745
余杭	-12746
余者	-12747
作事	-12748
作何	-12749
作歌	-12750
作祸	-12751
作表	-12752
你且	-12753
你们	-12754
你甚	-12755
你这	-12756
佥曰	-12757
佯醉	-12758
佳节	-12759
佳酿	-12760
使备	-12761
使弟	-12762
使操	-12763
使来	-12764
使贼	-12765
侍从	-12766
侍卫	-12767
供奉	-12768
依其	-12769
依计	-12770
侥幸	-12771
侯选	-12772
便为	-12773
便以	-12774
便同	-12775
便宜	-12776
便引	-12777
便投	-12778
便跳	-12779
俊毙	-12780
俘长	-12781
保国	-12782
保汝	-12783
俞涉	-12784
信之	-12785
修德	-12786
修短	-12787
俯伏	-12788
俯首	-12789
俱发	-12790
俱曰	-12791
俱罚	-12792
候之	-12793
倾危	-12794
假意	-12795
做一	-12796
偶人	-12797
偶至	-12798
偶见	-12799
偷生	-12800
傍若	-12801
傩眨	-12802
催取	-12803
傲醣	-12804
儒生	-12805
兄今	-12806
兄言	-12807
充军	-12808
兆也	-12809
先君	-12810
先尝	-12811
先报	-12812
先据	-12813
先是	-12814
先有	-12815
先杀	-12816
先皇	-12817
先自	-12818
先见	-12819
先走	-12820
先起	-12821
先通	-12822
先除	-12823
入县	-12824
入堂	-12825
入奏	-12826
入洞	-12827
入白	-12828
入膏	-12829
入船	-12830
入谷	-12831
入贡	-12832
入辞	-12833
全尚	-12834
全师	-12835
全怿	-12836
全获	-12837
八卦	-12838
公不	-12839
公主	-12840
公勿	-12841
公宜	-12842
公当	-12843
公悌	-12844
公来	-12845
公真	-12846
公能	-12847
六七	-12848
六人	-12849
六十	-12850
六旬	-12851
共伐	-12852
共分	-12853
共成	-12854
共相	-12855
共知	-12856
共语	-12857
共起	-12858
关纯	-12859
兵乎	-12860
兵势	-12861
兵回	-12862
兵机	-12863
其使	-12864
其功	-12865
其可	-12866
其官	-12867
其形	-12868
其时	-12869
其毒	-12870
其洞	-12871
其职	-12872
其肉	-12873
其舌	-12874
其谶	-12875
其降	-12876
其风	-12877
其马	-12878
具朝	-12879
具述	-12880
典军	-12881
养兵	-12882
养军	-12883
兼有	-12884
兼道	-12885
内一	-12886
内中	-12887
内室	-12888
内披	-12889
再复	-12890
再擒	-12891
再放	-12892
再生	-12893
再说	-12894
写于	-12895
军于	-12896
军出	-12897
军容	-12898
军有	-12899
军校	-12900
冠冕	-12901
冬月	-12902
冲到	-12903
冲散	-12904
冲波	-12905
冲要	-12906
冲车	-12907
决意	-12908
决断	-12909
决水	-12910
决矣	-12911
决胜	-12912
凡有	-12913
凭吊	-12914
凯曰	-12915
凶逆	-12916
出众	-12917
出到	-12918
出敌	-12919
出生	-12920
出示	-12921
出血	-12922
出西	-12923
击贼	-12924
刀剑	-12925
分争	-12926
分于	-12927
分崩	-12928
分晓	-12929
分毫	-12930
分调	-12931
分道	-12932
列坐	-12933
刘丞	-12934
刘放	-12935
刘泌	-12936
刘虞	-12937
刘陶	-12938
则先	-12939
则失	-12940
则难	-12941
初登	-12942
初见	-12943
初觉	-12944
初附	-12945
别去	-12946
别帐	-12947
刮骨	-12948
到今	-12949
到门	-12950
制胜	-12951
前奔	-12952
前寨	-12953
前杠	-12954
前番	-12955
前船	-12956
前营	-12957
剐之	-12958
剑印	-12959
剑落	-12960
副之	-12961
割之	-12962
割了	-12963
割须	-12964
剿杀	-12965
力取	-12966
力攻	-12967
力敌	-12968
力斩	-12969
力难	-12970
劝住	-12971
劝免	-12972
劝我	-12973
劝操	-12974
劝朕	-12975
劝解	-12976
功高	-12977
助恶	-12978
劫了	-12979
劳困	-12980
势力	-12981
勒住	-12982
勿忘	-12983
勿生	-12984
勿致	-12985
勿言	-12986
勿负	-12987
北山	-12988
北平	-12989
北邙	-12990
医也	-12991
医者	-12992
十丈	-12993
十年	-12994
十斤	-12995
十胜	-12996
十辆	-12997
千员	-12998
千百	-12999
千载	-13000
升堂	-13001
午后	-13002
半年	-13003
华覈	-13004
协助	-13005
协同	-13006
卓出	-13007
单于	-13008
单刀	-13009
单衣	-13010
单马	-13011
卖官	-13012
南军	-13013
南向	-13014
南有	-13015
南船	-13016
南谷	-13017
博士	-13018
博览	-13019
卧床	-13020
卧牛	-13021
卫曰	-13022
危笃	-13023
危险	-13024
即于	-13025
即封	-13026
即用	-13027
即除	-13028
却与	-13029
却得	-13030
却放	-13031
却早	-13032
却遇	-13033
卷名	-13034
卷地	-13035
卸了	-13036
卿以	-13037
卿父	-13038
压境	-13039
厚德	-13040
原系	-13041
去之	-13042
去夺	-13043
去攻	-13044
去方	-13045
去解	-13046
去远	-13047
县前	-13048
县官	-13049
参差	-13050
又兼	-13051
又哭	-13052
又喜	-13053
又嘱	-13054
又大	-13055
又密	-13056
又封	-13057
又教	-13058
又置	-13059
又选	-13060
又遭	-13061
及今	-13062
双戟	-13063
反意	-13064
反矣	-13065
反者	-13066
反而	-13067
反臣	-13068
反遭	-13069
发哀	-13070
发怒	-13071
发百	-13072
取城	-13073
取物	-13074
受令	-13075
受戮	-13076
受汉	-13077
受职	-13078
受诛	-13079
受责	-13080
受辱	-13081
变成	-13082
叛君	-13083
古怪	-13084
古者	-13085
另作	-13086
只一	-13087
只叫	-13088
只愿	-13089
只此	-13090
只箭	-13091
只索	-13092
只落	-13093
只身	-13094
只领	-13095
叫反	-13096
召来	-13097
可发	-13098
可同	-13099
可夺	-13100
可守	-13101
可容	-13102
可当	-13103
可恨	-13104
可报	-13105
可收	-13106
可救	-13107
可断	-13108
可无	-13109
可早	-13110
可来	-13111
可脱	-13112
台以	-13113
叱之	-13114
史官	-13115
右出	-13116
右旅	-13117
号带	-13118
号曰	-13119
各事	-13120
各尽	-13121
各怀	-13122
各据	-13123
各相	-13124
各言	-13125
各设	-13126
各诉	-13127
各跨	-13128
各逃	-13129
各镇	-13130
各霸	-13131
合为	-13132
合死	-13133
同列	-13134
同受	-13135
同坐	-13136
同声	-13137
同姓	-13138
同日	-13139
同理	-13140
同罪	-13141
同胞	-13142
同郡	-13143
名吉	-13144
名垂	-13145
名誉	-13146
名闻	-13147
名震	-13148
名马	-13149
后世	-13150
后图	-13151
后妃	-13152
后妻	-13153
后寨	-13154
后日	-13155
后生	-13156
后至	-13157
后院	-13158
向南	-13159
吕望	-13160
君以	-13161
君其	-13162
君当	-13163
君恩	-13164
君王	-13165
君等	-13166
吞蜀	-13167
否则	-13168
含泪	-13169
听命	-13170
听计	-13171
听说	-13172
听调	-13173
吴中	-13174
吴敦	-13175
吴民	-13176
吴狗	-13177
吴纲	-13178
吴船	-13179
吾一	-13180
吾使	-13181
吾再	-13182
吾女	-13183
吾姓	-13184
吾家	-13185
吾尚	-13186
吾待	-13187
吾思	-13188
吾恐	-13189
吾曾	-13190
吾本	-13191
吾生	-13192
吾看	-13193
吾终	-13194
吾视	-13195
呈与	-13196
告于	-13197
告别	-13198
告戒	-13199
告报	-13200
告求	-13201
告称	-13202
周毖	-13203
呵呵	-13204
呻吟	-13205
呼为	-13206
呼我	-13207
呼曰	-13208
呼风	-13209
命为	-13210
命人	-13211
命坐	-13212
命尽	-13213
和气	-13214
和解	-13215
哑泉	-13216
哭到	-13217
哭耶	-13218
唤雨	-13219
商人	-13220
商量	-13221
啸聚	-13222
善使	-13223
善晓	-13224
喝住	-13225
喝教	-13226
喟然	-13227
嗜酒	-13228
嗟呀	-13229
嗣子	-13230
嘉平	-13231
嘉德	-13232
囚在	-13233
四五	-13234
四分	-13235
四宝	-13236
回师	-13237
回望	-13238
回观	-13239
因何	-13240
因得	-13241
因惧	-13242
困在	-13243
困龙	-13244
围场	-13245
围猎	-13246
固辞	-13247
固非	-13248
国中	-13249
国士	-13250
图谋	-13251
土填	-13252
圣上	-13253
圣贤	-13254
在东	-13255
在先	-13256
在吴	-13257
在天	-13258
在庄	-13259
在心	-13260
在魏	-13261
圭瓒	-13262
地耶	-13263
坐上	-13264
坐着	-13265
坐领	-13266
坚为	-13267
坚军	-13268
坛前	-13269
坦然	-13270
埋之	-13271
埋锅	-13272
塞满	-13273
塞野	-13274
墩台	-13275
壁间	-13276
壕堑	-13277
士也	-13278
处斩	-13279
处置	-13280
备细	-13281
备自	-13282
备请	-13283
复发	-13284
复战	-13285
复杀	-13286
复至	-13287
夏恂	-13288
外事	-13289
外面	-13290
夙夜	-13291
多人	-13292
多军	-13293
多得	-13294
多才	-13295
多矣	-13296
多立	-13297
多负	-13298
夜宿	-13299
夜至	-13300
夜走	-13301
大凶	-13302
大厦	-13303
大吉	-13304
大声	-13305
大失	-13306
大悔	-13307
大患	-13308
大惧	-13309
大戟	-13310
大排	-13311
大星	-13312
大木	-13313
大梁	-13314
大殿	-13315
大砍	-13316
大索	-13317
大统	-13318
大胆	-13319
大计	-13320
大谋	-13321
大赏	-13322
大魏	-13323
天人	-13324
天寒	-13325
天已	-13326
天晓	-13327
天败	-13328
天际	-13329
天雨	-13330
太医	-13331
太牢	-13332
太虚	-13333
失于	-13334
失利	-13335
失却	-13336
失口	-13337
失语	-13338
失身	-13339
头营	-13340
夺剑	-13341
夺吾	-13342
奇花	-13343
奇计	-13344
奇谋	-13345
奈有	-13346
奉上	-13347
奉操	-13348
奎曰	-13349
奔溃	-13350
奔过	-13351
女子	-13352
女巫	-13353
女衣	-13354
好心	-13355
好谋	-13356
如不	-13357
如从	-13358
如公	-13359
如天	-13360
如彼	-13361
如探	-13362
如梦	-13363
如潮	-13364
如肯	-13365
如遇	-13366
如醉	-13367
如麻	-13368
妄取	-13369
妄自	-13370
妆奁	-13371
妒忌	-13372
妙龄	-13373
妾当	-13374
始初	-13375
始殿	-13376
始终	-13377
姓华	-13378
姓庞	-13379
姓董	-13380
姓赵	-13381
姓黄	-13382
威仪	-13383
威德	-13384
威逼	-13385
婴儿	-13386
嫁资	-13387
子女	-13388
子弟	-13389
子房	-13390
孔文	-13391
字义	-13392
字也	-13393
字幼	-13394
字显	-13395
存日	-13396
孙亮	-13397
孙异	-13398
孙武	-13399
孙皎	-13400
孙韶	-13401
孝道	-13402
孤军	-13403
孤欲	-13404
学道	-13405
宅中	-13406
守也	-13407
守台	-13408
守坛	-13409
守边	-13410
安丰	-13411
安危	-13412
安喜	-13413
安坐	-13414
安然	-13415
安邑	-13416
安闲	-13417
宋果	-13418
完办	-13419
宕渠	-13420
宗正	-13421
官任	-13422
官兵	-13423
官爵	-13424
官诰	-13425
官道	-13426
定下	-13427
定了	-13428
定数	-13429
定议	-13430
宜即	-13431
宝位	-13432
实信	-13433
实告	-13434
实无	-13435
实是	-13436
实有	-13437
实赖	-13438
审荣	-13439
宣进	-13440
宪曰	-13441
宫外	-13442
宫官	-13443
宫阙	-13444
宫院	-13445
害他	-13446
宴饮	-13447
家财	-13448
家贫	-13449
家门	-13450
容吾	-13451
宽怀	-13452
宽洪	-13453
密与	-13454
密处	-13455
密密	-13456
密林	-13457
密语	-13458
富户	-13459
富春	-13460
寓居	-13461
寨口	-13462
寨时	-13463
寰宇	-13464
寻之	-13465
寻着	-13466
封侯	-13467
封官	-13468
封渊	-13469
封闭	-13470
射去	-13471
射回	-13472
将上	-13473
将佐	-13474
将勇	-13475
将印	-13476
将去	-13477
将城	-13478
将张	-13479
将斩	-13480
将此	-13481
将船	-13482
将覆	-13483
将诏	-13484
将马	-13485
尊命	-13486
尊大	-13487
尊颜	-13488
小利	-13489
小枝	-13490
小民	-13491
小疾	-13492
小计	-13493
小麦	-13494
少事	-13495
少府	-13496
少谋	-13497
尔乃	-13498
尖刀	-13499
尚不	-13500
尚父	-13501
尚问	-13502
尝以	-13503
尝闻	-13504
就席	-13505
就缚	-13506
尹礼	-13507
尹赏	-13508
尽为	-13509
尽去	-13510
尽在	-13511
尽封	-13512
尽属	-13513
尽带	-13514
尽废	-13515
尽情	-13516
尽打	-13517
尽湿	-13518
尽绝	-13519
尽言	-13520
居之	-13521
屈节	-13522
屋上	-13523
屋中	-13524
屡战	-13525
屡次	-13526
屡犯	-13527
山也	-13528
山傍	-13529
山冈	-13530
山势	-13531
山岭	-13532
山崩	-13533
岁矣	-13534
岂无	-13535
岂独	-13536
岑璧	-13537
岭上	-13538
岸边	-13539
峨嵋	-13540
崔勇	-13541
崩裂	-13542
嵩曰	-13543
巍巍	-13544
川将	-13545
州县	-13546
州泰	-13547
巡船	-13548
巡视	-13549
巢湖	-13550
左寨	-13551
左玄	-13552
左腿	-13553
左贤	-13554
巧匠	-13555
已久	-13556
已使	-13557
已先	-13558
已办	-13559
已历	-13560
已差	-13561
已归	-13562
已往	-13563
已折	-13564
已杀	-13565
已经	-13566
已衰	-13567
已见	-13568
巴中	-13569
布之	-13570
布令	-13571
布成	-13572
布袍	-13573
布请	-13574
帆幔	-13575
帝命	-13576
帝封	-13577
帝心	-13578
帝时	-13579
帝知	-13580
带去	-13581
席卷	-13582
常事	-13583
干休	-13584
干到	-13585
平侯	-13586
平吞	-13587
平川	-13588
平矣	-13589
年少	-13590
年已	-13591
年近	-13592
年齿	-13593
并举	-13594
并其	-13595
并所	-13596
幸赖	-13597
幼主	-13598
广汉	-13599
庄后	-13600
庄客	-13601
庆喜	-13602
床后	-13603
库内	-13604
应变	-13605
应对	-13606
应承	-13607
庞舒	-13608
废之	-13609
度日	-13610
庵后	-13611
康曰	-13612
廊下	-13613
延之	-13614
延津	-13615
延熙	-13616
开口	-13617
开基	-13618
开目	-13619
异志	-13620
弃关	-13621
弃船	-13622
弃袍	-13623
弄险	-13624
弓矢	-13625
弟董	-13626
张举	-13627
张先	-13628
张华	-13629
张当	-13630
张特	-13631
张等	-13632
张绍	-13633
张象	-13634
张遵	-13635
张钧	-13636
弥天	-13637
弦响	-13638
强中	-13639
强壮	-13640
强弱	-13641
归乡	-13642
归告	-13643
归国	-13644
归天	-13645
归心	-13646
归我	-13647
归田	-13648
归矣	-13649
归罪	-13650
归蜀	-13651
归见	-13652
归还	-13653
当灭	-13654
当诛	-13655
形如	-13656
影里	-13657
彻里	-13658
彼阵	-13659
往西	-13660
征袍	-13661
征鼙	-13662
径进	-13663
待客	-13664
徐商	-13665
得病	-13666
得知	-13667
得马	-13668
御前	-13669
微功	-13670
微露	-13671
德伟	-13672
心窝	-13673
心胆	-13674
必喜	-13675
必因	-13676
必尽	-13677
必怒	-13678
必成	-13679
必投	-13680
必轻	-13681
必速	-13682
忍也	-13683
忍耐	-13684
志也	-13685
忘了	-13686
忙牙	-13687
忠又	-13688
忠心	-13689
忠烈	-13690
念其	-13691
念咒	-13692
忽到	-13693
忽遇	-13694
忿忿	-13695
怀怨	-13696
怎地	-13697
怎得	-13698
怜而	-13699
思远	-13700
急投	-13701
急报	-13702
急拔	-13703
急掣	-13704
急攻	-13705
急遣	-13706
怨鬼	-13707
恃功	-13708
恃勇	-13709
恐中	-13710
恐怖	-13711
恐惹	-13712
恐被	-13713
恣意	-13714
恨吾	-13715
恨曰	-13716
恩信	-13717
恩养	-13718
恩惠	-13719
恩礼	-13720
恩遇	-13721
恭俭	-13722
恭祖	-13723
恰欲	-13724
恶党	-13725
悚惧	-13726
悬首	-13727
情耶	-13728
惆怅	-13729
惊怪	-13730
惊恐	-13731
惟恐	-13732
惯熟	-13733
愈怒	-13734
意乎	-13735
愚见	-13736
感伤	-13737
感公	-13738
愤恨	-13739
愿公	-13740
愿助	-13741
愿即	-13742
愿去	-13743
愿听	-13744
愿守	-13745
愿请	-13746
慢行	-13747
憔悴	-13748
懦夫	-13749
戈戟	-13750
戏言	-13751
成廉	-13752
成此	-13753
成皋	-13754
我便	-13755
我在	-13756
我奉	-13757
我寡	-13758
我将	-13759
我料	-13760
我方	-13761
我既	-13762
我死	-13763
我的	-13764
我知	-13765
我者	-13766
我虽	-13767
战了	-13768
战于	-13769
战具	-13770
战则	-13771
战功	-13772
战场	-13773
战士	-13774
战无	-13775
战时	-13776
战至	-13777
战退	-13778
截杀	-13779
戮之	-13780
房内	-13781
房陵	-13782
所传	-13783
所使	-13784
所哭	-13785
所困	-13786
所夺	-13787
所算	-13788
所行	-13789
所请	-13790
所谋	-13791
所辱	-13792
所迷	-13793
所遗	-13794
手段	-13795
才德	-13796
才过	-13797
打了	-13798
打你	-13799
托以	-13800
执戟	-13801
执手	-13802
执旗	-13803
执杯	-13804
扫荡	-13805
扬声	-13806
扬言	-13807
扭转	-13808
扰乱	-13809
扶帝	-13810
扶持	-13811
扶老	-13812
承嗣	-13813
把船	-13814
投东	-13815
投之	-13816
投奔	-13817
投拜	-13818
投献	-13819
投西	-13820
投递	-13821
折军	-13822
抚恤	-13823
抚谕	-13824
抢入	-13825
披麻	-13826
抬头	-13827
抱住	-13828
抹朱	-13829
押后	-13830
拈阄	-13831
拒我	-13832
拒曹	-13833
拚将	-13834
招魂	-13835
拜为	-13836
拜求	-13837
拥将	-13838
拦阻	-13839
拨兵	-13840
拨转	-13841
拷问	-13842
持戈	-13843
持矛	-13844
持诏	-13845
挂齿	-13846
指画	-13847
按住	-13848
按月	-13849
挑担	-13850
挽牌	-13851
捐躯	-13852
损一	-13853
损折	-13854
换了	-13855
授计	-13856
排列	-13857
掘下	-13858
探病	-13859
探细	-13860
接了	-13861
接来	-13862
推却	-13863
掩饰	-13864
掷下	-13865
插剑	-13866
插旗	-13867
携干	-13868
携幼	-13869
摆在	-13870
摩天	-13871
撇了	-13872
撞入	-13873
撤去	-13874
操亦	-13875
操从	-13876
操使	-13877
操便	-13878
操取	-13879
操喜	-13880
操忽	-13881
操恐	-13882
操拨	-13883
操深	-13884
操皆	-13885
操者	-13886
操至	-13887
操闻	-13888
擒捉	-13889
擒汝	-13890
支持	-13891
收复	-13892
收录	-13893
改名	-13894
攻也	-13895
攻拔	-13896
放吾	-13897
故乡	-13898
故使	-13899
故吏	-13900
故托	-13901
故相	-13902
故知	-13903
故耳	-13904
故行	-13905
敌得	-13906
救去	-13907
救时	-13908
救民	-13909
救难	-13910
教某	-13911
教汝	-13912
散去	-13913
数尺	-13914
整备	-13915
敷之	-13916
文房	-13917
文若	-13918
文虎	-13919
斋戒	-13920
斗到	-13921
斩也	-13922
斩讫	-13923
新定	-13924
新破	-13925
新罚	-13926
新降	-13927
方便	-13928
方免	-13929
方寸	-13930
方开	-13931
方息	-13932
方来	-13933
方毕	-13934
方见	-13935
方起	-13936
方锐	-13937
方面	-13938
施朔	-13939
旗鼓	-13940
无军	-13941
无出	-13942
无处	-13943
无头	-13944
无奈	-13945
无守	-13946
无度	-13947
无意	-13948
无暇	-13949
无足	-13950
无遗	-13951
无问	-13952
既出	-13953
既平	-13954
既承	-13955
既斩	-13956
日也	-13957
日前	-13958
日期	-13959
旧寨	-13960
旧岁	-13961
早定	-13962
早晨	-13963
早立	-13964
早见	-13965
旱寨	-13966
时已	-13967
时常	-13968
时正	-13969
时近	-13970
明上	-13971
明告	-13972
明教	-13973
明旨	-13974
明知	-13975
昏乱	-13976
昏倒	-13977
昏迷	-13978
易耳	-13979
昔楚	-13980
昔者	-13981
星月	-13982
昨为	-13983
昨闻	-13984
昭令	-13985
昭等	-13986
是为	-13987
是岁	-13988
是年	-13989
是弃	-13990
是无	-13991
是绝	-13992
晋帝	-13993
晚也	-13994
晚矣	-13995
普曰	-13996
景元	-13997
智也	-13998
智力	-13999
智浅	-14000
智者	-14001
暂时	-14002
暗想	-14003
暗算	-14004
暗约	-14005
暗诵	-14006
曲直	-14007
更深	-14008
更立	-14009
曹寨	-14010
曹纯	-14011
曾为	-14012
最喜	-14013
最好	-14014
月内	-14015
有两	-14016
有为	-14017
有二	-14018
有德	-14019
有心	-14020
有才	-14021
有数	-14022
有文	-14023
有病	-14024
有累	-14025
有药	-14026
有要	-14027
有话	-14028
有隙	-14029
有黄	-14030
服人	-14031
服曰	-14032
朔风	-14033
朕想	-14034
朕故	-14035
朕若	-14036
望即	-14037
朝堂	-14038
朝见	-14039
木为	-14040
木履	-14041
未分	-14042
未央	-14043
未宁	-14044
未成	-14045
未服	-14046
未绝	-14047
未足	-14048
未还	-14049
未除	-14050
末年	-14051
本乡	-14052
本国	-14053
本待	-14054
本心	-14055
本非	-14056
朱户	-14057
机伯	-14058
杀备	-14059
杀起	-14060
权乃	-14061
权柄	-14062
权见	-14063
权闻	-14064
李伏	-14065
李别	-14066
李堪	-14067
李氏	-14068
李珪	-14069
李通	-14070
来仪	-14071
来告	-14072
来将	-14073
来拜	-14074
来捉	-14075
来春	-14076
来朝	-14077
来船	-14078
杨洪	-14079
松亦	-14080
松江	-14081
极好	-14082
果应	-14083
枪刺	-14084
枪搠	-14085
架隔	-14086
枷钉	-14087
柏梁	-14088
某之	-14089
某奉	-14090
某才	-14091
某料	-14092
某知	-14093
某见	-14094
某请	-14095
柑子	-14096
查渎	-14097
树上	-14098
桥东	-14099
梁刚	-14100
梁宽	-14101
梁父	-14102
梦寐	-14103
楼下	-14104
楼船	-14105
樊氏	-14106
樊能	-14107
横流	-14108
次后	-14109
次夜	-14110
次早	-14111
欢声	-14112
欲入	-14113
欲坠	-14114
欲尊	-14115
欲得	-14116
欲战	-14117
欲效	-14118
欲救	-14119
欲献	-14120
欲除	-14121
欲陷	-14122
欺主	-14123
欺他	-14124
欺天	-14125
歌罢	-14126
止于	-14127
止因	-14128
止带	-14129
止曰	-14130
正如	-14131
正撞	-14132
正无	-14133
正旦	-14134
正没	-14135
正虑	-14136
正须	-14137
此仇	-14138
此关	-14139
此危	-14140
此取	-14141
此吾	-14142
此寨	-14143
此恨	-14144
此榇	-14145
此番	-14146
此病	-14147
此真	-14148
此矣	-14149
此石	-14150
此臂	-14151
此诚	-14152
此败	-14153
此路	-14154
此门	-14155
步兵	-14156
步步	-14157
武事	-14158
武关	-14159
死乎	-14160
死耳	-14161
殊遇	-14162
残生	-14163
殷馗	-14164
毁骂	-14165
母曰	-14166
每人	-14167
每队	-14168
毒气	-14169
毒药	-14170
毛发	-14171
毡车	-14172
民夫	-14173
民安	-14174
民无	-14175
民殷	-14176
气喘	-14177
气满	-14178
水土	-14179
水旱	-14180
水泛	-14181
水者	-14182
求医	-14183
求援	-14184
求见	-14185
汉君	-14186
汉宁	-14187
汉统	-14188
汉臣	-14189
汗衫	-14190
汝去	-14191
汝心	-14192
汝是	-14193
汝肉	-14194
汝见	-14195
汝须	-14196
汤蹈	-14197
沃野	-14198
沔口	-14199
沔水	-14200
沛县	-14201
没了	-14202
沮鹄	-14203
油鼎	-14204
治疗	-14205
治病	-14206
沿河	-14207
泉水	-14208
泉涌	-14209
泣别	-14210
泥泞	-14211
泪如	-14212
泼水	-14213
洒扫	-14214
流光	-14215
海宇	-14216
涂面	-14217
涌泉	-14218
涧中	-14219
淋漓	-14220
深可	-14221
深喜	-14222
深荷	-14223
深重	-14224
混入	-14225
清朗	-14226
清水	-14227
清风	-14228
渐远	-14229
渑池	-14230
渔阳	-14231
渡淮	-14232
渭口	-14233
游猎	-14234
湿透	-14235
漠漠	-14236
漫天	-14237
漫漫	-14238
漫空	-14239
潘凤	-14240
潜龙	-14241
火势	-14242
火焚	-14243
火种	-14244
灭亡	-14245
灭门	-14246
灯下	-14247
灯光	-14248
灯影	-14249
灯灭	-14250
炎刘	-14251
点上	-14252
烈士	-14253
烧断	-14254
烧死	-14255
照旧	-14256
照鉴	-14257
燕雀	-14258
爪牙	-14259
父丧	-14260
片时	-14261
牙爪	-14262
牛斗	-14263
牛金	-14264
牡丹	-14265
牢笼	-14266
牵羊	-14267
特具	-14268
特奉	-14269
特差	-14270
犬耳	-14271
犯吾	-14272
犹疑	-14273
狂寇	-14274
狐兔	-14275
独不	-14276
独坐	-14277
独行	-14278
狭路	-14279
猖獗	-14280
猛兽	-14281
献书	-14282
献刀	-14283
献头	-14284
献茶	-14285
率领	-14286
玉石	-14287
王佐	-14288
王修	-14289
王垕	-14290
王惇	-14291
王氏	-14292
王气	-14293
王沈	-14294
王肃	-14295
王颀	-14296
玩好	-14297
环立	-14298
班曰	-14299
理说	-14300
琰曰	-14301
瑜亦	-14302
瑜以	-14303
瑜谓	-14304
瑜问	-14305
甘松	-14306
甘雨	-14307
甚也	-14308
甚事	-14309
甚合	-14310
甚大	-14311
甚得	-14312
甚疑	-14313
甚的	-14314
甚盛	-14315
甚重	-14316
生力	-14317
生平	-14318
生者	-14319
用事	-14320
用人	-14321
用力	-14322
用枪	-14323
用谋	-14324
用车	-14325
用青	-14326
申生	-14327
画堂	-14328
畋猎	-14329
界分	-14330
畏也	-14331
留你	-14332
番王	-14333
疆界	-14334
疑我	-14335
疲乏	-14336
疲劳	-14337
疾忙	-14338
登为	-14339
登位	-14340
白字	-14341
白水	-14342
白绢	-14343
白蛇	-14344
白门	-14345
百世	-14346
的马	-14347
皆着	-14348
皆空	-14349
皆穿	-14350
皆要	-14351
皆赖	-14352
皆非	-14353
盗马	-14354
盛称	-14355
直须	-14356
相侵	-14357
相厚	-14358
相善	-14359
相容	-14360
相托	-14361
相杂	-14362
相瞒	-14363
相赠	-14364
省中	-14365
看得	-14366
看视	-14367
看觑	-14368
看间	-14369
真吾	-14370
真定	-14371
眼珠	-14372
眼生	-14373
眼见	-14374
着忙	-14375
着枪	-14376
督将	-14377
瞻拜	-14378
知人	-14379
知会	-14380
知公	-14381
知否	-14382
知父	-14383
石车	-14384
砍之	-14385
砍伐	-14386
砍断	-14387
砍石	-14388
破竹	-14389
礼义	-14390
礼士	-14391
礼待	-14392
礼曰	-14393
神鬼	-14394
祥瑞	-14395
祭奠	-14396
祭礼	-14397
祸乱	-14398
禀性	-14399
离山	-14400
离营	-14401
私自	-14402
私通	-14403
秋天	-14404
种种	-14405
秦川	-14406
秭归	-14407
积粟	-14408
积粮	-14409
称尊	-14410
称贺	-14411
移祸	-14412
稍可	-14413
稍定	-14414
稽首	-14415
空有	-14416
空费	-14417
空阔	-14418
穿连	-14419
突至	-14420
突起	-14421
窥见	-14422
窦武	-14423
立寨	-14424
立庙	-14425
立起	-14426
竟天	-14427
竟将	-14428
竟往	-14429
童颜	-14430
竹冠	-14431
笑而	-14432
笔砚	-14433
第七	-14434
第四	-14435
笾髟	-14436
等人	-14437
等俱	-14438
等都	-14439
答应	-14440
策也	-14441
策应	-14442
筵间	-14443
箕帚	-14444
管仲	-14445
管领	-14446
篡汉	-14447
篡魏	-14448
篱落	-14449
米粮	-14450
粉碎	-14451
索命	-14452
紧闭	-14453
纠合	-14454
红心	-14455
红袍	-14456
约共	-14457
纪律	-14458
纳了	-14459
纵虎	-14460
终身	-14461
绊倒	-14462
绍亦	-14463
绍兵	-14464
绍等	-14465
经战	-14466
给赏	-14467
绝伦	-14468
继统	-14469
绰刀	-14470
维乃	-14471
维自	-14472
缎匹	-14473
缓图	-14474
缚至	-14475
缟素	-14476
缢死	-14477
缨络	-14478
缺少	-14479
罪在	-14480
羊群	-14481
美丽	-14482
羞见	-14483
羡溪	-14484
群英	-14485
老丈	-14486
老翁	-14487
老者	-14488
而使	-14489
而动	-14490
而卒	-14491
而向	-14492
而图	-14493
而定	-14494
而寝	-14495
而居	-14496
而待	-14497
而忘	-14498
而愈	-14499
而民	-14500
而求	-14501
而渡	-14502
而谏	-14503
而问	-14504
而食	-14505
耕于	-14506
耳聋	-14507
耽曰	-14508
联络	-14509
聚铁	-14510
肉也	-14511
肉瘤	-14512
肉颤	-14513
胆落	-14514
背剑	-14515
胜了	-14516
胜捷	-14517
胡华	-14518
胡奋	-14519
胡渊	-14520
胸膛	-14521
能使	-14522
能者	-14523
能胜	-14524
脑后	-14525
脱了	-14526
腹心	-14527
腹痛	-14528
膳毕	-14529
臣下	-14530
臣与	-14531
臣也	-14532
臣以	-14533
臣受	-14534
臣所	-14535
臣故	-14536
臣无	-14537
臣言	-14538
自从	-14539
自将	-14540
自总	-14541
自误	-14542
自谓	-14543
自贬	-14544
至亲	-14545
至尾	-14546
至期	-14547
致生	-14548
致败	-14549
舌头	-14550
舍之	-14551
舍弟	-14552
舍死	-14553
舍身	-14554
舒城	-14555
舟冓	-14556
舟船	-14557
舟鹿	-14558
船头	-14559
艘玻	-14560
良工	-14561
良马	-14562
艰辛	-14563
艾见	-14564
节制	-14565
节钺	-14566
苍生	-14567
若举	-14568
若从	-14569
若先	-14570
若去	-14571
若听	-14572
若在	-14573
若失	-14574
若容	-14575
若成	-14576
若斩	-14577
若更	-14578
若等	-14579
若至	-14580
若还	-14581
若逼	-14582
苦无	-14583
苦苦	-14584
英主	-14585
英灵	-14586
英豪	-14587
范县	-14588
荀正	-14589
荀谌	-14590
草中	-14591
草创	-14592
草把	-14593
草料	-14594
草舍	-14595
荡石	-14596
荷蒙	-14597
莫如	-14598
莫能	-14599
获得	-14600
营外	-14601
营门	-14602
萧关	-14603
葛陂	-14604
董和	-14605
董昭	-14606
董祀	-14607
董禧	-14608
董衡	-14609
董超	-14610
蒂钟	-14611
蒋显	-14612
蒙恩	-14613
蒺藜	-14614
蓄锐	-14615
薛则	-14616
薛综	-14617
藏匿	-14618
藐视	-14619
虎卫	-14620
虎口	-14621
虎痴	-14622
虑者	-14623
虚发	-14624
虚妄	-14625
虞舜	-14626
虽为	-14627
虽亡	-14628
虽勇	-14629
虽败	-14630
虽赴	-14631
蛮姑	-14632
蛮邦	-14633
蜜中	-14634
蜜水	-14635
行于	-14636
行凶	-14637
行天	-14638
行计	-14639
行酒	-14640
衣冠	-14641
补报	-14642
袁公	-14643
袁遗	-14644
袖中	-14645
被岱	-14646
被斩	-14647
被责	-14648
襄城	-14649
西寨	-14650
西州	-14651
西征	-14652
西番	-14653
西都	-14654
要在	-14655
要地	-14656
要来	-14657
要用	-14658
要紧	-14659
见也	-14660
见我	-14661
见无	-14662
见父	-14663
见用	-14664
见策	-14665
见蜀	-14666
见还	-14667
观者	-14668
视我	-14669
览之	-14670
解到	-14671
解危	-14672
解围	-14673
解良	-14674
解送	-14675
解释	-14676
誓当	-14677
誓杀	-14678
誓欲	-14679
让之	-14680
议者	-14681
许久	-14682
许仪	-14683
许允	-14684
许和	-14685
许嫁	-14686
许芝	-14687
讹言	-14688
设此	-14689
设谋	-14690
设醮	-14691
识之	-14692
识人	-14693
诈乎	-14694
诏封	-14695
试耳	-14696
诛杀	-14697
语失	-14698
语言	-14699
误杀	-14700
诱入	-14701
说得	-14702
说甚	-14703
诵之	-14704
请住	-14705
请和	-14706
请死	-14707
请肃	-14708
诸县	-14709
诸寨	-14710
诸弟	-14711
读曰	-14712
谁能	-14713
谅曰	-14714
谋略	-14715
谏章	-14716
谏者	-14717
谏阻	-14718
谓之	-14719
谓关	-14720
谥曰	-14721
谦辞	-14722
谭曰	-14723
谭雄	-14724
谷利	-14725
豪气	-14726
豹头	-14727
豹曰	-14728
负义	-14729
败亡	-14730
败矣	-14731
贩屦	-14732
贫僧	-14733
贱躯	-14734
贴肉	-14735
贼军	-14736
贼阵	-14737
赍礼	-14738
赍表	-14739
赐坐	-14740
赞曰	-14741
赤体	-14742
赤心	-14743
赤色	-14744
走泄	-14745
走透	-14746
赵月	-14747
赵衢	-14748
赶了	-14749
起事	-14750
起于	-14751
起居	-14752
起驾	-14753
趋侍	-14754
跃龙	-14755
跟我	-14756
跨江	-14757
路过	-14758
跳上	-14759
跳跃	-14760
踏平	-14761
身中	-14762
身故	-14763
身衣	-14764
躲避	-14765
车乘	-14766
车儿	-14767
车盖	-14768
转入	-14769
转身	-14770
轮流	-14771
轻清	-14772
较远	-14773
辅政	-14774
辛敞	-14775
辛苦	-14776
辞也	-14777
辞朝	-14778
辞谢	-14779
辰至	-14780
辱乎	-14781
辱子	-14782
边官	-14783
边庭	-14784
辽西	-14785
过于	-14786
过河	-14787
过船	-14788
过马	-14789
迎见	-14790
近因	-14791
近我	-14792
近有	-14793
还了	-14794
还兵	-14795
还宫	-14796
还寨	-14797
还将	-14798
还当	-14799
还朝	-14800
这人	-14801
这边	-14802
进封	-14803
进来	-14804
远遁	-14805
连接	-14806
连胜	-14807
迟也	-14808
迸出	-14809
追军	-14810
追思	-14811
送粮	-14812
送酒	-14813
逃去	-14814
逃避	-14815
选定	-14816
通和	-14817
速往	-14818
速请	-14819
速进	-14820
速退	-14821
逢着	-14822
遁能	-14823
遂以	-14824
遂望	-14825
遂率	-14826
遂聚	-14827
遂解	-14828
遂辞	-14829
遂迎	-14830
遂邀	-14831
遂降	-14832
遇虎	-14833
遍地	-14834
遍示	-14835
遗下	-14836
遗计	-14837
遣兵	-14838
遣某	-14839
遥为	-14840
遭擒	-14841
遭此	-14842
遮天	-14843
遮盖	-14844
避乱	-14845
邈曰	-14846
邓禹	-14847
邓茂	-14848
邓龙	-14849
邸阁	-14850
郎将	-14851
郑度	-14852
郑泰	-14853
郭胜	-14854
都堂	-14855
都有	-14856
都门	-14857
醉后	-14858
重整	-14859
重雾	-14860
野谷	-14861
金凤	-14862
金石	-14863
銮舆	-14864
钟绅	-14865
钟缙	-14866
钟进	-14867
钦敬	-14868
钦曰	-14869
铁枪	-14870
铁石	-14871
铁锁	-14872
铁锥	-14873
铜柱	-14874
锦作	-14875
锦绣	-14876
长亭	-14877
长吁	-14878
长文	-14879
长髯	-14880
门也	-14881
门户	-14882
问我	-14883
闻君	-14884
闻吴	-14885
阁中	-14886
阎宇	-14887
阔狭	-14888
阴魂	-14889
阵也	-14890
陆战	-14891
陆景	-14892
陆绩	-14893
陈平	-14894
陈生	-14895
降书	-14896
降操	-14897
降神	-14898
陕西	-14899
除授	-14900
除暴	-14901
除根	-14902
险些	-14903
险道	-14904
陵替	-14905
陶曰	-14906
陶濬	-14907
陷于	-14908
陷害	-14909
随入	-14910
随往	-14911
随手	-14912
随机	-14913
随父	-14914
隔断	-14915
难得	-14916
难测	-14917
难道	-14918
雍杲	-14919
雍甑	-14920
雷震	-14921
霍光	-14922
霖雨	-14923
霜雪	-14924
青城	-14925
青天	-14926
青春	-14927
青琐	-14928
青红	-14929
青蝇	-14930
青霄	-14931
靖曰	-14932
非俗	-14933
非凡	-14934
非命	-14935
非汝	-14936
非真	-14937
非轻	-14938
面有	-14939
面颊	-14940
鞍鞒	-14941
鞭打	-14942
韩暨	-14943
韩琼	-14944
韩融	-14945
须是	-14946
预知	-14947
领着	-14948
颇思	-14949
题曰	-14950
风波	-14951
风流	-14952
风浪	-14953
风清	-14954
风飘	-14955
飞上	-14956
飞乃	-14957
飞亦	-14958
飞入	-14959
飞沙	-14960
飞熊	-14961
飞腾	-14962
飞至	-14963
食之	-14964
饮乎	-14965
饯行	-14966
饱餐	-14967
首先	-14968
马壮	-14969
马尾	-14970
马快	-14971
马钧	-14972
马铁	-14973
驰报	-14974
驴骡	-14975
骂贼	-14976
骄横	-14977
骨血	-14978
髀肉	-14979
高义	-14980
高名	-14981
高贵	-14982
魄散	-14983
魈椤	-14984
魏也	-14985
魏家	-14986
魏邈	-14987
鲍忠	-14988
鳞甲	-14989
鸡犬	-14990
鸣锣	-14991
鸩杀	-14992
鹦鹉	-14993
麾兵	-14994
黄口	-14995
黄罗	-14996
黑烟	-14997
鼓乐	-14998
鼠贼	-14999
鼻息	-15000
齐上	-15001
齐举	-15002
齐入	-15003
齐心	-15004
齐来	-15005
齿寒	-15006
龙床	-15007
龙榻	-15008
龙肝	-15009
龚景	-15010
!”?	-15011
16.	-15012
?(1	-15013
▁三人	-15014
▁使者	-15015
▁后主	-15016
▁少顷	-15017
▁幕府	-15018
▁建安	-15019
▁当夜	-15020
▁早有	-15021
▁时有	-15022
▁曹仁	-15023
▁李傕	-15024
▁自此	-15025
▁董卓	-15026
▁行至	-15027
▁马超	-15028
▁魏主	-15029
一件事	-15030
一匹夫	-15031
一战而	-15032
一片声	-15033
一百日	-15034
一边是	-15035
一锦囊	-15036
丁建阳	-15037
七十二	-15038
万世之	-15039
万安溪	-15040
万幸也	-15041
三件事	-15042
三公之	-15043
三匹马	-15044
三尺剑	-15045
三百余	-15046
三路军	-15047
上将军	-15048
上马投	-15049
下小船	-15050
下拜曰	-15051
下流头	-15052
下说词	-15053
不一合	-15054
不以为	-15055
不保矣	-15056
不准备	-15057
不出吾	-15058
不利于	-15059
不及甲	-15060
不及鞍	-15061
不取也	-15062
不可便	-15063
不可大	-15064
不可测	-15065
不可留	-15066
不可违	-15067
不好看	-15068
不如且	-15069
不如以	-15070
不如早	-15071
不容不	-15072
不得入	-15073
不得复	-15074
不提防	-15075
不敢受	-15076
不敢复	-15077
不敢来	-15078
不敢进	-15079
不易也	-15080
不曾亏	-15081
不曾见	-15082
不相容	-15083
不相见	-15084
不知是	-15085
不知耶	-15086
不肯受	-15087
不胜悲	-15088
不能入	-15089
不能决	-15090
不能守	-15091
不能安	-15092
不能得	-15093
不能死	-15094
不见容	-15095
不间亲	-15096
不降曹	-15097
不饮酒	-15098
与使君	-15099
与先生	-15100
与公同	-15101
与关某	-15102
与周泰	-15103
与孙权	-15104
与徐晃	-15105
与文丑	-15106
与曹兵	-15107
与曹真	-15108
与李典	-15109
与甘宁	-15110
与百姓	-15111
与皇叔	-15112
与程普	-15113
与群臣	-15114
与董承	-15115
与蔡瑁	-15116
与虎添	-15117
与郭图	-15118
与韩遂	-15119
与马岱	-15120
与黄忠	-15121
丕从之	-15122
丕大惊	-15123
丙寅日	-15124
丞相命	-15125
丞相自	-15126
丞相遗	-15127
两军各	-15128
两军皆	-15129
两枝军	-15130
两骑马	-15131
中书郎	-15132
丹凤眼	-15133
为主公	-15134
为列侯	-15135
为右军	-15136
为后队	-15137
为外援	-15138
为太后	-15139
为左军	-15140
为曹氏	-15141
为盟主	-15142
为社稷	-15143
为质当	-15144
为镇南	-15145
为陛下	-15146
主公将	-15147
主敌人	-15148
乃义阳	-15149
乃云长	-15150
乃入见	-15151
乃司徒	-15152
乃吴将	-15153
乃国之	-15154
乃孙乾	-15155
乃尚书	-15156
乃引兵	-15157
乃曹洪	-15158
乃玄德	-15159
乃笑曰	-15160
乃糜竺	-15161
乃蜀中	-15162
乃高明	-15163
久必有	-15164
之人矣	-15165
之名也	-15166
之大事	-15167
之天下	-15168
之幸也	-15169
之心也	-15170
之意也	-15171
之所在	-15172
之所学	-15173
之所料	-15174
之手曰	-15175
之时也	-15176
之甚也	-15177
之见也	-15178
之言也	-15179
之计耳	-15180
之象也	-15181
乐太平	-15182
乘小舟	-15183
书一封	-15184
了一箭	-15185
了归路	-15186
了栈道	-15187
事不谐	-15188
二万兵	-15189
二三十	-15190
二人乃	-15191
二人带	-15192
二人感	-15193
二公子	-15194
二十合	-15195
二十州	-15196
二千军	-15197
二百八	-15198
二百年	-15199
于中取	-15200
于主公	-15201
于前曰	-15202
于四海	-15203
于城下	-15204
于堂下	-15205
于宫中	-15206
于山上	-15207
于是令	-15208
于朝廷	-15209
于汉中	-15210
于江边	-15211
于河北	-15212
于王事	-15213
于祁山	-15214
于神仙	-15215
于禁等	-15216
于车前	-15217
于马项	-15218
云长之	-15219
云长去	-15220
云长急	-15221
云长问	-15222
五凤楼	-15223
五十斤	-15224
五百兵	-15225
亦不可	-15226
亦谏曰	-15227
京兆尹	-15228
亲自往	-15229
人报仇	-15230
人报说	-15231
人马俱	-15232
人马皆	-15233
仁大惊	-15234
今当先	-15235
今操引	-15236
今无端	-15237
今日乃	-15238
今果应	-15239
今果然	-15240
今特来	-15241
从城上	-15242
从屏后	-15243
从左边	-15244
从此路	-15245
从辰时	-15246
他人之	-15247
仗忠义	-15248
令严颜	-15249
令人去	-15250
令先锋	-15251
令大将	-15252
令姜维	-15253
令将军	-15254
令廖化	-15255
令张郃	-15256
令徐晃	-15257
令满宠	-15258
令玄德	-15259
令诸将	-15260
令进兵	-15261
令高顺	-15262
令鲁肃	-15263
以为己	-15264
以大兵	-15265
以天子	-15266
以女许	-15267
以密书	-15268
以将军	-15269
以待之	-15270
以拒之	-15271
以明公	-15272
以此言	-15273
以汝为	-15274
以迎之	-15275
伐东吴	-15276
众官又	-15277
众将又	-15278
众文武	-15279
众皆降	-15280
众酋长	-15281
会大喜	-15282
传于世	-15283
伤吾主	-15284
住数日	-15285
何不知	-15286
何人也	-15287
何多疑	-15288
何必多	-15289
何故以	-15290
何日得	-15291
何晏等	-15292
作一梦	-15293
作前队	-15294
作玄武	-15295
你原来	-15296
佯惊曰	-15297
使一口	-15298
使人入	-15299
使人密	-15300
使曹操	-15301
使魏人	-15302
侄李暹	-15303
侍御史	-15304
便商议	-15305
便连夜	-15306
信其言	-15307
修书付	-15308
俺哥哥	-15309
倘有用	-15310
倘蜀兵	-15311
倚定护	-15312
催车仗	-15313
允拜谢	-15314
先入见	-15315
先君之	-15316
先来见	-15317
先生幸	-15318
入书院	-15319
入南郑	-15320
入卧内	-15321
入后殿	-15322
入告曰	-15323
入宫庭	-15324
入密室	-15325
入山采	-15326
入帐中	-15327
入樊城	-15328
入膏肓	-15329
入谏曰	-15330
入谷中	-15331
八十二	-15332
八百人	-15333
公卿皆	-15334
公孙恭	-15335
公问曰	-15336
关公教	-15337
关公见	-15338
关公问	-15339
关平曰	-15340
兴义兵	-15341
兵势甚	-15342
兵大败	-15343
其余尽	-15344
其后路	-15345
其子孙	-15346
其宜也	-15347
其宜从	-15348
其尸首	-15349
其歌曰	-15350
其粮草	-15351
具朝服	-15352
典禁兵	-15353
内一人	-15354
内外皆	-15355
内转出	-15356
军中无	-15357
军中有	-15358
军士急	-15359
军士皆	-15360
军将军	-15361
军已退	-15362
军报知	-15363
军马来	-15364
军马至	-15365
决漳河	-15366
冷笑曰	-15367
凌统回	-15368
出入常	-15369
出迎敌	-15370
出重围	-15371
出鬼没	-15372
刀割开	-15373
刀砍死	-15374
分三队	-15375
分五路	-15376
分兵两	-15377
分左右	-15378
刘两家	-15379
刘备以	-15380
刘备有	-15381
刘备来	-15382
刘夫人	-15383
刘益州	-15384
刘荆州	-15385
则可以	-15386
则江南	-15387
创业之	-15388
到洛阳	-15389
到许昌	-15390
前下寨	-15391
前军至	-15392
剑阁关	-15393
割其舌	-15394
劝主公	-15395
加害于	-15396
加额曰	-15397
劫公卿	-15398
勒甲绦	-15399
勿复言	-15400
北三门	-15401
十七万	-15402
十万斛	-15403
十三岁	-15404
十三年	-15405
十五岁	-15406
十五里	-15407
十余骑	-15408
十数万	-15409
千余军	-15410
千余只	-15411
千秋仰	-15412
千里马	-15413
卓大喜	-15414
卓大怒	-15415
单福曰	-15416
南门外	-15417
南阳人	-15418
博望坡	-15419
占一课	-15420
卤城打	-15421
卧牛山	-15422
卧蚕眉	-15423
即具表	-15424
即引兵	-15425
即提兵	-15426
即日将	-15427
即时遣	-15428
即起身	-15429
却不见	-15430
却将我	-15431
卿有何	-15432
厚待之	-15433
厚赏之	-15434
原来那	-15435
去必有	-15436
去许都	-15437
参军马	-15438
参拜毕	-15439
又一人	-15440
又失了	-15441
又败走	-15442
发百中	-15443
取小路	-15444
取成都	-15445
取樊城	-15446
取武陵	-15447
受汉禅	-15448
受禅台	-15449
只剩得	-15450
只得弃	-15451
只得望	-15452
可乘虚	-15453
可以报	-15454
可作书	-15455
可差人	-15456
可斩之	-15457
可知矣	-15458
司马徽	-15459
各处关	-15460
各引军	-15461
各罢兵	-15462
同孙乾	-15463
后主即	-15464
后将军	-15465
吕布受	-15466
吕蒙曰	-15467
听令曰	-15468
听吾言	-15469
吾亦知	-15470
吾今奉	-15471
吾军中	-15472
吾岂惧	-15473
吾已令	-15474
吾平生	-15475
吾弟也	-15476
吾弟兄	-15477
吾愿往	-15478
吾有何	-15479
吾本欲	-15480
吾自从	-15481
吾蜀中	-15482
吾遍观	-15483
吾锐气	-15484
告前事	-15485
告孔明	-15486
周仓曰	-15487
周文王	-15488
周瑜为	-15489
呼左右	-15490
命斩之	-15491
命武士	-15492
命牵出	-15493
和魏延	-15494
唤貂蝉	-15495
唤赵云	-15496
唬骸按	-15497
唬骸氨	-15498
唬骸澳	-15499
唬骸疤	-15500
唬骸肮	-15501
唬骸胺	-15502
喊声起	-15503
囊取物	-15504
四五百	-15505
四人曰	-15506
四冢寨	-15507
回雒城	-15508
国老曰	-15509
图富贵	-15510
在中军	-15511
在别帐	-15512
在宫中	-15513
在帐下	-15514
在府中	-15515
在新城	-15516
在新野	-15517
在此间	-15518
在汉中	-15519
在洛阳	-15520
在襄阳	-15521
在身上	-15522
在车上	-15523
在这里	-15524
在那里	-15525
坚大怒	-15526
坡驻扎	-15527
城下寨	-15528
城内人	-15529
士仁曰	-15530
壮士曰	-15531
声不绝	-15532
声喏曰	-15533
备安敢	-15534
夏五月	-15535
夏侯兰	-15536
夏侯存	-15537
夏侯恩	-15538
大公子	-15539
大半是	-15540
大司农	-15541
大悟曰	-15542
大王何	-15543
大砍刀	-15544
大耳儿	-15545
天下事	-15546
天地之	-15547
天际地	-15548
太极殿	-15549
夫人所	-15550
失惊曰	-15551
奉宗庙	-15552
奏帝曰	-15553
如何容	-15554
如何敢	-15555
如雨下	-15556
妇人之	-15557
妻严氏	-15558
姑恕之	-15559
子翼同	-15560
孔文举	-15561
孔明复	-15562
孔明引	-15563
孔明指	-15564
孔明谓	-15565
孔明随	-15566
字元化	-15567
字士元	-15568
孙伯符	-15569
孙子云	-15570
孙礼引	-15571
孙礼曰	-15572
孙策为	-15573
孙策自	-15574
孟获引	-15575
孟获来	-15576
孟达曰	-15577
守不住	-15578
守兖州	-15579
守官渡	-15580
守小沛	-15581
守成都	-15582
守樊城	-15583
守汉中	-15584
守汝南	-15585
守绵竹	-15586
守许都	-15587
守门将	-15588
守阆中	-15589
安邦定	-15590
审配曰	-15591
宣谕曰	-15592
宫门前	-15593
宫门外	-15594
宽洪大	-15595
密书与	-15596
密诏付	-15597
密遣人	-15598
对众曰	-15599
将军印	-15600
将军器	-15601
将吕布	-15602
将大军	-15603
将孟达	-15604
将曹操	-15605
将粮草	-15606
将船筏	-15607
小儿谣	-15608
小觑我	-15609
尘遮道	-15610
就寨中	-15611
就席间	-15612
尽杀之	-15613
居何职	-15614
屯合淝	-15615
屯粮草	-15616
山之上	-15617
山僻路	-15618
山坡下	-15619
山开路	-15620
岂不自	-15621
岂不见	-15622
左右牵	-15623
左贤王	-15624
差人来	-15625
已算定	-15626
布从之	-15627
布大怒	-15628
,	-15629
。	-15630
:	-15631
“	-15632
”	-15633
曰	-15634
之	-15635
不	-15636
人	-15637
军	-15638
兵	-15639
大	-15640
一	-15641
马	-15642
将	-15643
?	-15644
来	-15645
、	-15646
有	-15647
下	-15648
于	-15649
此	-15650
操	-15651
;	-15652
中	-15653
为	-15654
!	-15655
见	-15656
而	-15657
何	-15658
出	-15659
吾	-15660
德	-15661
可	-15662
后	-15663
也	-15664
明	-15665
公	-15666
以	-15667
上	-15668
曹	-15669
张	-15670
▁	-15671
今	-15672
玄	-15673
与	-15674
去	-15675
城	-15676
其	-15677
令	-15678
日	-15679
孔	-15680
二	-15681
乃	-15682
回	-15683
自	-15684
引	-15685
如	-15686
在	-15687
入	-15688
言	-15689
是	-15690
相	-15691
得	-15692
杀	-15693
无	-15694
关	-15695
了	-15696
我	-15697
三	-15698
至	-15699
说	-15700
到	-15701
主	-15702
前	-15703
先	-15704
子	-15705
知	-15706
十	-15707
天	-15708
皆	-15709
事	-15710
汝	-15711
必	-15712
魏	-15713
时	-15714
刘	-15715
又	-15716
只	-15717
山	-15718
当	-15719
已	-15720
若	-15721
云	-15722
却	-15723
报	-15724
正	-15725
欲	-15726
众	-15727
战	-15728
长	-15729
使	-15730
路	-15731
寨	-15732
孙	-15733
州	-15734
安	-15735
王	-15736
心	-15737
问	-15738
遂	-15739
取	-15740
起	-15741
死	-15742
然	-15743
守	-15744
者	-15745
行	-15746
计	-15747
吴	-15748
等	-15749
便	-15750
矣	-15751
分	-15752
书	-15753
布	-15754
从	-15755
命	-15756
士	-15757
诸	-15758
未	-15759
侯	-15760
飞	-15761
蜀	-15762
面	-15763
东	-15764
急	-15765
进	-15766
走	-15767
权	-15768
闻	-15769
四	-15770
百	-15771
忽	-15772
能	-15773
南	-15774
两	-15775
即	-15776
往	-15777
数	-15778
备	-15779
退	-15780
五	-15781
平	-15782
都	-15783
所	-15784
望	-15785
江	-15786
汉	-15787
门	-15788
地	-15789
臣	-15790
太	-15791
方	-15792
万	-15793
文	-15794
生	-15795
故	-15796
处	-15797
降	-15798
司	-15799
用	-15800
小	-15801
各	-15802
西	-15803
声	-15804
尽	-15805
水	-15806
吕	-15807
黄	-15808
敢	-15809
手	-15810
懿	-15811
余	-15812
夜	-15813
惊	-15814
且	-15815
议	-15816
被	-15817
亦	-15818
住	-15819
请	-15820
败	-15821
听	-15822
领	-15823
维	-15824
国	-15825
忠	-15826
夫	-15827
左	-15828
喜	-15829
贼	-15830
帝	-15831
怒	-15832
丞	-15833
袁	-15834
待	-15835
名	-15836
官	-15837
教	-15838
道	-15839
内	-15840
看	-15841
许	-15842
立	-15843
伏	-15844
徐	-15845
阳	-15846
应	-15847
非	-15848
同	-15849
救	-15850
策	-15851
夏	-15852
武	-15853
成	-15854
多	-15855
火	-15856
身	-15857
拜	-15858
荆	-15859
意	-15860
敌	-15861
斩	-15862
绍	-15863
某	-15864
合	-15865
右	-15866
年	-15867
赶	-15868
师	-15869
家	-15870
瑜	-15871
过	-15872
阵	-15873
攻	-15874
刀	-15875
千	-15876
周	-15877
延	-15878
里	-15879
定	-15880
会	-15881
并	-15882
高	-15883
作	-15884
口	-15885
因	-15886
头	-15887
笑	-15888
粮	-15889
次	-15890
迎	-15891
亲	-15892
追	-15893
势	-15894
李	-15895
船	-15896
外	-15897
君	-15898
表	-15899
谋	-15900
间	-15901
胜	-15902
赵	-15903
陈	-15904
车	-15905
投	-15906
北	-15907
毕	-15908
遣	-15909
乎	-15910
重	-15911
归	-15912
接	-15913
甚	-15914
告	-15915
谓	-15916
发	-15917
首	-15918
弟	-15919
恐	-15920
营	-15921
放	-15922
直	-15923
兴	-15924
随	-15925
他	-15926
受	-15927
乘	-15928
耳	-15929
愿	-15930
视	-15931
早	-15932
父	-15933
虽	-15934
失	-15935
再	-15936
昭	-15937
及	-15938
连	-15939
兄	-15940
尚	-15941
边	-15942
旗	-15943
复	-15944
原	-15945
则	-15946
功	-15947
老	-15948
骑	-15949
奉	-15950
商	-15951
肃	-15952
奏	-15953
奔	-15954
葛	-15955
足	-15956
力	-15957
坐	-15958
更	-15959
义	-15960
帐	-15961
郡	-15962
宫	-15963
卓	-15964
开	-15965
酒	-15966
本	-15967
董	-15968
乱	-15969
唤	-15970
破	-15971
久	-15972
封	-15973
就	-15974
反	-15975
要	-15976
既	-15977
民	-15978
孟	-15979
箭	-15980
礼	-15981
杨	-15982
龙	-15983
动	-15984
解	-15985
朝	-15986
统	-15987
休	-15988
剑	-15989
收	-15990
留	-15991
艾	-15992
疑	-15993
图	-15994
岂	-15995
齐	-15996
姓	-15997
风	-15998
姜	-15999
部	-16000
擒	-16001
字	-16002
郭	-16003
邓	-16004
彼	-16005
交	-16006
获	-16007
皇	-16008
叫	-16009
屯	-16010
背	-16011
送	-16012
金	-16013
川	-16014
枪	-16015
超	-16016
才	-16017
法	-16018
亮	-16019
韩	-16020
着	-16021
耶	-16022
观	-16023
远	-16024
须	-16025
近	-16026
还	-16027
难	-16028
径	-16029
真	-16030
带	-16031
月	-16032
督	-16033
围	-16034
但	-16035
你	-16036
哭	-16037
弃	-16038
仁	-16039
辞	-16040
八	-16041
密	-16042
差	-16043
良	-16044
锋	-16045
献	-16046
罪	-16047
坚	-16048
个	-16049
叹	-16050
提	-16051
病	-16052
半	-16053
打	-16054
传	-16055
草	-16056
诏	-16057
郃	-16058
鲁	-16059
气	-16060
把	-16061
白	-16062
饮	-16063
信	-16064
少	-16065
思	-16066
探	-16067
那	-16068
勿	-16069
常	-16070
好	-16071
流	-16072
庞	-16073
第	-16074
冲	-16075
号	-16076
肯	-16077
轻	-16078
鼓	-16079
辽	-16080
服	-16081
允	-16082
雄	-16083
射	-16084
共	-16085
河	-16086
乐	-16087
任	-16088
别	-16089
害	-16090
谷	-16091
喊	-16092
求	-16093
实	-16094
谢	-16095
宜	-16096
纵	-16097
保	-16098
宁	-16099
叔	-16100
虎	-16101
诗	-16102
助	-16103
容	-16104
设	-16105
决	-16106
向	-16107
承	-16108
深	-16109
土	-16110
蒙	-16111
举	-16112
付	-16113
奈	-16114
止	-16115
夺	-16116
居	-16117
暗	-16118
衣	-16119
贤	-16120
史	-16121
星	-16122
神	-16123
答	-16124
达	-16125
甲	-16126
断	-16127
母	-16128
七	-16129
世	-16130
恩	-16131
虚	-16132
召	-16133
征	-16134
震	-16135
幸	-16136
谁	-16137
元	-16138
指	-16139
散	-16140
翼	-16141
侍	-16142
陛	-16143
食	-16144
对	-16145
璋	-16146
氏	-16147
恨	-16148
全	-16149
威	-16150
孤	-16151
岱	-16152
骂	-16153
曾	-16154
聚	-16155
新	-16156
特	-16157
慌	-16158
程	-16159
干	-16160
府	-16161
目	-16162
落	-16163
遇	-16164
女	-16165
陆	-16166
六	-16167
卿	-16168
建	-16169
渊	-16170
约	-16171
陵	-16172
驾	-16173
击	-16174
勇	-16175
称	-16176
谏	-16177
速	-16178
亡	-16179
色	-16180
青	-16181
危	-16182
术	-16183
刺	-16184
寻	-16185
渡	-16186
顺	-16187
顾	-16188
拨	-16189
桥	-16190
蔡	-16191
喝	-16192
料	-16193
忧	-16194
昔	-16195
赏	-16196
严	-16197
晃	-16198
襄	-16199
叱	-16200
和	-16201
朕	-16202
登	-16203
祖	-16204
逃	-16205
临	-16206
绝	-16207
蛮	-16208
伐	-16209
淮	-16210
甘	-16211
石	-16212
结	-16213
队	-16214
盖	-16215
赐	-16216
光	-16217
松	-16218
离	-16219
加	-16220
推	-16221
木	-16222
物	-16223
苞	-16224
英	-16225
倒	-16226
果	-16227
袭	-16228
九	-16229
慈	-16230
细	-16231
华	-16232
善	-16233
步	-16234
泰	-16235
丕	-16236
依	-16237
否	-16238
宴	-16239
班	-16240
诈	-16241
俱	-16242
精	-16243
逊	-16244
堂	-16245
负	-16246
旧	-16247
情	-16248
弓	-16249
息	-16250
执	-16251
突	-16252
赴	-16253
仇	-16254
典	-16255
劳	-16256
惧	-16257
的	-16258
禁	-16259
位	-16260
劫	-16261
匹	-16262
惇	-16263
劝	-16264
理	-16265
角	-16266
挺	-16267
妻	-16268
招	-16269
敬	-16270
罢	-16271
县	-16272
拒	-16273
牛	-16274
霸	-16275
颜	-16276
室	-16277
儿	-16278
厚	-16279
造	-16280
驱	-16281
宗	-16282
灵	-16283
睿	-16284
仪	-16285
异	-16286
伤	-16287
傕	-16288
拔	-16289
瑾	-16290
亭	-16291
化	-16292
持	-16293
汜	-16294
利	-16295
岸	-16296
怀	-16297
语	-16298
忙	-16299
殿	-16300
祁	-16301
空	-16302
群	-16303
护	-16304
洪	-16305
灭	-16306
盛	-16307
通	-16308
性	-16309
折	-16310
满	-16311
致	-16312
莫	-16313
初	-16314
变	-16315
尉	-16316
樊	-16317
讨	-16318
这	-16319
业	-16320
斗	-16321
候	-16322
吉	-16323
终	-16324
野	-16325
修	-16326
具	-16327
卧	-16328
倘	-16329
勒	-16330
卒	-16331
困	-16332
扶	-16333
郎	-16334
险	-16335
晚	-16336
强	-16337
褚	-16338
准	-16339
御	-16340
祭	-16341
朱	-16342
诛	-16343
响	-16344
想	-16345
机	-16346
极	-16347
独	-16348
争	-16349
惟	-16350
丈	-16351
彪	-16352
截	-16353
掩	-16354
讫	-16355
丧	-16356
比	-16357
糜	-16358
冀	-16359
幼	-16360
洛	-16361
雍	-16362
捉	-16363
点	-16364
镇	-16365
乾	-16366
春	-16367
济	-16368
血	-16369
贾	-16370
傅	-16371
每	-16372
烧	-16373
除	-16374
托	-16375
拥	-16376
略	-16377
蒋	-16378
识	-16379
哨	-16380
林	-16381
泣	-16382
脱	-16383
调	-16384
赍	-16385
丁	-16386
器	-16387
宝	-16388
志	-16389
感	-16390
戟	-16391
治	-16392
纪	-16393
砍	-16394
铁	-16395
雨	-16396
呼	-16397
横	-16398
犹	-16399
谭	-16400
逆	-16401
奋	-16402
转	-16403
钟	-16404
切	-16405
席	-16406
抵	-16407
昌	-16408
玉	-16409
腹	-16410
防	-16411
仗	-16412
海	-16413
祸	-16414
缚	-16415
哉	-16416
庶	-16417
徒	-16418
洞	-16419
荀	-16420
迟	-16421
据	-16422
瑁	-16423
运	-16424
古	-16425
员	-16426
整	-16427
田	-16428
范	-16429
伯	-16430
列	-16431
益	-16432
誓	-16433
遍	-16434
—	-16435
犯	-16436
现	-16437
遗	-16438
免	-16439
凉	-16440
孝	-16441
披	-16442
泪	-16443
素	-16444
融	-16445
奸	-16446
纳	-16447
绣	-16448
腾	-16449
芳	-16450
埋	-16451
廷	-16452
桓	-16453
瓒	-16454
骤	-16455
患	-16456
校	-16457
级	-16458
节	-16459
苦	-16460
览	-16461
赤	-16462
易	-16463
虑	-16464
论	-16465
辅	-16466
仓	-16467
几	-16468
升	-16469
奇	-16470
韦	-16471
智	-16472
番	-16473
痛	-16474
竟	-16475
肉	-16476
袍	-16477
顿	-16478
催	-16479
或	-16480
皓	-16481
隐	-16482
按	-16483
歇	-16484
避	-16485
废	-16486
普	-16487
乡	-16488
仲	-16489
吏	-16490
尝	-16491
沛	-16492
炮	-16493
画	-16494
误	-16495
妾	-16496
条	-16497
祎	-16498
福	-16499
舍	-16500
诩	-16501
赞	-16502
阴	-16503
仰	-16504
雷	-16505
骨	-16506
岁	-16507
度	-16508
挂	-16509
昏	-16510
晋	-16511
红	-16512
养	-16513
印	-16514
怨	-16515
率	-16516
辈	-16517
专	-16518
写	-16519
参	-16520
台	-16521
寿	-16522
忍	-16523
羌	-16524
舟	-16525
割	-16526
厮	-16527
夹	-16528
廖	-16529
搦	-16530
秋	-16531
葬	-16532
越	-16533
遥	-16534
丰	-16535
乞	-16536
双	-16537
嫂	-16538
施	-16539
歆	-16540
秦	-16541
豫	-16542
预	-16543
呈	-16544
掌	-16545
梁	-16546
楼	-16547
申	-16548
管	-16549
芝	-16550
让	-16551
鸣	-16552
卫	-16553
广	-16554
消	-16555
琦	-16556
眼	-16557
话	-16558
嘉	-16559
扬	-16560
暂	-16561
累	-16562
辱	-16563
逢	-16564
配	-16565
阿	-16566
单	-16567
妙	-16568
客	-16569
巾	-16570
抚	-16571
拦	-16572
枝	-16573
骸	-16574
借	-16575
凤	-16576
唬	-16577
拍	-16578
期	-16579
爽	-16580
綝	-16581
谦	-16582
贵	-16583
费	-16584
锦	-16585
似	-16586
弩	-16587
彧	-16588
欺	-16589
蝉	-16590
责	-16591
隘	-16592
鞭	-16593
尸	-16594
景	-16595
经	-16596
阻	-16597
傍	-16598
己	-16599
挥	-16600
族	-16601
池	-16602
泽	-16603
疾	-16604
跃	-16605
集	-16606
尺	-16607
恪	-16608
童	-16609
竺	-16610
翻	-16611
尊	-16612
念	-16613
索	-16614
钦	-16615
儒	-16616
境	-16617
学	-16618
审	-16619
总	-16620
斧	-16621
梦	-16622
焉	-16623
由	-16624
胆	-16625
充	-16626
兼	-16627
副	-16628
圣	-16629
坛	-16630
弱	-16631
拆	-16632
撞	-16633
沙	-16634
爵	-16635
胡	-16636
谡	-16637
贺	-16638
宣	-16639
微	-16640
排	-16641
效	-16642
爱	-16643
置	-16644
丑	-16645
坡	-16646
壮	-16647
寇	-16648
戈	-16649
攸	-16650
旨	-16651
狱	-16652
覆	-16653
诚	-16654
遵	-16655
郑	-16656
醉	-16657
铜	-16658
锐	-16659
阁	-16660
雪	-16661
体	-16662
壁	-16663
寸	-16664
巡	-16665
授	-16666
植	-16667
哥	-16668
朗	-16669
柴	-16670
泉	-16671
温	-16672
私	-16673
穿	-16674
紧	-16675
舞	-16676
觉	-16677
载	-16678
量	-16679
’	-16680
丹	-16681
侄	-16682
妄	-16683
宠	-16684
峻	-16685
改	-16686
昨	-16687
移	-16688
貂	-16689
阶	-16690
馆	-16691
代	-16692
叙	-16693
拾	-16694
楙	-16695
清	-16696
渐	-16697
猛	-16698
药	-16699
藏	-16700
乌	-16701
哀	-16702
扎	-16703
旌	-16704
永	-16705
炎	-16706
禅	-16707
筑	-16708
缓	-16709
选	-16710
香	-16711
党	-16712
惜	-16713
戮	-16714
抱	-16715
杜	-16716
树	-16717
环	-16718
界	-16719
职	-16720
衡	-16721
陇	-16722
陶	-16723
乏	-16724
固	-16725
存	-16726
巴	-16727
忘	-16728
渭	-16729
烈	-16730
算	-16731
遭	-16732
阜	-16733
克	-16734
制	-16735
嘱	-16736
继	-16737
美	-16738
荐	-16739
静	-16740
‘	-16741
况	-16742
庄	-16743
座	-16744
恶	-16745
慢	-16746
旦	-16747
残	-16748
端	-16749
厉	-16750
宽	-16751
嵩	-16752
悔	-16753
牙	-16754
羊	-16755
逼	-16756
《	-16757
》	-16758
习	-16759
吊	-16760
园	-16761
基	-16762
庙	-16763
慰	-16764
拿	-16765
政	-16766
昱	-16767
繇	-16768
荣	-16769
诞	-16770
谕	-16771
侧	-16772
停	-16773
凌	-16774
垂	-16775
愚	-16776
斜	-16777
泄	-16778
活	-16779
熟	-16780
玺	-16781
臂	-16782
花	-16783
试	-16784
鬼	-16785
仍	-16786
医	-16787
属	-16788
嶷	-16789
愈	-16790
显	-16791
牵	-16792
状	-16793
狂	-16794
盟	-16795
省	-16796
羽	-16797
虞	-16798
街	-16799
迁	-16800
颇	-16801
假	-16802
务	-16803
押	-16804
昂	-16805
竖	-16806
续	-16807
绶	-16808
薄	-16809
诺	-16810
读	-16811
辛	-16812
闭	-16813
兖	-16814
凶	-16815
吞	-16816
圆	-16817
妇	-16818
尔	-16819
尾	-16820
援	-16821
最	-16822
监	-16823
瞒	-16824
社	-16825
积	-16826
系	-16827
违	-16828
.	-16829
佗	-16830
偏	-16831
宋	-16832
戴	-16833
混	-16834
潘	-16835
灯	-16836
竹	-16837
臾	-16838
荡	-16839
陷	-16840
僚	-16841
凭	-16842
塞	-16843
岭	-16844
快	-16845
焚	-16846
瓘	-16847
疏	-16848
示	-16849
窃	-16850
籍	-16851
纷	-16852
轮	-16853
钱	-16854
附	-16855
雒	-16856
驰	-16857
麦	-16858
黑	-16859
形	-16860
怜	-16861
栅	-16862
毒	-16863
烦	-16864
篡	-16865
谨	-16866
象	-16867
跟	-16868
丘	-16869
京	-16870
俭	-16871
儁	-16872
冠	-16873
凡	-16874
始	-16875
市	-16876
掷	-16877
摆	-16878
曲	-16879
檄	-16880
淝	-16881
矢	-16882
禄	-16883
诱	-16884
闲	-16885
囊	-16886
寒	-16887
康	-16888
换	-16889
欣	-16890
歌	-16891
烟	-16892
牧	-16893
笔	-16894
翔	-16895
蛇	-16896
侵	-16897
宾	-16898
崔	-16899
户	-16900
房	-16901
杂	-16902
毛	-16903
矛	-16904
禀	-16905
稷	-16906
穷	-16907
章	-16908
筵	-16909
适	-16910
值	-16911
倾	-16912
兮	-16913
兰	-16914
富	-16915
庆	-16916
晔	-16917
珪	-16918
脚	-16919
萌	-16920
郝	-16921
倍	-16922
兆	-16923
夕	-16924
戏	-16925
掘	-16926
暴	-16927
杯	-16928
段	-16929
沉	-16930
琮	-16931
米	-16932
赖	-16933
辂	-16934
银	-16935
隔	-16936
露	-16937
髦	-16938
齿	-16939
占	-16940
坠	-16941
弘	-16942
恰	-16943
悬	-16944
晓	-16945
珠	-16946
短	-16947
舅	-16948
荒	-16949
装	-16950
资	-16951
途	-16952
鞍	-16953
驿	-16954
1	-16955
俊	-16956
尘	-16957
帛	-16958
怎	-16959
怕	-16960
掠	-16961
杰	-16962
浩	-16963
溪	-16964
甫	-16965
畏	-16966
羞	-16967
苏	-16968
赚	-16969
迷	-16970
靖	-16971
髯	-16972
刚	-16973
屈	-16974
屏	-16975
崩	-16976
恢	-16977
掣	-16978
措	-16979
摇	-16980
泠	-16981
泸	-16982
涪	-16983
盔	-16984
练	-16985
质	-16986
项	-16987
低	-16988
佐	-16989
场	-16990
床	-16991
怪	-16992
惶	-16993
浮	-16994
瞻	-16995
绕	-16996
聘	-16997
邀	-16998
闪	-16999
麾	-17000
伊	-17001
冒	-17002
坑	-17003
完	-17004
寡	-17005
帅	-17006
抄	-17007
抗	-17008
损	-17009
束	-17010
桃	-17011
燕	-17012
诉	-17013
豪	-17014
顷	-17015
魂	-17016
佯	-17017
博	-17018
呐	-17019
嗣	-17020
宇	-17021
宿	-17022
察	-17023
尹	-17024
屡	-17025
搭	-17026
撤	-17027
疮	-17028
简	-17029
记	-17030
跪	-17031
辆	-17032
邺	-17033
钧	-17034
锁	-17035
鼠	-17036
伍	-17037
做	-17038
历	-17039
坞	-17040
堆	-17041
妹	-17042
宅	-17043
恃	-17044
悦	-17045
惑	-17046
扯	-17047
搬	-17048
毗	-17049
波	-17050
熙	-17051
犬	-17052
狼	-17053
祥	-17054
簇	-17055
绪	-17056
胄	-17057
谈	-17058
豹	-17059
遮	-17060
醒	-17061
鱼	-17062
默	-17063
乔	-17064
僻	-17065
吟	-17066
嗟	-17067
堪	-17068
庸	-17069
忿	-17070
恕	-17071
抢	-17072
择	-17073
擂	-17074
根	-17075
桑	-17076
浅	-17077
涕	-17078
游	-17079
琰	-17080
睡	-17081
稍	-17082
窜	-17083
聪	-17084
胤	-17085
袖	-17086
裂	-17087
觑	-17088
词	-17089
财	-17090
邳	-17091
闷	-17092
院	-17093
隆	-17094
音	-17095
倚	-17096
剿	-17097
幽	-17098
怏	-17099
拈	-17100
挑	-17101
插	-17102
楚	-17103
沿	-17104
洮	-17105
琬	-17106
秀	-17107
种	-17108
貌	-17109
跳	-17110
饭	-17111
鹿	-17112
优	-17113
兔	-17114
冯	-17115
卢	-17116
妃	-17117
式	-17118
彝	-17119
捷	-17120
暹	-17121
榻	-17122
油	-17123
漏	-17124
潜	-17125
照	-17126
片	-17127
盗	-17128
绰	-17129
舌	-17130
般	-17131
(	-17132
)	-17133
些	-17134
佥	-17135
兀	-17136
冷	-17137
匡	-17138
卷	-17139
友	-17140
寝	-17141
巢	-17142
悟	-17143
惭	-17144
旱	-17145
毁	-17146
毋	-17147
滚	-17148
璝	-17149
男	-17150
疲	-17151
祜	-17152
给	-17153
绵	-17154
缺	-17155
耀	-17156
胸	-17157
酌	-17158
酣	-17159
释	-17160
铠	-17161
际	-17162
雾	-17163
鼎	-17164
冬	-17165
卜	-17166
吃	-17167
垒	-17168
委	-17169
嫁	-17170
恋	-17171
盘	-17172
碎	-17173
竭	-17174
耿	-17175
认	-17176
谯	-17177
佩	-17178
偷	-17179
刻	-17180
午	-17181
妖	-17182
季	-17183
屋	-17184
旷	-17185
欢	-17186
殷	-17187
湖	-17188
符	-17189
罚	-17190
荼	-17191
蒯	-17192
触	-17193
诡	-17194
谅	-17195
零	-17196
叩	-17197
咨	-17198
壕	-17199
宪	-17200
宰	-17201
庐	-17202
弦	-17203
怯	-17204
恭	-17205
扫	-17206
捧	-17207
昼	-17208
没	-17209
沮	-17210
濡	-17211
琼	-17212
皂	-17213
祀	-17214
稠	-17215
苍	-17216
踏	-17217
辔	-17218
透	-17219
逐	-17220
邈	-17221
钺	-17222
飘	-17223
鹤	-17224
仙	-17225
勋	-17226
卖	-17227
堕	-17228
婿	-17229
宦	-17230
展	-17231
幡	-17232
怠	-17233
愁	-17234
扮	-17235
挟	-17236
沟	-17237
涂	-17238
漫	-17239
猎	-17240
瓦	-17241
眉	-17242
祝	-17243
簿	-17244
脑	-17245
芦	-17246
茅	-17247
访	-17248
赠	-17249
赦	-17250
冈	-17251
刑	-17252
勤	-17253
协	-17254
吐	-17255
吹	-17256
巨	-17257
庭	-17258
悌	-17259
拖	-17260
替	-17261
村	-17262
械	-17263
焦	-17264
牢	-17265
疆	-17266
盏	-17267
耻	-17268
艺	-17269
薛	-17270
贡	-17271
郿	-17272
顶	-17273
鸯	-17274
黎	-17275
农	-17276
凯	-17277
刃	-17278
咬	-17279
婢	-17280
忌	-17281
悲	-17282
惠	-17283
担	-17284
晌	-17285
枭	-17286
柩	-17287
榜	-17288
款	-17289
测	-17290
添	-17291
濮	-17292
筏	-17293
箕	-17294
紫	-17295
舒	-17296
茂	-17297
葭	-17298
践	-17299
辰	-17300
邮	-17301
阚	-17302
雀	-17303
颍	-17304
偶	-17305
凛	-17306
囚	-17307
均	-17308
垓	-17309
宛	-17310
愧	-17311
搜	-17312
携	-17313
旬	-17314
柳	-17315
楷	-17316
涉	-17317
溃	-17318
狭	-17319
纸	-17320
罗	-17321
著	-17322
贱	-17323
输	-17324
邕	-17325
错	-17326
雅	-17327
饶	-17328
鲍	-17329
买	-17330
享	-17331
区	-17332
叶	-17333
坂	-17334
奎	-17335
寺	-17336
彰	-17337
懦	-17338
戒	-17339
挡	-17340
挫	-17341
杖	-17342
津	-17343
皮	-17344
稳	-17345
窥	-17346
腰	-17347
苗	-17348
虔	-17349
讲	-17350
迤	-17351
迹	-17352
遁	-17353
限	-17354
饱	-17355
僭	-17356
兽	-17357
卞	-17358
叛	-17359
启	-17360
唇	-17361
唐	-17362
央	-17363
妨	-17364
导	-17365
巧	-17366
彭	-17367
恼	-17368
悉	-17369
慨	-17370
拽	-17371
擅	-17372
旋	-17373
柏	-17374
浪	-17375
涌	-17376
牌	-17377
稽	-17378
羕	-17379
耽	-17380
肝	-17381
辩	-17382
井	-17383
刎	-17384
勃	-17385
厅	-17386
喏	-17387
奂	-17388
弄	-17389
恙	-17390
恤	-17391
慎	-17392
扇	-17393
样	-17394
棺	-17395
汗	-17396
潼	-17397
激	-17398
濬	-17399
焰	-17400
睁	-17401
粉	-17402
纶	-17403
绩	-17404
衰	-17405
裹	-17406
谒	-17407
谥	-17408
躯	-17409
辕	-17410
逦	-17411
互	-17412
仆	-17413
伦	-17414
办	-17415
勉	-17416
卑	-17417
压	-17418
句	-17419
含	-17420
填	-17421
姑	-17422
孚	-17423
库	-17424
彤	-17425
愤	-17426
晏	-17427
渴	-17428
硕	-17429
纲	-17430
蔽	-17431
藤	-17432
蝗	-17433
骁	-17434
骄	-17435
2	-17436
供	-17437
偃	-17438
冢	-17439
净	-17440
喧	-17441
噪	-17442
墓	-17443
增	-17444
寄	-17445
履	-17446
工	-17447
幕	-17448
弑	-17449
惯	-17450
挽	-17451
斤	-17452
末	-17453
桂	-17454
沓	-17455
淳	-17456
犒	-17457
琊	-17458
祢	-17459
秉	-17460
翊	-17461
舆	-17462
谗	-17463
跌	-17464
辄	-17465
辟	-17466
逞	-17467
邑	-17468
邦	-17469
邽	-17470
钢	-17471
麴	-17472
龚	-17473
丛	-17474
么	-17475
件	-17476
伺	-17477
傲	-17478
剩	-17479
包	-17480
卸	-17481
厥	-17482
宓	-17483
帜	-17484
拂	-17485
搠	-17486
支	-17487
斛	-17488
栈	-17489
梯	-17490
毫	-17491
烂	-17492
碧	-17493
禹	-17494
笼	-17495
缘	-17496
耍	-17497
茶	-17498
裨	-17499
裴	-17500
贪	-17501
贫	-17502
邰	-17503
郦	-17504
霍	-17505
骇	-17506
骠	-17507
伟	-17508
匣	-17509
卦	-17510
咽	-17511
坏	-17512
墙	-17513
妆	-17514
婚	-17515
巳	-17516
庵	-17517
恍	-17518
慕	-17519
拘	-17520
振	-17521
握	-17522
摩	-17523
敕	-17524
旅	-17525
枉	-17526
染	-17527
湿	-17528
灾	-17529
热	-17530
狗	-17531
琅	-17532
畿	-17533
祚	-17534
筹	-17535
纯	-17536
绢	-17537
绳	-17538
舜	-17539
萧	-17540
贞	-17541
较	-17542
辎	-17543
逸	-17544
阔	-17545
阙	-17546
雏	-17547
顗	-17548
题	-17549
【	-17550
亥	-17551
佳	-17552
促	-17553
俗	-17554
创	-17555
剖	-17556
匆	-17557
卤	-17558
另	-17559
咸	-17560
堑	-17561
墨	-17562
奢	-17563
宏	-17564
岑	-17565
廉	-17566
彦	-17567
循	-17568
忻	-17569
抛	-17570
捐	-17571
敝	-17572
暮	-17573
朔	-17574
案	-17575
棒	-17576
榇	-17577
泥	-17578
滨	-17579
灌	-17580
烛	-17581
玻	-17582
畔	-17583
痊	-17584
睦	-17585
祈	-17586
股	-17587
艰	-17588
苟	-17589
荷	-17590
训	-17591
讶	-17592
详	-17593
踌	-17594
躇	-17595
躬	-17596
辇	-17597
递	-17598
邪	-17599
邹	-17600
采	-17601
饥	-17602
驻	-17603
鸡	-17604
鼻	-17605
】	-17606
伞	-17607
匠	-17608
叨	-17609
夸	-17610
娘	-17611
宵	-17612
帆	-17613
影	-17614
徽	-17615
愕	-17616
扰	-17617
掳	-17618
擞	-17619
斯	-17620
棹	-17621
欠	-17622
氅	-17623
汤	-17624
派	-17625
灶	-17626
焙	-17627
猪	-17628
瑞	-17629
眷	-17630
穴	-17631
竿	-17632
纮	-17633
绑	-17634
绿	-17635
耕	-17636
臧	-17637
虐	-17638
衙	-17639
觅	-17640
诵	-17641
贬	-17642
趋	-17643
跨	-17644
迸	-17645
酋	-17646
酬	-17647
阆	-17648
隙	-17649
雕	-17650
颈	-17651
额	-17652
驴	-17653
鲜	-17654
4	-17655
亏	-17656
劭	-17657
匿	-17658
叭	-17659
唾	-17660
嘶	-17661
坦	-17662
妫	-17663
尖	-17664
役	-17665
拱	-17666
敷	-17667
枯	-17668
柔	-17669
棋	-17670
沔	-17671
涧	-17672
漳	-17673
玠	-17674
琪	-17675
祷	-17676
秘	-17677
穆	-17678
膝	-17679
裁	-17680
褒	-17681
趁	-17682
躁	-17683
迫	-17684
述	-17685
銮	-17686
鏖	-17687
韬	-17688
颗	-17689
馥	-17690
鸟	-17691
8	-17692
H	-17693
仕	-17694
伪	-17695
例	-17696
俯	-17697
像	-17698
册	-17699
努	-17700
叉	-17701
叟	-17702
唯	-17703
喃	-17704
坟	-17705
墒	-17706
妒	-17707
嫉	-17708
峪	-17709
恚	-17710
惹	-17711
戎	-17712
掎	-17713
掾	-17714
揪	-17715
摄	-17716
斟	-17717
朵	-17718
柱	-17719
槽	-17720
模	-17721
檀	-17722
毅	-17723
毙	-17724
沈	-17725
洒	-17726
浑	-17727
涣	-17728
涨	-17729
涿	-17730
淫	-17731
淹	-17732
渎	-17733
渠	-17734
漠	-17735
焕	-17736
熊	-17737
矫	-17738
碌	-17739
禳	-17740
窝	-17741
篇	-17742
类	-17743
纂	-17744
络	-17745
芒	-17746
苇	-17747
警	-17748
诣	-17749
贯	-17750
赢	-17751
趱	-17752
跣	-17753
踪	-17754
蹄	-17755
郤	-17756
鄙	-17757
鉴	-17758
钉	-17759
锡	-17760
阎	-17761
雌	-17762
饿	-17763
鹰	-17764
麻	-17765
伴	-17766
健	-17767
僧	-17768
兹	-17769
凿	-17770
喉	-17771
夷	-17772
孺	-17773
巍	-17774
巫	-17775
帘	-17776
帻	-17777
帽	-17778
廊	-17779
录	-17780
恣	-17781
惚	-17782
懈	-17783
戚	-17784
抖	-17785
揖	-17786
攀	-17787
旁	-17788
旄	-17789
杠	-17790
枕	-17791
栗	-17792
椤	-17793
樵	-17794
毡	-17795
洗	-17796
渚	-17797
猇	-17798
琴	-17799
甄	-17800
盈	-17801
碑	-17802
笃	-17803
缉	-17804
缨	-17805
罡	-17806
翁	-17807
肩	-17808
膺	-17809
艟	-17810
艨	-17811
菹	-17812
葫	-17813
蜜	-17814
衔	-17815
补	-17816
袋	-17817
襟	-17818
评	-17819
谐	-17820
赋	-17821
踞	-17822
蹇	-17823
躲	-17824
遏	-17825
铺	-17826
锤	-17827
镜	-17828
雁	-17829
鸩	-17830
介	-17831
伸	-17832
佞	-17833
倦	-17834
僮	-17835
刮	-17836
劲	-17837
厄	-17838
圃	-17839
娶	-17840
宙	-17841
幔	-17842
底	-17843
弥	-17844
徊	-17845
恸	-17846
悠	-17847
懊	-17848
掀	-17849
敦	-17850
旺	-17851
朋	-17852
架	-17853
枷	-17854
栖	-17855
桶	-17856
梅	-17857
梢	-17858
检	-17859
沐	-17860
浴	-17861
爪	-17862
爬	-17863
狄	-17864
琳	-17865
疼	-17866
皖	-17867
秣	-17868
粲	-17869
罕	-17870
羡	-17871
臭	-17872
艘	-17873
茫	-17874
薪	-17875
谄	-17876
豢	-17877
贮	-17878
贿	-17879
赂	-17880
踊	-17881
辑	-17882
迈	-17883
邢	-17884
邵	-17885
锣	-17886
阉	-17887
靠	-17888
飐	-17889
驸	-17890
验	-17891
骏	-17892
鸿	-17893
齑	-17894
3	-17895
┫	-17896
ィ	-17897
丽	-17898
仔	-17899
们	-17900
俟	-17901
凰	-17902
叠	-17903
咎	-17904
啖	-17905
喘	-17906
垣	-17907
堤	-17908
夤	-17909
奠	-17910
奴	-17911
婆	-17912
婴	-17913
嫌	-17914
寐	-17915
尧	-17916
层	-17917
岖	-17918
岩	-17919
崇	-17920
崎	-17921
希	-17922
彀	-17923
悄	-17924
抑	-17925
抬	-17926
拷	-17927
捕	-17928
播	-17929
晴	-17930
暇	-17931
杆	-17932
材	-17933
板	-17934
枚	-17935
枣	-17936
柑	-17937
标	-17938
栏	-17939
桌	-17940
歹	-17941
殆	-17942
污	-17943
沸	-17944
泛	-17945
泼	-17946
淄	-17947
渔	-17948
溺	-17949
演	-17950
灰	-17951
炭	-17952
猖	-17953
甥	-17954
瘴	-17955
盆	-17956
睛	-17957
硬	-17958
碍	-17959
磨	-17960
祠	-17961
禽	-17962
粗	-17963
线	-17964
绊	-17965
绦	-17966
缢	-17967
耐	-17968
耒	-17969
聊	-17970
肠	-17971
胁	-17972
莱	-17973
莽	-17974
裔	-17975
证	-17976
诬	-17977
诲	-17978
谊	-17979
谣	-17980
辉	-17981
辨	-17982
遽	-17983
郁	-17984
鄂	-17985
酿	-17986
霎	-17987
靓	-17988
颀	-17989
频	-17990
飏	-17991
饰	-17992
驹	-17993
骘	-17994
龄	-17995
6	-17996
7	-17997
i	-17998
侮	-17999
俄	-18000
俺	-18001
冻	-18002
减	-18003
削	-18004
募	-18005
呕	-18006
呜	-18007
垕	-18008
壶	-18009
岘	-18010
峡	-18011
嵋	-18012
彩	-18013
彻	-18014
律	-18015
懒	-18016
扑	-18017
抹	-18018
拴	-18019
摧	-18020
撑	-18021
晨	-18022
暖	-18023
朽	-18024
柄	-18025
柜	-18026
殁	-18027
殄	-18028
殊	-18029
沂	-18030
泊	-18031
泗	-18032
浚	-18033
滕	-18034
烽	-18035
煌	-18036
煮	-18037
熘	-18038
狐	-18039
猿	-18040
瑶	-18041
畴	-18042
瘤	-18043
瘦	-18044
眨	-18045
睹	-18046
砖	-18047
磐	-18048
究	-18049
粟	-18050
综	-18051
缝	-18052
缶	-18053
罔	-18054
联	-18055
肺	-18056
腑	-18057
荥	-18058
蚁	-18059
觥	-18060
该	-18061
诰	-18062
豺	-18063
赛	-18064
逝	-18065
逵	-18066
郊	-18067
酰	-18068
钓	-18069
障	-18070
隶	-18071
颂	-18072
饵	-18073
骆	-18074
骧	-18075
鳌	-18076
丙	-18077
丢	-18078
产	-18079
佑	-18080
俞	-18081
兜	-18082
凝	-18083
凹	-18084
剥	-18085
劈	-18086
励	-18087
卵	-18088
呆	-18089
呵	-18090
品	-18091
喂	-18092
团	-18093
块	-18094
塌	-18095
壑	-18096
姿	-18097
媒	-18098
寓	-18099
峨	-18100
幌	-18101
店	-18102
徙	-18103
忖	-18104
悚	-18105
扣	-18106
批	-18107
抟	-18108
拢	-18109
挞	-18110
撇	-18111
敏	-18112
斌	-18113
晒	-18114
札	-18115
柯	-18116
栋	-18117
梓	-18118
椁	-18119
槛	-18120
歃	-18121
殃	-18122
殒	-18123
汲	-18124
浆	-18125
涛	-18126
潮	-18127
潸	-18128
炉	-18129
煜	-18130
煨	-18131
玩	-18132
疗	-18133
础	-18134
确	-18135
窄	-18136
竞	-18137
箸	-18138
簪	-18139
绱	-18140
缄	-18141
罩	-18142
羲	-18143
肋	-18144
脊	-18145
腐	-18146
蓄	-18147
藜	-18148
虏	-18149
虹	-18150
蠡	-18151
衍	-18152
衫	-18153
裕	-18154
裸	-18155
誉	-18156
诠	-18157
谙	-18158
谬	-18159
谮	-18160
贝	-18161
软	-18162
轴	-18163
邻	-18164
郗	-18165
鄄	-18166
鄢	-18167
醣	-18168
釭	-18169
锥	-18170
陂	-18171
隗	-18172
霄	-18173
霖	-18174
革	-18175
顒	-18176
颠	-18177
骋	-18178
髟	-18179
魁	-18180
鲈	-18181
鳎	-18182
鹄	-18183
鹏	-18184
麟	-18185
W	-18186
ё	-18187
丝	-18188
亚	-18189
伎	-18190
冕	-18191
剁	-18192
劣	-18193
哂	-18194
哑	-18195
啸	-18196
啼	-18197
嗔	-18198
埃	-18199
墩	-18200
夔	-18201
夭	-18202
契	-18203
奕	-18204
奖	-18205
姬	-18206
姻	-18207
孩	-18208
寰	-18209
局	-18210
屠	-18211
岳	-18212
嵌	-18213
巩	-18214
帕	-18215
帼	-18216
幅	-18217
序	-18218
庠	-18219
廙	-18220
弈	-18221
忆	-18222
怖	-18223
悼	-18224
惨	-18225
慷	-18226
扭	-18227
拳	-18228
捶	-18229
擐	-18230
敛	-18231
暑	-18232
暨	-18233
曩	-18234
曼	-18235
栽	-18236
棘	-18237
概	-18238
槊	-18239
樱	-18240
樽	-18241
沥	-18242
沾	-18243
浓	-18244
浸	-18245
涓	-18246
润	-18247
渤	-18248
滋	-18249
滔	-18250
滥	-18251
潭	-18252
灿	-18253
牡	-18254
狈	-18255
珍	-18256
璜	-18257
璧	-18258
甑	-18259
痴	-18260
瘢	-18261
盼	-18262
眩	-18263
瞑	-18264
矗	-18265
砀	-18266
穑	-18267
窗	-18268
笨	-18269
织	-18270
绽	-18271
缮	-18272
罾	-18273
翠	-18274
考	-18275
耗	-18276
耸	-18277
肆	-18278
肥	-18279
膳	-18280
舐	-18281
芥	-18282
莹	-18283
菜	-18284
蕤	-18285
薨	-18286
蛟	-18287
衷	-18288
规	-18289
讳	-18290
诤	-18291
谞	-18292
谤	-18293
谲	-18294
谶	-18295
贲	-18296
贴	-18297
赘	-18298
蹈	-18299
轨	-18300
轩	-18301
轸	-18302
返	-18303
钩	-18304
铃	-18305
铮	-18306
锄	-18307
陋	-18308
陪	-18309
隽	-18310
鞴	-18311
颤	-18312
馈	-18313
骞	-18314
鹊	-18315
鼙	-18316
=	-18317
U	-18318
ǎ	-18319
Γ	-18320
ι	-18321
ㄔ	-18322
伙	-18323
侥	-18324
冤	-18325
冰	-18326
勘	-18327
勾	-18328
吁	-18329
吝	-18330
味	-18331
咒	-18332
嗜	-18333
嚼	-18334
夙	-18335
姊	-18336
娜	-18337
娴	-18338
嬷	-18339
寅	-18340
屑	-18341
屦	-18342
崖	-18343
巷	-18344
幻	-18345
庇	-18346
廪	-18347
弊	-18348
忒	-18349
忝	-18350
恂	-18351
恺	-18352
惮	-18353
戳	-18354
扁	-18355
拗	-18356
拚	-18357
拟	-18358
拣	-18359
拧	-18360
揭	-18361
摘	-18362
撼	-18363
攘	-18364
昆	-18365
映	-18366
昶	-18367
晕	-18368
晦	-18369
曜	-18370
梆	-18371
椋	-18372
橹	-18373
毖	-18374
氨	-18375
沃	-18376
泌	-18377
注	-18378
泻	-18379
浊	-18380
湘	-18381
溅	-18382
源	-18383
滩	-18384
犊	-18385
狮	-18386
猜	-18387
琐	-18388
畅	-18389
疥	-18390
痪	-18391
盒	-18392
瞬	-18393
砂	-18394
砚	-18395
磾	-18396
禾	-18397
稀	-18398
穰	-18399
穹	-18400
窟	-18401
笮	-18402
篱	-18403
篷	-18404
粪	-18405
繁	-18406
纠	-18407
纣	-18408
纬	-18409
绥	-18410
缎	-18411
网	-18412
翟	-18413
翱	-18414
肮	-18415
肱	-18416
脸	-18417
腿	-18418
膏	-18419
茚	-18420
茨	-18421
藩	-18422
蚕	-18423
衅	-18424
衢	-18425
袄	-18426
袅	-18427
讹	-18428
诘	-18429
诮	-18430
谀	-18431
谌	-18432
谑	-18433
谧	-18434
豆	-18435
赎	-18436
跋	-18437
跑	-18438
蹋	-18439
辍	-18440
迩	-18441
逍	-18442
逾	-18443
鄱	-18444
鍪	-18445
针	-18446
钡	-18447
销	-18448
锅	-18449
锹	-18450
闹	-18451
陕	-18452
雳	-18453
需	-18454
霜	-18455
霹	-18456
靳	-18457
鞘	-18458
韶	-18459
飨	-18460
餐	-18461
饕	-18462
驽	-18463
魄	-18464
鲂	-18465
鳞	-18466
鸦	-18467
鹗	-18468
麒	-18469
A	-18470
N	-18471
S	-18472
V	-18473
А	-18474
В	-18475
乖	-18476
乳	-18477
亍	-18478
亢	-18479
仿	-18480
伉	-18481
俘	-18482
俨	-18483
俸	-18484
倅	-18485
凑	-18486
剐	-18487
匦	-18488
厌	-18489
厝	-18490
厢	-18491
厨	-18492
叮	-18493
吨	-18494
吼	-18495
哄	-18496
喔	-18497
喷	-18498
嘤	-18499
坤	-18500
堵	-18501
够	-18502
姐	-18503
娄	-18504
婧	-18505
宥	-18506
寂	-18507
寔	-18508
崾	-18509
巽	-18510
帖	-18511
庖	-18512
廨	-18513
弹	-18514
徘	-18515
徵	-18516
态	-18517
怅	-18518
怿	-18519
悖	-18520
惕	-18521
惫	-18522
愆	-18523
慧	-18524
戍	-18525
扈	-18526
扛	-18527
拙	-18528
拭	-18529
拯	-18530
挝	-18531
挤	-18532
捱	-18533
搅	-18534
敖	-18535
昊	-18536
暧	-18537
枢	-18538
查	-18539
株	-18540
桀	-18541
梗	-18542
森	-18543
椅	-18544
槎	-18545
歉	-18546
殓	-18547
殡	-18548
毓	-18549
氯	-18550
汹	-18551
泾	-18552
洱	-18553
浇	-18554
涎	-18555
淋	-18556
港	-18557
渺	-18558
滑	-18559
滴	-18560
燃	-18561
獭	-18562
獯	-18563
珩	-18564
瓮	-18565
电	-18566
疤	-18567
疫	-18568
痒	-18569
痢	-18570
皋	-18571
皎	-18572
皿	-18573
盐	-18574
盱	-18575
眙	-18576
眠	-18577
砸	-18578
硝	-18579
硪	-18580
硫	-18581
碣	-18582
磺	-18583
科	-18584
秽	-18585
筋	-18586
粕	-18587
糊	-18588
绅	-18589
绛	-18590
绞	-18591
绾	-18592
缆	-18593
缙	-18594
缟	-18595
翅	-18596
耆	-18597
肌	-18598
胖	-18599
胶	-18600
脂	-18601
脉	-18602
膊	-18603
舰	-18604
艳	-18605
苑	-18606
葜	-18607
蒂	-18608
薰	-18609
藉	-18610
虬	-18611
蜂	-18612
螅	-18613
蟊	-18614
袒	-18615
覈	-18616
觞	-18617
譬	-18618
询	-18619
课	-18620
谝	-18621
谱	-18622
货	-18623
贩	-18624
贻	-18625
赌	-18626
赧	-18627
轲	-18628
轿	-18629
辏	-18630
迭	-18631
邯	-18632
郏	-18633
郸	-18634
酷	-18635
酸	-18636
镌	-18637
闾	-18638
阄	-18639
阅	-18640
隳	-18641
靶	-18642
鞒	-18643
類	-18644
顽	-18645
颊	-18646
颓	-18647
饯	-18648
馗	-18649
骡	-18650
髀	-18651
髓	-18652
鬃	-18653
魈	-18654
鲸	-18655
鸠	-18656
鸾	-18657
0	-18658
5	-18659
9	-18660
F	-18661
G	-18662
J	-18663
K	-18664
L	-18665
ā	-18666
υ	-18667
∮	-18668
∽	-18669
ケ	-18670
チ	-18671
ㄈ	-18672
丸	-18673
乂	-18674
乙	-18675
亩	-18676
什	-18677
仅	-18678
价	-18679
伷	-18680
俦	-18681
俾	-18682
倏	-18683
倥	-18684
偌	-18685
偎	-18686
偿	-18687
储	-18688
傩	-18689
儆	-18690
冓	-18691
凄	-18692
凋	-18693
函	-18694
刖	-18695
判	-18696
劬	-18697
匙	-18698
匮	-18699
卣	-18700
厦	-18701
叵	-18702
吓	-18703
呀	-18704
呻	-18705
咏	-18706
啊	-18707
喟	-18708
嘀	-18709
嘟	-18710
噬	-18711
囷	-18712
圈	-18713
圭	-18714
垢	-18715
埔	-18716
埽	-18717
塘	-18718
墀	-18719
墵	-18720
壳	-18721
夥	-18722
奁	-18723
奥	-18724
姆	-18725
娱	-18726
娼	-18727
婺	-18728
嫡	-18729
孕	-18730
孱	-18731
孽	-18732
宕	-18733
岐	-18734
峭	-18735
币	-18736
帏	-18737
帚	-18738
帮	-18739
庚	-18740
廴	-18741
弼	-18742
忤	-18743
恽	-18744
悯	-18745
悴	-18746
惆	-18747
惺	-18748
愍	-18749
憔	-18750
憩	-18751
戾	-18752
扒	-18753
抡	-18754
拊	-18755
括	-18756
拼	-18757
捞	-18758
捻	-18759
掖	-18760
揽	-18761
摸	-18762
撸	-18763
擎	-18764
擢	-18765
敞	-18766
敲	-18767
斋	-18768
斑	-18769
旆	-18770
旎	-18771
旻	-18772
昃	-18773
昴	-18774
晤	-18775
暾	-18776
曛	-18777
杭	-18778
杲	-18779
梧	-18780
梨	-18781
楫	-18782
槐	-18783
槔	-18784
樗	-18785
殛	-18786
汀	-18787
沦	-18788
沽	-18789
泞	-18790
洹	-18791
涝	-18792
涫	-18793
淑	-18794
淡	-18795
渑	-18796
溆	-18797
溟	-18798
溯	-18799
滏	-18800
滞	-18801
漓	-18802
澳	-18803
灏	-18804
炒	-18805
炜	-18806
炬	-18807
烹	-18808
煳	-18809
煽	-18810
爨	-18811
爰	-18812
牟	-18813
狡	-18814
狻	-18815
猓	-18816
獗	-18817
獠	-18818
獾	-18819
珝	-18820
球	-18821
璆	-18822
瓜	-18823
瓶	-18824
甸	-18825
畋	-18826
疽	-18827
癫	-18828
眈	-18829
眭	-18830
瞪	-18831
矜	-18832
禧	-18833
秃	-18834
秬	-18835
秭	-18836
稻	-18837
稿	-18838
窍	-18839
窦	-18840
笥	-18841
笾	-18842
簦	-18843
簧	-18844
粒	-18845
粼	-18846
絮	-18847
纛	-18848
纱	-18849
纽	-18850
纾	-18851
绘	-18852
绮	-18853
缕	-18854
缥	-18855
缩	-18856
羁	-18857
羧	-18858
翎	-18859
聋	-18860
肓	-18861
肖	-18862
肢	-18863
育	-18864
肴	-18865
胞	-18866
胥	-18867
胺	-18868
脏	-18869
腊	-18870
腔	-18871
腮	-18872
膛	-18873
臻	-18874
臼	-18875
芎	-18876
芜	-18877
苛	-18878
荧	-18879
荩	-18880
菪	-18881
萃	-18882
萤	-18883
蒸	-18884
蒺	-18885
蓍	-18886
蓬	-18887
蔓	-18888
蕃	-18889
薤	-18890
藐	-18891
蘩	-18892
虫	-18893
蚝	-18894
蛉	-18895
蝇	-18896
蟠	-18897
蠹	-18898
衬	-18899
袛	-18900
袢	-18901
裙	-18902
裾	-18903
觐	-18904
觯	-18905
讣	-18906
诀	-18907
诳	-18908
谠	-18909
豸	-18910
貅	-18911
趸	-18912
跸	-18913
踉	-18914
踵	-18915
蹦	-18916
辜	-18917
逶	-18918
遐	-18919
遑	-18920
邙	-18921
邸	-18922
酝	-18923
酥	-18924
酱	-18925
醇	-18926
醮	-18927
鈇	-18928
钁	-18929
钗	-18930
铀	-18931
铩	-18932
铭	-18933
铰	-18934
铱	-18935
铸	-18936
链	-18937
镫	-18938
镶	-18939
闵	-18940
阊	-18941
阑	-18942
隅	-18943
靡	-18944
韧	-18945
颐	-18946
驳	-18947
骚	-18948
髫	-18949
鬯	-18950
鹉	-18951
鹦	-18952
黜	-18953
鼐	-18954
龋	-18955
龛	-18956
#	-18957
@	-18958
B	-18959
D	-18960
M	-18961
O	-18962
R	-18963
j	-18964
l	-18965
×	-18966
ǖ	-18967
Α	-18968
η	-18969
∈	-18970
∥	-18971
∩	-18972
≈	-18973
⌒	-18974
ぃ	-18975
に	-18976
ァ	-18977
コ	-18978
シ	-18979
デ	-18980
ㄒ	-18981
乩	-18982
予	-18983
亨	-18984
亵	-18985
佛	-18986
佟	-18987
佣	-18988
佻	-18989
侈	-18990
侠	-18991
俅	-18992
俎	-18993
俳	-18994
倡	-18995
傻	-18996
兑	-18997
冥	-18998
冶	-18999
刂	-19000
剃	-19001
剜	-19002
剧	-19003
勰	-19004
匏	-19005
匕	-19006
匝	-19007
匪	-19008
厕	-19009
咛	-19010
咳	-19011
哙	-19012
哲	-19013
唱	-19014
啕	-19015
啡	-19016
啦	-19017
啬	-19018
啵	-19019
嗤	-19020
嘈	-19021
嘏	-19022
嘣	-19023
噀	-19024
噎	-19025
嚎	-19026
嚷	-19027
圩	-19028
垦	-19029
堰	-19030
塑	-19031
墟	-19032
壎	-19033
壤	-19034
壬	-19035
奄	-19036
套	-19037
奘	-19038
妓	-19039
妗	-19040
妥	-19041
姚	-19042
娇	-19043
娥	-19044
娩	-19045
嫘	-19046
嬉	-19047
孰	-19048
寞	-19049
寤	-19050
尤	-19051
岌	-19052
岷	-19053
峙	-19054
峤	-19055
峦	-19056
崃	-19057
崛	-19058
崦	-19059
崴	-19060
嵊	-19061
嵘	-19062
嵯	-19063
巅	-19064
幢	-19065
庑	-19066
廾	-19067
弗	-19068
弛	-19069
弧	-19070
徇	-19071
徉	-19072
怂	-19073
怆	-19074
恁	-19075
恒	-19076
恬	-19077
恳	-19078
恿	-19079
悍	-19080
悒	-19081
惰	-19082
慵	-19083
憾	-19084
戌	-19085
抨	-19086
抽	-19087
挛	-19088
挠	-19089
挣	-19090
挨	-19091
捆	-19092
捌	-19093
揲	-19094
搪	-19095
搴	-19096
搿	-19097
摹	-19098
撒	-19099
撕	-19100
撩	-19101
撺	-19102
擦	-19103
斥	-19104
斫	-19105
旒	-19106
旰	-19107
昕	-19108
昧	-19109
晟	-19110
晡	-19111
暝	-19112
朊	-19113
朐	-19114
构	-19115
枰	-19116
枹	-19117
柚	-19118
栉	-19119
棍	-19120
棚	-19121
椎	-19122
椭	-19123
楮	-19124
榆	-19125
殂	-19126
汁	-19127
汕	-19128
汪	-19129
汰	-19130
沤	-19131
沧	-19132
泯	-19133
泵	-19134
洁	-19135
洲	-19136
洳	-19137
洽	-19138
浔	-19139
浦	-19140
涞	-19141
涠	-19142
液	-19143
淆	-19144
淇	-19145
淯	-19146
渖	-19147
渲	-19148
湃	-19149
溢	-19150
溲	-19151
溽	-19152
滂	-19153
滤	-19154
滦	-19155
漆	-19156
潺	-19157
澄	-19158
濦	-19159
灼	-19160
炔	-19161
烝	-19162
焊	-19163
煊	-19164
煎	-19165
熬	-19166
熳	-19167
燎	-19168
燥	-19169
爸	-19170
爻	-19171
牍	-19172
牲	-19173
犀	-19174
狠	-19175
狩	-19176
猝	-19177
猾	-19178
獬	-19179
玲	-19180
玷	-19181
珊	-19182
珑	-19183
瑛	-19184
瑯	-19185
璇	-19186
瓯	-19187
瓴	-19188
甬	-19189
畜	-19190
畹	-19191
痈	-19192
痕	-19193
瘁	-19194
瘛	-19195
癖	-19196
癞	-19197
癣	-19198
盍	-19199
眇	-19200
眸	-19201
睚	-19202
睢	-19203
睨	-19204
睬	-19205
瞋	-19206
瞥	-19207
矴	-19208
砭	-19209
砾	-19210
硐	-19211
硗	-19212
碇	-19213
碗	-19214
碛	-19215
碾	-19216
秩	-19217
税	-19218
稚	-19219
稼	-19220
窒	-19221
窘	-19222
窠	-19223
笠	-19224
笳	-19225
筮	-19226
箪	-19227
篆	-19228
粑	-19229
纡	-19230
纹	-19231
绒	-19232
绫	-19233
绲	-19234
绻	-19235
缀	-19236
编	-19237
缠	-19238
缣	-19239
缧	-19240
缭	-19241
缴	-19242
缸	-19243
署	-19244
罹	-19245
羝	-19246
羸	-19247
羹	-19248
羿	-19249
翘	-19250
耑	-19251
耙	-19252
肚	-19253
肤	-19254
肿	-19255
胀	-19256
胃	-19257
胗	-19258
胛	-19259
胝	-19260
胧	-19261
胪	-19262
胯	-19263
脍	-19264
腕	-19265
腥	-19266
膑	-19267
膘	-19268
舄	-19269
舱	-19270
舵	-19271
艄	-19272
艉	-19273
艽	-19274
芬	-19275
芸	-19276
芽	-19277
芾	-19278
苄	-19279
苊	-19280
苋	-19281
苒	-19282
苯	-19283
茇	-19284
茏	-19285
荚	-19286
荨	-19287
莅	-19288
莆	-19289
莉	-19290
菏	-19291
萑	-19292
葆	-19293
葺	-19294
蒲	-19295
蓿	-19296
蔑	-19297
蔚	-19298
蕉	-19299
蕲	-19300
虢	-19301
虼	-19302
虾	-19303
蚓	-19304
蚵	-19305
蛴	-19306
蜺	-19307
蝎	-19308
螟	-19309
蠖	-19310
蠢	-19311
蠼	-19312
衮	-19313
裘	-19314
裰	-19315
裼	-19316
褐	-19317
詈	-19318
讥	-19319
讴	-19320
讼	-19321
讽	-19322
诒	-19323
诓	-19324
诔	-19325
诙	-19326
谎	-19327
谘	-19328
谚	-19329
谛	-19330
豚	-19331
豨	-19332
貔	-19333
贽	-19334
赀	-19335
赃	-19336
赈	-19337
赜	-19338
趴	-19339
跄	-19340
跎	-19341
跛	-19342
距	-19343
踅	-19344
蹙	-19345
躔	-19346
轰	-19347
辫	-19348
迅	-19349
邴	-19350
鄠	-19351
酉	-19352
酶	-19353
酹	-19354
醋	-19355
醢	-19356
醪	-19357
釜	-19358
钊	-19359
钣	-19360
钭	-19361
钳	-19362
铝	-19363
锯	-19364
镁	-19365
镆	-19366
镏	-19367
镨	-19368
镬	-19369
阃	-19370
阐	-19371
阖	-19372
阱	-19373
陀	-19374
隧	-19375
隹	-19376
霁	-19377
霆	-19378
霏	-19379
鞅	-19380
鞑	-19381
鞠	-19382
韵	-19383
页	-19384
颅	-19385
颔	-19386
颖	-19387
饷	-19388
馁	-19389
馑	-19390
馒	-19391
馘	-19392
馨	-19393
驷	-19394
骥	-19395
髂	-19396
髡	-19397
髻	-19398
魅	-19399
魇	-19400
鲇	-19401
鲝	-19402
鳅	-19403
鳖	-19404
鳝	-19405
鸨	-19406
鸪	-19407
鸹	-19408
鹩	-19409
鹭	-19410
麈	-19411
黍	-19412
黥	-19413
黩	-19414
齁	-19415
龅	-19416
<	-19417
>	-19418
I	-19419
P	-19420
Q	-19421
T	-19422
X	-19423
a	-19424
h	-19425
ê	-19426
÷	-19427
ù	-19428
ú	-19429
ü	-19430
ń	-19431
ū	-19432
ɡ	-19433
Π	-19434
Σ	-19435
Τ	-19436
Φ	-19437
ξ	-19438
ο	-19439
σ	-19440
Р	-19441
Ъ	-19442
Ю	-19443
в	-19444
г	-19445
∏	-19446
√	-19447
∪	-19448
∷	-19449
┍	-19450
┏	-19451
┚	-19452
┣	-19453
┪	-19454
┮	-19455
□	-19456
〈	-19457
」	-19458
『	-19459
〔	-19460
ぁ	-19461
げ	-19462
じ	-19463
ち	-19464
ぬ	-19465
ふ	-19466
ゴ	-19467
サ	-19468
ス	-19469
ト	-19470
ド	-19471
ノ	-19472
フ	-19473
ㄋ	-19474
ㄏ	-19475
ㄓ	-19476
ㄘ	-19477
丐	-19478
丶	-19479
乓	-19480
乜	-19481
亓	-19482
亘	-19483
亟	-19484
仞	-19485
伲	-19486
侨	-19487
侪	-19488
俏	-19489
倌	-19490
倜	-19491
倩	-19492
偈	-19493
偬	-19494
偾	-19495
傧	-19496
僖	-19497
僵	-19498
兢	-19499
冉	-19500
冗	-19501
凇	-19502
凳	-19503
刁	-19504
刈	-19505
划	-19506
刽	-19507
剂	-19508
剪	-19509
剽	-19510
劾	-19511
勐	-19512
勑	-19513
勖	-19514
勺	-19515
匀	-19516
匄	-19517
匍	-19518
匐	-19519
匚	-19520
匾	-19521
卮	-19522
卯	-19523
厔	-19524
厘	-19525
吠	-19526
吡	-19527
吧	-19528
吭	-19529
吸	-19530
吻	-19531
呓	-19532
呤	-19533
呶	-19534
呷	-19535
咆	-19536
咐	-19537
咚	-19538
咥	-19539
咦	-19540
咧	-19541
咫	-19542
咴	-19543
哩	-19544
哪	-19545
哮	-19546
哺	-19547
哽	-19548
唆	-19549
唿	-19550
啜	-19551
啤	-19552
啥	-19553
啻	-19554
啾	-19555
喈	-19556
喑	-19557
喨	-19558
嗄	-19559
嗉	-19560
嗓	-19561
嗖	-19562
嗡	-19563
嗨	-19564
嗪	-19565
嗬	-19566
嗲	-19567
嗵	-19568
嗽	-19569
嘲	-19570
嘴	-19571
嘹	-19572
噤	-19573
噫	-19574
囧	-19575
坊	-19576
坌	-19577
坎	-19578
坝	-19579
坪	-19580
垠	-19581
垫	-19582
域	-19583
埠	-19584
堇	-19585
堋	-19586
塔	-19587
墉	-19588
墼	-19589
壅	-19590
奚	-19591
奶	-19592
娌	-19593
婀	-19594
婉	-19595
媚	-19596
嫒	-19597
嫔	-19598
嫜	-19599
嫩	-19600
嫫	-19601
嫱	-19602
嬖	-19603
嬗	-19604
嬴	-19605
孛	-19606
孜	-19607
孥	-19608
孪	-19609
宸	-19610
寮	-19611
尼	-19612
岗	-19613
岛	-19614
岜	-19615
岣	-19616
岫	-19617
岵	-19618
峁	-19619
峄	-19620
峋	-19621
峒	-19622
峰	-19623
崤	-19624
崧	-19625
崮	-19626
嵴	-19627
嶂	-19628
嶲	-19629
帙	-19630
帧	-19631
帷	-19632
幄	-19633
庋	-19634
庳	-19635
庾	-19636
廒	-19637
廛	-19638
弁	-19639
弇	-19640
弯	-19641
彘	-19642
彬	-19643
彷	-19644
徂	-19645
很	-19646
徜	-19647
徨	-19648
徭	-19649
徼	-19650
忄	-19651
怬	-19652
怼	-19653
恫	-19654
悃	-19655
惴	-19656
愀	-19657
愉	-19658
愠	-19659
愬	-19660
慄	-19661
慑	-19662
慓	-19663
憎	-19664
憬	-19665
憷	-19666
懋	-19667
懑	-19668
懔	-19669
戆	-19670
戊	-19671
戕	-19672
戢	-19673
扉	-19674
扌	-19675
扔	-19676
扼	-19677
找	-19678
抒	-19679
抓	-19680
抠	-19681
抻	-19682
拇	-19683
拉	-19684
拓	-19685
挖	-19686
挚	-19687
挪	-19688
捅	-19689
捍	-19690
捎	-19691
捏	-19692
捩	-19693
捽	-19694
掉	-19695
控	-19696
掬	-19697
揎	-19698
描	-19699
揣	-19700
搀	-19701
搂	-19702
搏	-19703
摔	-19704
撄	-19705
撚	-19706
撬	-19707
撰	-19708
攒	-19709
攴	-19710
敫	-19711
斐	-19712
斓	-19713
斡	-19714
於	-19715
旂	-19716
旙	-19717
旯	-19718
晁	-19719
晙	-19720
暌	-19721
曷	-19722
朦	-19723
朴	-19724
杉	-19725
杩	-19726
杳	-19727
杵	-19728
析	-19729
枒	-19730
枘	-19731
枞	-19732
枫	-19733
枳	-19734
枵	-19735
柘	-19736
柿	-19737
栊	-19738
栌	-19739
栎	-19740
核	-19741
格	-19742
桐	-19743
桔	-19744
桧	-19745
桨	-19746
桩	-19747
梳	-19748
棉	-19749
椒	-19750
椽	-19751
椿	-19752
楞	-19753
楦	-19754
楯	-19755
楸	-19756
楹	-19757
榛	-19758
槁	-19759
樋	-19760
樯	-19761
橐	-19762
橙	-19763
檬	-19764
櫊	-19765
欤	-19766
欷	-19767
歼	-19768
殉	-19769
殖	-19770
殚	-19771
殪	-19772
殴	-19773
毂	-19774
毩	-19775
氐	-19776
氛	-19777
氡	-19778
氤	-19779
氩	-19780
氪	-19781
氺	-19782
汇	-19783
汙	-19784
汶	-19785
沅	-19786
沆	-19787
沌	-19788
沱	-19789
沼	-19790
洋	-19791
洌	-19792
浒	-19793
浙	-19794
浯	-19795
浼	-19796
涟	-19797
涤	-19798
涸	-19799
淅	-19800
淌	-19801
淖	-19802
淘	-19803
淙	-19804
淠	-19805
渗	-19806
渝	-19807
湄	-19808
湎	-19809
湟	-19810
湫	-19811
湮	-19812
溉	-19813
溜	-19814
漯	-19815
潢	-19816
潦	-19817
澈	-19818
澜	-19819
濉	-19820
濛	-19821
濯	-19822
瀣	-19823
灸	-19824
炀	-19825
炅	-19826
炊	-19827
炫	-19828
烘	-19829
烙	-19830
烤	-19831
烨	-19832
焓	-19833
焫	-19834
焯	-19835
煞	-19836
煤	-19837
爷	-19838
牁	-19839
牂	-19840
牒	-19841
牝	-19842
牺	-19843
犍	-19844
狎	-19845
猥	-19846
獐	-19847
獒	-19848
琢	-19849
瑕	-19850
瑚	-19851
瑟	-19852
璃	-19853
璨	-19854
瓿	-19855
甏	-19856
甜	-19857
甭	-19858
畈	-19859
畛	-19860
畯	-19861
畲	-19862
疃	-19863
疚	-19864
疟	-19865
疠	-19866
疢	-19867
症	-19868
瘠	-19869
瘸	-19870
癯	-19871
癸	-19872
皈	-19873
盂	-19874
盥	-19875
盩	-19876
盲	-19877
盾	-19878
眦	-19879
眯	-19880
眺	-19881
瞰	-19882
瞳	-19883
矍	-19884
矩	-19885
矶	-19886
矿	-19887
砌	-19888
研	-19889
砟	-19890
砣	-19891
砦	-19892
砩	-19893
砬	-19894
硖	-19895
碚	-19896
碜	-19897
碱	-19898
磋	-19899
磕	-19900
祐	-19901
祯	-19902
祺	-19903
租	-19904
秸	-19905
稔	-19906
稣	-19907
稹	-19908
穗	-19909
穸	-19910
窈	-19911
窕	-19912
窖	-19913
窨	-19914
窬	-19915
站	-19916
竣	-19917
笄	-19918
笈	-19919
笏	-19920
笕	-19921
笙	-19922
笛	-19923
笞	-19924
笱	-19925
笺	-19926
筇	-19927
筛	-19928
箍	-19929
箧	-19930
箱	-19931
篁	-19932
簟	-19933
籼	-19934
粜	-19935
粝	-19936
粢	-19937
粤	-19938
粱	-19939
粹	-19940
糇	-19941
糯	-19942
紞	-19943
絏	-19944
綆	-19945
纭	-19946
纺	-19947
绁	-19948
绎	-19949
绷	-19950
缃	-19951
缔	-19952
缛	-19953
缤	-19954
缦	-19955
缬	-19956
缰	-19957
缵	-19958
罄	-19959
罅	-19960
罐	-19961
罟	-19962
羟	-19963
翩	-19964
翰	-19965
翳	-19966
耄	-19967
耘	-19968
聿	-19969
肀	-19970
肘	-19971
肫	-19972
肷	-19973
胂	-19974
胍	-19975
胎	-19976
胨	-19977
脐	-19978
腈	-19979
腴	-19980
膀	-19981
舨	-19982
舴	-19983
舸	-19984
艋	-19985
艚	-19986
艹	-19987
艿	-19988
芋	-19989
芍	-19990
芏	-19991
芗	-19992
芟	-19993
芤	-19994
苁	-19995
苈	-19996
